#version: 0.2
Ġ t
h e
Ġ a
Ġ Ġ
i n
Ġt he
Ġ o
r e
Ġ w
Ġ s
n d
e r
a t
i s
o n
Ġo f
Ġ b
i t
e d
o u
e n
Ġ h
Ġ f
Ġ c
Ġ m
ĠĠ ĠĠ
o r
e s
Ġa nd
a r
Ġt o
a n
in g
Ġ p
l l
a s
Ġ in
Ġ d
Ġt h
â Ģ
Ġ l
o m
i c
Ġ n
Ġ he
l e
Ġb e
a d
a l
o t
i on
s t
Ġ g
Ġ e
Ġ I
en t
u t
o w
v e
s e
l y
i m
c e
i d
l d
Ġw h
Ġ re
ĠĠĠĠ ĠĠĠĠ
g h
Ġ T
Ġth at
i r
Ġo n
e t
Ġw as
u r
it h
v er
Ġ it
a y
Ġ u
r o
c t
Ġ y
Ġf or
Ġa s
Ġ is
c h
Ġw ith
a m
r i
Ġ S
a nd
Ġw e
Ġh is
t he
Ġ A
N N
Ġs t
- -
gh t
Ġy ou
Ġa n
t h
t er
Ġ M
Ġ C
a in
a ll
Ġn ot
Ġa t
i l
âĢ Ļ
i ll
i f
Ġ H
o o
a ve
ĠT he
ĠĠ Ġ
âĢ ľ
Ġ B
ic h
Ġh ad
âĢ Ŀ
ou ld
Ġb y
k e
at ion
es s
re d
Ġs e
r a
r om
p e
T T
u s
u l
A A
g e
o re
Ġs u
Ġ 1
he r
Ġd e
a c
Ġs h
Ġo r
Ġwh ich
q u
Ġhe r
Ġ P
re s
o l
a b
Ġc on
Ġm e
es t
Ġ W
Ġf rom
Ġh ave
Ġh im
om e
er s
an t
ar d
Ġ _
Ġs o
is t
Ġ v
i ght
e m
t o
ou s
Ġe x
p p
NN NN
o s
Ġa ll
Ġb ut
u m
u n
Ġ G
Ġth is
Ġ L
u st
Ġ k
Ġn e
ou r
Ġa re
ĠĠĠĠĠĠĠĠ ĠĠĠĠĠĠĠĠ
at e
Ġ F
Ġwe re
i e
Ġ r
Ġs a
i g
ar t
Ġthe y
e l
Ġw he
Ġu p
as t
Ġc h
Ġ D
n t
Ġs he
Ġwh o
Ġ E
on g
i v
T G
Ġ R
Ġm y
i ve
A G
Ġa l
am e
Ġon e
a p
in d
Ġm an
ou nd
Ġthe ir
T he
ou t
Ġd o
Ġc om
ver y
o d
or t
Ġ âĢľ
it y
C C
a k
o p
Ġthe m
Ġp ro
i es
Ġ N
oo d
Ġw or
Ġ O
e ll
the r
e ct
Ġa b
o st
se l
u re
Ġn o
ou gh
a v
re at
a g
r y
Ġl e
on e
Ġbe en
Ġ J
ow n
' s
o f
Ġ "
p t
t e
Ġp l
Ġ (
m ent
Ġsa id
Ġthe re
c k
Ġw ould
in e
n e
is h
Ġ 2
Ġo ut
c i
an ce
it t
id e
he d
Ġa r
ĠH e
a u
Ġw ill
as s
p l
o nd
o se
f f
c c
a ce
oo k
a re
. âĢĿ
ab le
en ce
Ġ j
ac k
Ġwhe n
u d
a ke
Ġf e
Ġt r
p er
âĢ Ķ
ic e
Ġu n
or d
im e
all y
b er
Ġm ore
Ġ qu
ĠĠĠĠ Ġ
Ġa g
Ġo ther
sel f
Ġs p
Ġl i
T C
w e
Ġan y
Ġk n
an s
NNNN NNNN
ad e
A C
Ġh as
ou nt
ion s
i re
ar y
Ġc an
Ġu s
Ġin to
Ġs ome
Ġg o
. "
Ġt w
Ġ if
Ġa d
v en
re e
at ed
it e
o ve
ar s
a ge
ĠI t
Ġ im
nd er
f ore
Ġ en
Ġc l
b e
e p
b le
Ġg r
t ain
n g
f ter
ĠT h
Ġ ro
ot her
u e
Ġa m
Ġd is
ur n
ay s
res s
, âĢĿ
Ġit s
Ġth an
Ġb r
ing s
b l
Ġt ime
c l
o ll
Ġc ould
w n
Ġo ur
Ġ very
a ct
a ch
Ġp er
Ġg reat
Ġwh at
i le
ou ght
-- --
i ous
Ġp r
Ġyou r
_ ,
Ġ |
an g
Ġ 3
f e
o y
Ġp art
i ed
itt le
r u
v ed
u ch
f or
Ġup on
ic k
Ġo ver
Ġon ly
Ġab out
w h
Ġb l
ĠC h
h ing
A T
t y
Ġli ke
if e
, "
ar k
u ll
Ġf l
Ġm ay
in k
d e
Ġn ow
ir st
s o
Ġp re
Ġthe n
G G
i p
Ġkn ow
Ġtw o
Ġd id
ĠI n
on s
re n
at her
i ld
at h
Ġag ain
Ġa fter
in t
Ġsh ould
Ġm ade
Ġp e
i an
Ġ K
ĠM r
m an
ig n
i a
w ard
f ul
Ġto o
Ġ V
ĠA nd
Ġl ittle
Ġse e
Ġp o
Ġh and
n ess
Ġof f
a ir
. .
is e
Ġthe se
. _
Ġy e
Ġth r
o ld
Ġd es
or y
i z
Ġu nder
ĠB ut
Ġre m
ĠĠĠĠ ĠĠ
Ġ Y
at er
Ġ ri
it ion
c es
Ġsu ch
ĠS t
o g
is s
Ġre s
os s
s h
or n
Ġbe fore
Ġh ow
Ġl ong
Ġs pe
Ġm ust
en s
Ġf irst
e nd
Ġcom p
Ġwor k
he n
â Ķ
n ot
A TT
Ġl ook
ic al
Ġg ood
a w
ation s
f t
m er
Ġwhe re
Ġcon t
Ġs c
Ġd own
Ġ1 8
Ġm uch
E R
Ġbe c
Ġs m
ic t
c ed
ul t
Ġm en
Ġbe t
he s
l and
i ly
Ġm ost
as e
0 0
th at
j ect
Ġa cc
Ġe very
Ġ 4
Ġo ld
p h
w ay
or s
Ġim p
en er
Ġo wn
ad y
Ġcon s
Ġwe ll
Ġcom m
l ed
Ġe ven
ot h
Ġd ay
ct ion
Ġ ra
Ġo b
ou se
Ġth ose
a pp
Ġs ay
l es
res ent
Ġbe ing
v es
h at
r an
e x
Ġw ay
Ġthr ough
r it
Ġne ver
l i
ri ed
c on
Ġa pp
Ġp ass
Ġg l
au se
Ġa p
Ġman y
' t
Ġc ame
o ck
Ġb ack
Ġf ound
i al
NNNNNNNN NNNNNNNN
a il
t ed
Ġc all
i gh
k ed
Ġl ife
Ġ ent
at ter
ĠĠĠĠ ĠĠĠ
Ġs ame
Ġse em
m ed
Ġm ight
Ġbe l
i x
op le
ow er
pe ct
. ,
Ġth ink
Ġc ome
? âĢĿ
l ess
Ġs er
Ġhe re
o ver
Ġat t
Ġ *
Ġs l
w ith
i ble
a red
h is
Ġe y
âĢ ĺ
p le
d u
is hed
Ġd ist
Ġm ake
at es
Ġhim self
oll ow
u p
Ġre p
Ġl et
c om
A TG
ent s
m s
Ġe ar
Ġ U
Ġ 5
Ġsh all
om et
Ġj ust
e ver
u nd
Ġsu b
Ġth ought
ĠS he
Ġwith out
u al
re t
H E
Ġ ke
en ed
c ess
Ġe nd
Ġbe g
r ow
er tain
Ġal so
Ġo p
i b
it ed
Ġl ast
Ġc ar
ak ing
s u
Ġc ount
o c
Ġf ar
g et
I t
b ut
av ing
ĠĠĠĠĠĠĠĠĠĠĠĠĠĠĠĠ ĠĠĠĠĠĠĠĠĠĠĠĠĠĠĠĠ
Ġf ri
k s
Ġwor d
in ce
m e
H e
Ġe m
Ġhe ad
Ġpl ace
it s
ut h
s s
re st
Ġch ar
Ġne w
? "
e red
Ġre t
Ġre l
Ġpe ople
G C
Ġa c
Ġg et
âĶ Ģ
ĠThe y
Ġri ght
Ġst ill
w as
Ġsu pp
ul ar
o pe
Ġse c
Ġap pe
g g
e w
he re
ce pt
Ġw ent
Ġn at
ĠTh is
Ġt e
Ġa way
Ġd if
Ġre g
Ġ 6
Ġw om
Ġt urn
Ġin st
Ġwh ile
im es
Ġf ollow
Ġ 0
< /
d er
Ġst r
Ġt ake
Ġc our
t ing
we en
a le
o b
Ġs et
Ġye ars
v ent
Ġp ers
n er
n ing
ĠW e
T AA
o ot
h y
it her
âĶĢ âĶĢ
Ġth ree
Ġg iv
oo l
ver s
O N
ent ly
Ġw ar
Ġre c
r on
a id
) ,
Ġw r
m ost
i i
Ġ '
ĠE ng
in ed
Ġex p
u res
Ġs ur
Ġin t
Ġyou ng
od y
Ġp ut
Ġfri end
ĠG od
w ays
c y
Ġ -
b y
Ġey es
Ġ [
at t
Ġ1 9
Ġa ct
in s
ra ct
al s
! âĢĿ
p r
t s
Ġm ar
Ġle ft
I n
Ġp oss
Ġh ouse
u bl
Ġch ild
iv ed
Ġg ener
Ġy et
s er
Ġagain st
ĠĠĠĠĠĠĠĠĠĠĠĠĠĠĠĠ ĠĠĠĠĠĠĠĠ
Ġan other
o h
al f
Ġth ough
i er
ĠThe re
os ed
Ġe ach
t on
an y
I N
Ġl ar
Ġo cc
f l
d en
Ġin d
am p
Ġe ver
is ed
Ġfe w
Ġl ight
a ut
Ġn or
Ġf ind
th ing
r ist
ĠS e
Ġs omet
Ġp resent
ak en
i red
ie f
Ġn ight
Ġb o
Ġwor ld
Ġbet ween
ff ect
ter s
Ġw ant
t en
at ing
Ġhe art
c ri
Ġon ce
m y
Ġt ell
Ġne ar
Ġt er
Ã ©
re w
ro ss
te nd
m en
Ġp ur
T CC
A CC
Ġ âĢĺ
A R
Ġm ind
A N
ment s
au ght
et h
Ġ 8
Ġg ive
Ġl ove
---- ----
al k
_ .
ur ing
Ġn ame
B ut
A nd
Ġf ace
Ġsm all
ou th
ne w
ow s
it ies
Ġw ater
Ġe v
Ġcall ed
Ġad d
Ġin c
Ġk ind
a z
re nt
Ġsa w
Ġtoo k
Ġ 7
as on
wh ich
c hed
AA AA
ap s
Ġs ide
Ġnot hing
Ġd on
Ġp le
Ġre st
ĠA s
et s
p s
I I
sel ves
Ġg u
Ġc o
Ġfor m
Ġre ad
in ess
ant s
g ed
Ġin ter
! "
m on
in es
ot e
ĠY ou
u g
Ġal ways
Ġm on
ir l
er n
Ġth ings
ull y
E N
Ġst re
ĠT HE
p ro
Ġwho le
en e
Ġc ertain
ain ed
as ter
AG G
Ġb oth
Ġ1 7
Ġam ong
b r
re ad
E S
ĠI f
Ġb u
et y
. ]
Ġret urn
g r
Ġcount ry
ust r
Ġh app
Ġc ap
Ġpo int
ĠA n
Ġn um
ou n
en se
Ġcon f
Ġre f
Ġf act
ut e
ĠA r
l ish
Ġm in
ve l
Y ou
Ġ <
ward s
ie ld
Ġs w
ab ly
te rest
Ġm om
Ġc le
a h
Ġs ent
ĠH is
le ct
Ġdis c
Ġse en
ir d
Ġf ather
ĠF or
O R
A TC
Ġc ol
Ġex t
Ġf am
Ġar t
Ġl and
AG C
i ans
ate ly
Ġh aving
Ġbec ause
Ġfe el
Ġhand s
id er
TT C
Ġh ome
Ġd ays
Ġlar ge
Ġso on
Ġh um
if ic
Ġas s
u b
) .
ĠR e
get her
Ġl ess
f ic
Ġc ond
Ġu nt
Ġc r
Ġh alf
Ġwh om
v ing
Ġf ell
Ġin s
oh n
an k
Ġth ing
pp ed
ain s
Ġp ower
ut ion
ĠM ar
un g
y ou
ur y
is on
Ġu se
Ġc are
Ġd one
Ġto ld
os ition
Ġt ri
iv es
ar ing
Ġan s
g in
id ent
Ġg ot
c hes
Ġd ra
l ing
Ġad v
Ġc ur
ar n
Ġro om
ur ch
Ġcour se
Ġh igh
ĠA l
Ġh our
ag es
el t
Ġhow ever
Ġ1 6
ent ion
Ġas ked
for m
Ġlook ed
Ġb oy
ĠA t
n ow
Ġs k
ou b
Ġf our
ce ed
u ally
Ġs at
1 8
Ġs im
Ġb est
Ġmom ent
Ġgo ing
ow ed
Ġc ent
x t
Ġh ard
Ġ 9
Ġf ore
Ġc he
Ġl aw
ĠT o
Ġm atter
Ġw ind
ĠP ro
ubl ic
Ġst and
at ch
Ġseem ed
Ġs y
at ive
Ġhe ard
Ġst e
Ġde l
Ġ1 5
Ġdo es
er y
ĠI nd
Ġgiv en
Ġs il
Ġt aken
Ġb ro
Ġre ce
ĠCh rist
o on
b ed
Ġbel ie
h aps
Ġbet ter
o ice
ĠW hen
Ġv is
ak es
ri ght
d ay
Ġe l
Ġ Â
Ġwom an
Ġg irl
Ġd et
Ġ ed
AA G
Ġal most
ĠMr s
Ġk new
id ed
is m
o ved
ie w
Ġin terest
Ġ =
ĠO F
Ġunt il
Ġ1 0
Ġm il
h ad
e y
Ġ es
Ġd ire
w or
ud e
id es
Ġm other
Ġpers on
en g
Ġsu ff
ĠD e
ĠO n
st and
Ġop en
TT TT
ĠU n
Ġde p
orn ing
Ġde ath
u red
ĠN o
Ġus ed
Ġqu ite
as ed
ou l
us ed
f ect
âĶ Ĥ
mer ic
Ġdif fe
Ġword s
Ġen ough
Ġke ep
Ġg ave
est ion
ĠL ord
ir c
Ġt re
as h
Ġye ar
Ġcont in
Ġin de
ĠThe n
ĠJ ohn
Ġf ull
und red
Ġc or
er ing
Ġde c
ac hed
an ces
one y
ou d
TG C
Ġfe et
Ġbr ought
Ġin v
Ġb re
Ġdo or
Ġ1 2
Ġwho se
an ge
a im
Ġor der
Ġser v
ress ed
Ġh or
Ġne ed
Ġhe l
Ġwh ite
ĠW h
TG G
Ġad m
Ġother s
Ġbe aut
f ully
Ġb ook
Ġsomet hing
ĠP r
Ġs ince
Ġt ra
Ġpl ac
Ġw a
t t
M r
ot t
ci al
em pt
ĠTh at
ĠS p
Ġp ri
us s
Ġpro p
r ic
ren ce
f ort
f rom
Ġk ing
i ent
ĠN ew
ard s
o int
act er
Ġo pp
Ġ est
ir it
ĠB e
ĠC om
o ke
Ġre al
Ġc ase
Ġbe h
Ġr ound
ĠS o
t r
AA C
Ġf in
NNNNNNNNNNNNNNNN NNNNNNNNNNNNNNNN
am es
h il
ren ch
Ġp res
Ġp ol
Ġb us
p ar
a pe
Ġhe av
W e
iz ed
h im
uth or
Ġab ove
pe nd
ran ge
Ġf all
Ġme an
Ġcan not
Ġne xt
Ġthem selves
T ER
ain t
il ity
u se
Ġcon st
Ġ ide
A L
m b
k en
ter n
Ġr ather
ll ustr
s on
re ady
Ġp ar
Ġsu n
Ġturn ed
Ġsec ond
Ġd ark
N o
at ure
Ġ ill
Ġm orning
Ġv ar
Ġm et
Ġm od
Ġkn own
i us
Ġ Q
ur al
a x
y ing
W hat
ent y
ĠA meric
Ġp rom
e c
ist s
Ġof ten
ĠEng lish
is ter
Ġth us
Ġbeg an
Ã ¦
Ġh undred
o le
Ġf ire
ill ed
Ġd oub
er m
Ġne cess
u c
The re
1 0
Ġb ody
an e
Ġsub ject
ĠL e
Ġ X
Ġd r
s p
cc ess
sh ip
TT G
per i
ove red
Ġa ir
1 5
ĠC on
1 7
Ġtr ans
Ġh on
Ġto gether
Ġtr ue
u ck
ĠW hat
Ġf a
Ġpro v
Ġpro du
ĠM iss
un t
th ough
Ġs on
Ġf elt
i am
Ġto wn
ent le
Ġoff ic
ver al
Ġpl ay
Ġ1 4
c he
the y
1 9
Ġme ans
A P
Ġal ong
w ell
Ġ &
Ġa ff
1 2
Ġ âĶĤ
k ing
Ġs ix
Ġstr ong
Ġs ays
Ġsh ort
an n
Ġh old
S he
I S
ĠI s
Ġpo or
Ġsu re
1 6
r ing
ĠN or
Ġr un
w here
Ġd uring
Ġgr ound
itt ed
as ure
. )
h ave
ĠK ing
at s
Ġs ing
un e
T AG
T his
Ġre ason
iv ing
Ġl ay
Ġ1 3
Ġt ill
Ġcons ider
Ġs ign
i et
ĠĠĠĠĠĠĠĠ Ġ
Ġs we
Ġnum ber
a j
, --
Ġv oice
Ġe ffect
I llustr
C H
v al
in ation
in ci
ang er
C h
ch ool
Ġgener al
ous and
Ġt imes
em ent
Ġwith in
th is
Ġhel p
Ġd iv
wh at
Ġst ood
c ul
Ġs le
ow ing
Ġw ife
Illustr ation
ĠB y
Ġcl ose
we re
Ġ i
Ġre qu
Ġex pl
Ġpass ed
Ġw ond
1 4
Ġv ol
re am
.. ..
ol og
ĠS h
ĠA ll
Ġchild ren
o or
Ġc irc
Ġle ad
Ġre pl
ĠC l
s he
ĠS ir
. --
n ment
Ġob ser
Ġe qu
Ġchar acter
Ġg re
1 3
Ġst ate
Ġf ur
ne y
as es
iss ion
Ġse veral
u ed
le y
Ġm oney
li ke
Ġspe ak
qu e
st er
Ġit self
Ġh ope
av es
w er
Ġ ii
Ġimp ort
Ġbl ack
if ul
T AC
Ġcomm on
Ġsu m
ic s
Ġmy self
ar ch
the ir
Ġme et
Ġle ast
Ġw rit
ĠF rench
id ence
Ġob ject
it ions
Ġa uthor
Ġab s
Ġappe ar
Ġp ublic
Ġdoub t
Ġpro per
the re
Ġe as
it er
em ber
r ance
i o
Ġhe ld
ord ing
ĠB r
ut en
Ġde v
âĶĢâĶĢ âĶĢâĶĢ
Ġc ity
s c
ĠH er
f er
Ġa w
al ity
Ġnat ure
Ġse a
ri e
tain ed
Ġqu estion
Ġm er
Ġany thing
Ġv iew
Ġdiffe rent
g er
Ġal ready
as ion
Ġe ither
T h
d den
Ġear th
Ġst art
Ġp at
Ġt en
Ġhis t
al t
p re
Ġbelie ve
. âĢĻ
Ġcon c
Ġde ep
ĠEng land
Ġw ood
ci ous
ĠW ill
Ġe le
the m
Ġde ad
Ġacc ount
Ġhum an
b s
00 0
g y
g es
am ent
Ġc oll
Ġc e
Ġal one
Ġf ree
Ġst ru
ic es
Ġwom en
Ġde ar
Ġdire ct
Ġsu ccess
Ġst ud
Ġcomp le
Ġper haps
ron t
al th
Ġsp irit
ĠP ar
ra ce
Ġd ri
c o
er t
Ġc ut
Ġv al
Ġsu dden
Ġhe ar
Ġ ir
iz e
ry ing
ĠH ow
T hat
u es
l s
Ġb ur
e k
Ġthere fore
is ing
Ġth ou
Ġm ount
' ll
Ġs oul
Ġher self
Ġb ar
Ġl ine
s ide
ic ular
Ġbec ame
Ġre d
ri gin
Ġsh ip
Ġs ound
on y
ĠG er
te red
Ġf re
Ġth ousand
ar m
ious ly
Ġex am
Ġm ark
en n
N D
Ġcle ar
Ġp ort
ro p
Ġp ap
. [
Ġr u
g an
ect ion
Ġg one
att le
Ġl au
Ġw all
Ġt em
Ġg entle
or m
Ġth y
Ġinde ed
Ġb ed
Ġen g
Ġm us
Ġbec ome
Ġposs ess
ress ion
Ġpro b
Ġe t
cri pt
Ġpro f
n o
im ent
ci ent
il ed
are nt
Ġcomm and
air s
i ar
id d
O h
ĠW ith
on es
Ġf ive
f act
ener al
Ġgo ver
CC C
Ġres pect
Ġ2 0
Ġman ner
Ġpur p
he ad
ow ers
u nder
L E
med i
ri but
it ing
ou ra
aught er
R E
re m
ond on
Ġch ief
Ġle ave
el s
Ġt alk
Y es
Ġbr other
Ġfollow ing
d is
Ġro ad
= =
ber g
Ġrem ark
Ġbr ing
Ġc a
c ing
Ġposs ible
f in
Ġl o
pp er
c ons
Ġd est
Ġp ain
Ġf av
ĠS c
re g
Ġlet ter
ĠE d
ll ed
Ġfam ily
Ġm is
Ġp ast
v ol
Ġo rigin
Ġdif fic
Ġl ater
ĠÂ ©
ang ed
Ġar ound
Ġex cept
Ġex c
th s
il t
Ġl ive
on t
Ġs ol
m and
Ġfor t
Ġf air
Ġf ig
Ġl ost
ar r
Ġbeh ind
in ter
Ġar ri
if ied
) ;
Ġgo ld
se qu
Ġp ract
I T
h am
Ġwhe ther
o es
tend ed
Ġso ld
Ġtr uth
led ge
st r
le t
b and
we red
Ġfriend s
or row
Ġc ried
Ġle g
' d
Ġm aking
Ġf ine
fl u
Ġ( _
Ġpr inci
ou ble
o ly
Ġme re
Ġrepl ied
or k
w o
Ġab le
Ġreg ard
Ġex pect
.. .
ra ph
Ġper fect
AP TER
Ġrece ived
Ġke pt
it ude
Ġj ud
Ġs ort
Ġseem s
Ġen em
Ġan im
ound ed
Ġs it
I C
Ġfe ar
O U
Ġor d
Ġear ly
ber t
ĠG e
Ġt reat
Ġ .
u ct
ĠO ne
Ġde cl
c le
A s
us h
om an
ĠB rit
i ver
Ġ ut
ĠC ol
The y
is ion
Ġbl ood
Ġf oot
Ġsh ow
w ould
ĠM y
b ody
Ġwh y
Ġm ain
Ġunder stand
o e
ri es
ot ion
the n
5 0
Ġar m
Ġres ult
Ġb es
Ġw ish
. </
in ct
Ġl ow
Ġst ory
I L
in ary
i um
IN G
ĠA d
T ATT
Ġbeg in
ation al
T AT
W hen
m p
u ff
2 0
, âĢĻ
Ġm ove
ci ally
l f
Ġto wards
. '
ro om
Ġp ay
e ad
Ġpr ot
A n
d om
E L
Ġbus iness
w ill
Ġcom ing
op s
Ġex ist
Ġst ri
Ġin cl
i od
ot s
Ġapp ro
Ġhor se
Ġp ie
itt en
at ic
Ġs chool
W ell
Ġre ally
Ġel se
pl oy
in a
our s
ant ly
I f
b o
Ġtw enty
S t
Ġf ront
Ġ ve
Ġl ady
e ar
i vers
Ġle arn
Ġans wered
Ġri ver
u ght
Ġm ag
z e
Ġmil es
g o
n ight
ĠCh ar
Ġ âĢĻ
Ã ¡
Ġc ause
re l
not e
ĠL ondon
ut es
im p
Ġcl ass
ĠP l
ĠG r
ĠB l
Ġqu ick
R O
ĠGer man
Ġspe c
ang u
T o
us band
ab it
The n
Ġs ight
Ġnecess ary
Ġe ff
Ġme m
Ġex cl
al d
Ġc ross
itt ing
um e
Ġs ir
ir m
TG GG
eng th
Ġl ist
st em
y s
Ġacc om
Ġcar ried
it al
Ġc old
Ġa ge
Ġrel ig
Ġar ms
l ight
ĠD r
Ġl ab
Ġp osition
m in
wh o
Ġdis p
Ġlook ing
Ġch urch
en ces
Ġfollow ed
p ed
i ers
Ġd ut
id ge
Ġc al
ĠC ar
Ġ2 4
ĠĠĠĠĠĠĠĠ ĠĠĠ
Ġwond er
ir t
ĠSe e
Ġent ire
Ġide a
Ġb ad
c ome
ĠC ap
ĠO r
Ġm ed
iv id
Ġf if
Ġreturn ed
Ġrep resent
Ġ2 5
Ġs ense
Ġbeaut iful
O n
o red
m bl
er v
Ġpart icular
Ġfor ce
Ġfa ith
Ġsomet imes
m ore
Ġey e
3 0
Ġac ross
ĠSt ates
Ġ ver
Ġocc asion
Ġc ast
Ġthe e
Ġp ict
Ġper iod
Ġh ur
Ġbu ild
Ġw ild
ust om
con t
Ġv ill
ĠThe se
i or
ĠN ow
Ġt able
Ġeven ing
Ġfur ther
Ġnear ly
Ġb it
est ed
Ġwor th
ap pe
2 5
Ġre ady
Ġ Z
. =
ĠO f
c an
Ġst ep
Ġro ck
Ġdra w
ad d
a ul
uten berg
Ġfor th
y ond
Ġb ene
al ked
A t
g l
en cy
us ion
or ge
Ġt ou
b ur
Ġe ight
I ON
c ol
Ġ x
pe cially
h ow
Ġl atter
ri age
ous ly
ran k
il s
v o
in ing
ro du
res h
pl es
og n
or ies
Ġes c
vel op
as k
2 4
Ġv i
Ġpurp ose
Ġac qu
ect ed
ort s
s ome
Ġre ached
Ġpart y
A M
ct or
ag ed
am ed
w hen
Ġr an
Ġhour s
f ace
l ook
Ġb ig
Ġpe ace
g ot
l er
Ġhist ory
Ġ3 0
Ġf ail
Ġp ost
Ġd ro
Ġfor mer
Ġans wer
aim ed
Ġan n
ic ally
be en
fe rence
-------- --------
a f
Ġf ield
A S
ce nd
ci ety
Ġh ill
Ġ2 3
p art
âĢ ķ
ĠM ay
W h
ur ope
Ġim medi
Ġplac ed
Ġset t
in n
Ġp op
2 7
ound s
ĠN ot
Ġt y
Ġst range
Ġatt empt
Ġ2 6
k n
Ġwork s
ĠAmeric an
et er
Ġem ploy
Ġas k
in ion
Ġpr ay
a ff
re ct
Ġlong er
en ing
Ġh usband
Ġl ength
2 6
is es
Ġacc ording
ex t
Ġm ist
Ġc op
2 3
Ġqu ar
s y
Ġst ra
Ġl ad
Ġnat ural
se c
Ġappe ared
ru ct
Ġrem ain
E D
m it
Ġs ac
Ġpart s
c ent
Ġl ate
e e
Ġl a
u ly
Ġs us
Ġs qu
i res
d o
Ġl ed
F oot
Ġqu iet
Ġf ight
at or
Ġin flu
Ġ2 7
Ġc reat
AG AA
2 8
Ġd anger
Ġ2 8
Ġvis it
if t
de f
2 9
T HE
Ġsec ret
ĠA ND
Ġadd ed
Ġsle ep
Ġpri v
ĠF rance
ĠT r
Ġcontin ued
ord s
Ġprob ably
or al
ce ll
Ġar my
hy s
NNNNNNNNNNNNNNNNNNNNNNNNNNNNNNNN NNNNNNNNNNNNNNNN
h and
Ġ Ã
NNNNNNNNNNNNNNNNNNNNNNNNNNNNNNNNNNNNNNNNNNNNNNNN NN
ĠWill iam
Ġinc re
h ouse
Ġpre t
Foot note
a fter
Ġa ffect
g ing
Ġl im
Ġf ac
ĠP er
ar p
Ġm aster
Ġw on
Ġd ied
F or
Ġt aking
est s
Ġsl ow
ix ed
idd le
Ġb ird
b ers
g u
n or
r or
Ġbe yond
Ġc orn
j oy
g ar
um ent
ĠA b
Ġpro ceed
Ġm ur
p an
Ġse lf
oss ible
Ġim ag
Ġocc up
igh b
Ġfor ward
Ġc amp
Ġf r
Ġm ention
Ġsat is
ru pt
ur s
id ing
Ġw atch
á ½
Ġpre p
M y
ĠĠĠĠĠĠĠĠ ĠĠ
Ġo ught
um st
Ġatt ack
d es
Ġh ig
Ġsc ar
ort ed
Ġh ot
if f
w ise
Ġserv ice
Ġse nd
it ary
Ġsu gg
an ced
Ġsy stem
Ġro se
O L
ĠY ork
iv il
h ood
Ġch ange
r al
Ġl iving
Ġbre ak
H ow
e v
Ġcomple te
Ġknow ledge
ou red
ing ly
Ġfell ow
Ġswe et
n a
ist ed
c ount
Ġh air
Ġp h
Ġw it
ir ty
e b
Ġde f
al es
r ough
Ġw alk
y n
ach ing
ive ly
p id
Ġbel ong
Ġde al
av en
Ġd ream
Ġ er
Ġtr ave
Ġenem y
Ġin f
r s
Ġh ast
. âĢĶ
ous es
Ġd a
Ġso ft
ĠC H
ther n
1 1
Ġpr ison
Ġsur pr
. _,
u ke
Ġvar ious
h a
ĠA fter
us hed
Ġdes cri
Ġ2 9
, '
Ġapp l
ĠĠĠĠĠĠĠĠ ĠĠĠĠĠ
te en
Ġwr itten
Ġstre ng
ĠD o
il ar
Ġcon n
for med
Ġj o
ĠF rom
Ġdet erm
Ġm o
Ġdid n
Ġex peri
Ġto p
ĠE urope
Ġcour t
b es
ell ow
Ġe lect
Ġsp oke
Ġpl an
il ing
T H
Ġal though
Ġsudden ly
4 0
as ant
eth od
ĠM an
Ġgl ad
Ġto ward
ĠH ar
f ord
Ġem b
Ġpl ain
Ġl aid
at he
un ity
Ġu nd
Ġgreat er
Ġimport ant
ĠH en
ĠUn ited
Ġb right
Ġpre v
Ġfeel ing
of f
Ġst ay
Ġp al
Ġcom es
os p
' m
âĢĶ âĢĶ
ch ar
i ence
ĠA p
ro y
Ġre pe
CH APTER
os es
st it
ivid ual
Ġb reat
Ġgr and
Ġw at
Ġl angu
Ġst at
ĠCh urch
ĠP hil
j ust
ill e
ci ence
Ġn one
Ġevery thing
Ġa ction
m a
Ġsl ight
ĠR o
Ġag o
ĠE x
Ġc ra
Ġdo g
Ġf ast
ro ad
Ġac cept
ĠF l
t ime
Ġt ro
Ġrem ember
Ġdist ance
ve re
ĠBrit ish
AG GG
ĠA m
Ġo bl
Ġm outh
Ġd aughter
S o
ĠChrist ian
um p
ĠB ar
ag er
ad ed
AG GC
Ġhapp y
Ġg un
i ke
in to
ĠC o
ĠPro ject
ĠG ree
Ġs n
ac y
up on
Ġp en
Ġest ab
se e
ĠG over
ate ver
Ġes pecially
row d
ul ation
Ġj oy
Ġde g
Ġpap er
Ġent ered
Ġs ens
Ġboy s
Ġsay ing
Ġdes p
Ġsupp ose
in ner
Ġd en
ess ion
Ġdiffic ult
Ġm akes
ide red
Ġatt ention
TT TC
all ey
s pe
t ic
en ess
oo se
Ġpol it
Ġnor th
ater ial
form ation
Ġint ell
ut ure
ors es
ll ing
ab out
Ġop ened
Ġbel ow
ent h
Ġr ich
an cy
Ġsuff ic
ĠĠĠĠĠĠĠĠ ĠĠĠĠ
b el
Ġtre es
Ġcomp any
AG CC
Ġpret ty
Ġdel ight
Ġcont r
Ġh ar
ĠG eneral
ĠL et
Ġdo ing
ĠG utenberg
Ġpers ons
Ġde mand
ĠM ad
Ġcon v
U S
Ġf ood
ĠI I
3 6
N ow
Ġg od
Ġcom pl
u ous
Ġw ide
Ġgre en
Ġo per
Ġbe ar
3 7
ru ction
m n
e ch
g reat
W hy
Ġ ...
Ġb attle
Ġgener ally
ish ing
Ġgover nment
s m
er c
3 5
ĠHe re
he l
3 8
Ġfre qu
Ġs al
3 9
c ould
Ġne ither
os op
i k
Ġc oun
pp ing
Ġl ived
' ve
ĠS ome
c il
ĠC an
c ertain
Ġm ass
p ic
re ed
i ety
m ission
4 8
Ġne ighb
ne ver
ict ion
Ġheav y
Ġth ird
Ġt ried
Ġgr ow
Ġcon cl
p ass
4 7
Ġan cient
Ġj our
4 6
O M
aj or
Ġpo et
ot ed
AT AA
Ġde velop
EN T
Ġbl ue
Ġth ick
y e
ĠGe orge
4 5
Ġcent ury
Ġmon ths
Ġis land
Ġst one
all ed
Ġh y
ĠP e
l ong
ic ation
ad es
Ġwant ed
r ay
ch ing
Ġsing le
Ġl oc
ĠCap tain
ar row
Ġcomp an
Ġplac es
ce ly
Ġ --
Ġv ict
Ġmin utes
Ġg ra
Ġrec ogn
Ġop inion
al ed
n ed
Ġc ases
Ġcertain ly
c ceed
og raph
p ond
C T
rie f
ol ute
Ġse par
Ġdut y
ĠIt al
= ,
ĠI N
N ot
Ġor gan
y l
4 9
Ġen joy
ard en
g ress
Ġdep art
Ġcirc umst
kn own
im ate
ĠE l
Ġocc ur
A ll
il es
Ġcon tain
TG TG
D e
p or
ĠL ady
I G
it able
Ġg en
m ar
Ġin qu
Ġrem ained
ĠĠĠĠĠĠĠĠ ĠĠĠĠĠĠĠ
Ġs outh
ud ed
i ant
Î ½
U R
sh ould
se mbl
Ġst o
o x
Ġc ost
os ing
Ġb urn
ĠM ary
on el
Ġlau gh
Ġb ound
ou p
ing u
Ġcond ition
re me
ĠW est
it ation
Ġcond uct
in c
ick ed
Ġfor med
ĠQ u
ĠS E
pl ace
ag ain
Ġcon sequ
Ġcon ce
p any
ant ed
wh ile
ap ed
Ġa f
Ġstreng th
Ġwind ow
it es
Ġdes ire
Ġ18 6
es sel
am s
b et
m ing
Ġt ree
Ġm ine
Ġc rowd
Ġwe ek
th an
in al
Ġvi ol
Ġan x
Ġoff ice
se t
Ġf le
ĠPar is
Ġsit u
ri ble
Ġex act
II I
e ks
ar ies
Ġsu per
TT GG
Ġinflu ence
A r
ers on
Ġp hys
Ġch ance
de red
ut ed
ĠC or
e en
l o
ĠG u
e g
Ġple asure
Ġb ott
ĠĠĠĠĠĠĠĠ ĠĠĠĠĠĠ
Ġ1 1
oura ge
Ġind ividual
Ġl ines
ac her
Ġwr ong
Ġc ry
e an
oint ed
Ġcom fort
h as
Ġof fe
Ġde fe
Ġf un
AA GG
h old
Ġbo at
b ar
Ġf uture
r ict
Ġd ress
TC TC
ul ty
Ġan g
re et
ic ate
ra id
Ġm id
Ġnot e
Ġ Î
com m
our t
I V
c ar
Ġf resh
Ġappear ance
ĠE m
Ġbeaut y
h ib
ri ll
Ġtr ust
Ġd ie
Ġimmedi ately
ast e
to gether
st ood
Ġbegin ning
or ough
ri g
Ġl ie
wor k
ĠD on
d ist
Ġbro ken
is c
bl ed
st on
A l
so ci
Ġp aid
ĠQ ue
Ġwe ak
Ġen c
Ġv essel
Ġs ave
u x
Ġlet ters
ĠHen ry
TCC C
Ġf at
ĠO h
Ġf urn
Ġt ry
ist ic
Ġra pid
Ġtr ain
Ġsim ple
Ġhard ly
Ġsim ilar
Ġbook s
Ġd om
Ġc overed
Ġsp o
Ġtr ouble
ĠA ug
Ġl iter
Ġmus ic
Ġbec om
* *
Ġm ethod
ic ed
ĠT om
ish op
r id
Ġwr ote
ATT C
Ġe at
ĠInd ian
um b
Ġwar m
Ġh orses
Ġeas y
Ġf illed
_ ;
Ġh op
Ġdes ign
re p
Ġstand ing
cript ion
ĠJ ack
Ġfam il
Ġc ivil
w ood
Ġafter wards
AC AC
it ive
Ġgentle man
ĠNor th
ĠW hy
Ġhapp ened
ess ed
Ġpro cess
Ġsu cceed
s aid
Ġet c
ĠS te
cul iar
ash ion
Ġheav en
Ġsa fe
Ġeas ily
Ġcar ry
ĠSt ate
be fore
Ġentire ly
ĠS outh
Ġmere ly
Ġvill age
m ber
er ous
Ġfig ure
Ġc over
Ġl ower
Ġm aterial
Ġcom b
Ġchar ge
us es
on ly
Ġra ised
et t
Ġpres ence
Ġh ung
Ġyou th
ab les
Ġm ill
Ġint rodu
Ġstre et
Ġgl ass
ail s
Ġarri ved
um n
Ġgr ave
Ġcl ot
id en
Ġs ister
Ġ +
l ittle
as hing
6 0
pl ay
Ġent er
Ġinst ead
ĠH ouse
Ġpre vent
Ġter ms
Ġdr ink
er ve
Ġm ad
g ment
Ġp un
t wo
Ġli ps
O O
ATG G
I R
Ġpie ce
Ġp ress
Ġme ant
Ġme mb
g hed
Ã ¨
ore s
ĠChar les
Ġexcl aimed
Ġus ual
TT TG
oy al
2 2
Ġdire ction
om en
fin ite
Ġlangu age
ly ing
Ġf ru
Ġw is
Ġin n
Ġmod ern
ed s
Ġc ru
7 0
Ġsp ring
Ġd er
Î ±
v ation
Ġwh is
Ġbu ilt
ac ed
Ġfor ms
iz ation
Ġexp ress
Ġcons idered
ri f
Ġval ue
Ġm oved
Ġlaw s
ĠAmeric a
ib ly
Ġd ue
e very
est y
Ġstart ed
Ġsome what
Ġp ure
ol ved
Ġc ustom
Ġli ber
Ġgiv ing
Ġam ount
TT CC
ĠW ell
Ġimp ossible
Ġb orn
7 5
Ġse ven
W ith
ĠC ount
n oon
ĠJ ames
Ġcon vers
Ġh at
ĠR oman
Ġso le
Ġra ce
h w
Ġsil ence
olog y
Ġm iddle
Ġf ool
Ġp ubl
B e
re en
Ġne g
n y
an ch
Ġbro ad
ic ated
Ġf ing
Ġ $
as p
ĠTh om
Ġd rew
ar l
Ġgu ard
Ġir on
, âĢĶ
bl es
ir th
en ced
Ġm ot
f ield
p al
Ġknow s
ĠR uss
ĠĠĠĠĠĠĠĠĠĠĠĠĠĠĠĠ Ġ
ro l
el ve
Ġspec ies
A D
p ort
Ġb all
Ġsm ile
Ġout side
Ġsh own
Ġoffic ers
u ge
c er
âĢ ĵ
Ġc aught
Ġslow ly
s k
n al
m itted
Ġu ne
Ġh ost
Ï Ħ
Ġwall s
j o
um ed
c ause
Ġg all
Ġsh arp
Ġch ap
Ġlearn ed
Ġp hil
Ġspe cial
Ġadv ant
Ġyour self
Ġstra ight
Ġgiv es
Ġobser ved
our se
Ġin h
un k
M ar
k es
am b
I s
Ġappe ars
Ġk illed
Ġcap t
Ġ id
Ġsp ot
iden ote
ag ue
_ _
8 0
5 9
Ġus ually
Î ¿
Ġorigin al
Ġstru ck
Ġcomm un
Ġd i
AG AG
Ġw alked
ĠG reat
z z
Ġb an
e ed
Ġno ble
Ġgreat est
S idenote
c ond
Ġ ign
y our
Ġle aves
ir ing
Ġy es
Ġgirl s
Ġed uc
Ġsur face
w ing
Ġh ath
Ġan t
be red
Ġh ouses
Ġthink ing
ific ation
Ġl ord
Ġall owed
- +
== ==
z en
Ġmar ried
ar ily
e ven
o om
' re
Ġext ra
b ack
i as
ĠL ou
Ġbo ard
o cc
Ġnot ice
H is
Ġev il
ve y
ap t
Ġwh atever
Ġun to
. ;
Ġsum mer
Ġs ick
oll y
> ,
ĠS m
ĠL a
d ra
th rough
ac es
âĢķ âĢķ
b ing
ri end
r am
ĠSp an
Ġapp arent
Ġart ic
cept ion
: --
Ġget ting
Ġjour ney
ĠF ran
Ġobl ig
Ġs and
Ġpe culiar
ac c
r ation
Ġquick ly
Ġ18 9
Ġf irm
5 6
Ġaf raid
h app
c her
er ved
Ġde pend
Ġpict ure
ĠW ar
ish ment
it or
Ġv irt
m ade
Ġprodu ced
ĠJ ew
Ġn ames
Ġexperi ence
Ġstud y
v iew
Ġimp ro
the se
O ne
Ġb ank
if y
m ay
Ġth irty
Ġg race
Ġsh owed
wor th
su b
R I
Ġl oved
i pp
ĠP res
Ġpr int
3 3
Ġhe alth
l in
Ġle aving
Ġcl oud
Ġtr ad
he st
7 6
Ġp ull
Ġsupp osed
ĠJ es
Ġfl oor
ail ed
Ġtro ops
Ġexp ression
gy pt
as ing
o v
os ite
A fter
Ġc it
Ġl oss
le x
Ġp ath
Ġsto pped
Ġcop y
ib ility
ĠTh us
Ġso ciety
Ġthought s
S T
ust ri
est ions
Ġfore ign
Ġsee ing
5 8
Ġmag n
Ġd im
Ġsh ad
Ġcl aim
ĠR ome
cl ock
ĠS T
Ġsc ene
Ġwr ite
Ġconst it
Ġm ess
re es
Ġco ast
ĠQue en
l ar
Â ł
and er
Ġsupp ort
p ly
Ġmemb ers
Ġt est
an c
Ġsp ace
Ġsur r
Ġdra wn
Ġw inter
Ġg rew
ud d
Ġt it
Ġfor get
n ce
ri l
Ġ {
AG TG
AA AC
Ġlau ghed
le nd
Ġsp r
Ġf ra
Ġl ives
im ents
ĠY et
B ER
lect ed
gg ed
Ġgo es
Ġch air
Ġmount ain
ATG C
i qu
ĠC al
k ind
4 4
Ġ2 2
er gy
O f
ist ance
ĠPr ince
D o
Ġn arrow
Ġopp ort
k now
f ast
Ġ ess
Ġd inner
Ġconsider able
Ġscar cely
ĠM on
ent ed
le g
o k
Ġut ter
ĠR ich
Ġproper ty
Ġequ al
Ġex ec
Ġch anged
Ġne ck
B y
ĠAug ust
um ber
Ġs now
n at
Ġd ry
Ġs ad
f irst
Ġt end
Ġexpect ed
Ġtem per
S E
Ġsh ot
Ġdist ingu
Ġsold iers
Ġdisc overed
Ġev idence
Ġnew s
Ġs ong
Ġmention ed
o is
Ġc at
ock ed
Ġsp read
res pond
Ġex cell
p et
av al
Ġfore st
Ġcircumst ances
Ġf al
Ġfor got
Ġfl owers
S h
Ġdist inct
Ġ4 0
Ġdest roy
Ġpass age
d own
g ood
Ġexam ple
Ġg az
ang ing
um ents
Ġext reme
ĠThe ir
ĠG l
ĠInd ians
b re
Ġre ach
Ġhe ro
Ġstru gg
Ġc ou
Ġauthor ity
Ġte ars
Ġhe at
per or
Ġwa it
s ur
ars h
ant ic
Ġexist ence
Ġr ain
Ġm ut
Ġw est
Ġpro s
Ġpriv ate
Ã ¢
Ġc rit
Ġrelig ion
ĠB ur
s uch
ĠGover nment
Ġdec ided
ol ic
Ġphil osop
he art
it ch
Ġbuild ing
es tern
Ġfif ty
-- "
y le
ce ived
Ġm ach
ill y
Ġanim al
Ġre ve
em s
re y
Ġbe ll
Ġ18 8
Ġt one
Ġf ixed
ĠS w
Ġre vol
ĠW here
Ġs ides
Ġ19 0
ĠA g
ock s
ĠĠĠĠĠĠĠĠĠĠĠĠĠĠĠĠ ĠĠ
Ġh all
5 7
Ġru le
Ġbo x
ĠP aul
Ġmar riage
Ġr ul
ĠI II
Ġp ra
are r
s l
TG CC
with out
Ġp ot
Ġar g
as ures
Ġ ur
Ġme l
Ġbreat h
âĶĢâĶĢâĶĢâĶĢ âĶĢâĶĢâĶĢâĶĢ
Ġwa iting
Ġdisc uss
re c
Ġhe ight
Ġat tend
m uch
Ġfav our
in y
l ished
Ġn ation
Ġmon th
ĠD av
AG AC
Ġdeg ree
ip s
Ġa ut
ĠC r
Ġinterest ing
Ġsk y
fort un
Ġbro ke
Ġar ch
Ġdescri bed
p on
Ġc ult
Ġk ne
Ġf ol
f ather
Ġob tained
Ġpur su
Ġperson al
pect ed
Ġrece ive
him self
Ġs ize
id s
Ġmin ute
Ġnat ive
Ġs in
Ġbes ide
i ently
Ġg arden
Ġdecl ared
Ġrelig ious
ĠX X
Ġb read
ACC C
Ġcap tain
Ġa v
Ġpass ing
Ġc re
um ph
Ġhig her
Ġsh out
e re
Ġon es
ĠP h
es e
Ġun less
Ġr ise
id ently
oun ced
AT CC
ff ic
4 3
Ġmeet ing
au d
at a
Ġb and
Ġag ree
Ġd read
Ġrequ ired
Ġprep ared
Ġabs olute
ud ing
ATT G
ul s
Ġafter noon
ent al
Ġs itting
tern al
Ġconc ern
Ġlike ly
Ġwrit ing
Ġpass ion
m ark
du ced
Ġsil ver
_ )
Ġwe ight
Ġsim ply
i en
Ġb od
Ġesc ape
u el
Ġas soci
d if
Ġh abit
ĠT ur
ĠJ an
ĠM or
p ir
Ġsuffic ient
Ġ3 6
a i
ill s
ĠĠĠĠĠĠĠĠĠĠĠĠĠĠĠĠ ĠĠĠ
Ġra il
L et
Ġe ager
ron ic
th ought
ist ory
Ġy ellow
Ġanim als
Ġoffe red
s omet
Ġte nder
ĠS am
Ġdeterm ined
Ġpolit ical
Ġm iss
l aw
a e
Ġm oon
ess or
m ight
Ġoffic er
be ing
, [
ĠThom as
Ġb ow
v ille
ĠA nt
Ġrepe ated
Ġdo ll
Ġhon our
Ġex erc
Ġp p
Ġpro ved
Ġm otion
ord er
Ġord ers
Ġbr own
Mr s
Ġc ab
Ġgr ad
ĠT O
Ġspe ech
F rom
ie ve
i ally
st ant
Ġ2 1
ab ility
Ġl if
Ġspe aking
ct r
id den
Ġcr own
Ġf it
Ġim m
Ġbe at
ch ief
Ġg ame
U T
ct ions
ĠE gypt
Ġsh ore
Ġro y
Ġapp re
Ġtw elve
Ġord inary
Ġra re
Ġw ise
Ġcorn er
Ġt akes
Ġad op
Ġinst ance
is ions
7 7
Ġbird s
D on
ens ive
ĠN e
Ġall ow
ang es
Ġbene ath
am ber
ĠE very
Ġcl osed
Ġv alley
Ġf em
Ġp et
e ge
E ng
ir gin
Ġear li
b u
Ġp ale
em ed
Ġsil ent
5 5
ret ched
Ġrun ning
Ġear n
Ġport ion
ĠSE E
ĠJ une
at tered
Ġwit ness
Ġ Ċ
w ater
ĠB er
Ġca used
Ġbelie ved
Ġmil itary
Ġc up
land s
b it
Ġk iss
peri or
Ġtr ade
Ġadm ir
Ġob tain
ĠM in
Ġap art
Ġsa il
Ġpro gress
Ġstre am
Ġcol our
Ġb as
Ġdes cend
2 1
Ġdiffic ulty
Ġu pper
AN D
e av
P ro
d id
qu is
le ment
c ame
b ell
Ġpoint s
ĠF ather
Ġreg ular
ĠP eter
ĠI r
Ġfav or
Ġ5 0
L I
f our
Ġin formation
f ound
Ġso cial
Ġst op
su pp
an cing
Ġf ashion
Ġsy mp
ol es
iv al
Ġcond itions
AT AC
vent ion
is ters
TG AA
Ġde b
Ġm aid
ĠR ep
Ġple ase
Ġv ain
E T
Ġple asant
Î ¹
Ġstep s
Ġl ot
Ġsatis f
Ġm oral
TT AA
T ATG
m ust
or ious
Ġfin ally
m orrow
ign ed
Ġii i
i os
Ġw ished
as c
f ive
Ġser ious
be y
Ġtou ch
Ġt rying
ed er
Ġde li
Ġsm o
Ġemploy ed
Ġin j
Ġf ish
3 4
Ġv an
Ġk ill
th ose
d on
Ġst ation
Ġn amed
Ġrep ly
Ġw id
a res
Ġv ast
i ance
Ġrem em
Ġmean ing
Ġh un
ĠO ur
9 0
Ġgr ass
A Y
Ġcon qu
ĠD uke
Ġopp osite
Ġor dered
Ġimport ance
Ġe ast
Ġspe ed
Ġf ro
Ġpossess ion
Ġmatter s
ur ally
Ġpie ces
ck s
Ġsitu ation
ar a
er able
Ġsp ent
at ors
Ġwork ing
Ġs or
f it
Ġcol or
Ġst ar
g en
ĠE ven
TG GC
Ġm ort
Ġfrequ ently
Ġwe alth
ak ed
ĠV ol
Ġpop ular
Ġdo ctor
am a
Ġadvant age
Ä ģ
pe red
com p
Ġste am
TC AC
on ed
ĠGree k
Ġe gg
I D
Ġrec ord
Ġill ustr
stand ing
ĠD an
Ġcap ital
Ġcur ious
ĠJ uly
Ġrem ains
Ġcle an
Ġter rible
ĠO ct
Ġperfect ly
Ġmove ment
Ġpl ant
Ġex per
Ġbit ter
at ory
Ġw ays
Ġturn ing
om s
Ġfor ty
Ġmem ory
7 8
ĠA f
ĠAr ch
Ġcor rect
Ġgr oup
Ġth in
6 6
Ġv ent
Ġd am
as ons
ĠC oll
v i
Ġr ing
e al
Ġst age
od e
as hed
Ġl ying
ĠP ort
Ġpro ve
ck et
ĠW or
Ġc red
Ġmount ains
st one
Ġw ine
r is
ro se
Ġse arch
Ġsh ut
Ġme asure
ĠMar ch
Ġmark ed
C on
Ã Ń
Ġcons cious
Ġhead s
Ġintell ig
ĠWh o
c or
Ġadd ition
Ġroy al
M ay
Ġnum erous
pe l
Ġgreat ly
ĠĠĠĠĠĠĠĠĠĠĠĠĠĠĠĠĠĠĠĠĠĠĠĠ ĠĠĠĠĠ
Ġqu ant
aj esty
ĠO ld
ĠM c
7 9
Ġsp ir
ĠS y
Ġoff er
a it
ĠC ong
Ġfru it
appe ared
O T
> (
Ġread ing
Ġref er
at ures
b on
S ee
ĠĠĠĠĠĠĠĠĠĠĠĠĠĠĠĠ ĠĠĠĠ
Ġo d
Ġst ates
Ġ3 8
ou thern
ak er
Ġfact s
Ġext ent
Ġsp ite
Ġeng aged
Ġsatis fact
ĠJ er
Ġconvers ation
Ġcal m
Ġrep ort
ĠJes us
Ġunder stood
I nd
ci p
Ġse at
ĠLou is
od d
Ġim per
ĠB o
Ġlad ies
Ġjust ice
Ġt ong
Ġc and
Î µ
ad ing
ĠC he
4 1
Ġship s
4 2
us ing
Ġs our
Ġf ully
Ġsp lend
Ġpubl ished
Ġdis e
Ġour selves
C om
Ġg ro
Ġopport unity
Ġdist ribut
ĠF rank
O W
ĠC ourt
at in
ick s
Ġse ason
es h
ĠP al
Ġp arent
Ġfal se
Ġto t
Ġt all
ge l
in ent
ĠĠĠĠĠĠĠĠĠĠĠĠĠĠĠĠ ĠĠĠĠĠ
a is
Ġbott om
ast ic
u ary
Ġin tended
y r
Ġsa v
Ġa vo
Ġdiffe rence
ul ated
He re
Ġwe eks
ĠSc ot
p ons
e per
ul f
h or
ĠS u
in ces
c r
a un
Ġr id
hen s
ex p
th ree
Ġaccom pl
Ġst yle
Ġign or
Ġe p
Ġdraw ing
t w
ll y
ast s
Â ·
ain ing
ĠJ ust
Ġlook s
Ġrem oved
Ġr is
ul ous
ĠM e
ra b
Ġhon or
ĠS ch
ol ution
Ġ iv
Ġthr own
i que
3 2
le br
bl ing
n ers
abit ants
Ġeff ort
Ġinc hes
l ine
Ġfri ght
ĠRo bert
ĠSe pt
? âĢĻ
Ġst ock
a ult
li ament
ĠL aw
Ġt aste
Ġoccup ied
Ġth reat
p ers
ct s
Ġ ----
or ne
TT GC
m as
he t
ĠJ ud
g ive
U n
ĠM ag
ĠF ig
Ġsqu are
Ġpr oud
Ġwonder ful
n es
ĠS uch
Ġst ro
Ġpract ice
Ġide as
m et
h ip
Ġth rew
Ġe ars
bur g
f ollow
Ġth orough
c is
Ġcare fully
Ġple ased
ic y
Ġd ate
Ġar range
Ġsurpr ise
Ġst ir
ract ed
6 8
l or
Ġremark able
in st
ord inary
ac hes
ad v
Ġ3 9
ĠE ast
Ġsa ke
f all
re mon
b ro
TAA G
athe red
Ġpresent ed
Ġexact ly
Ġpr im
ap er
om in
ur b
ĠĠĠĠĠĠĠĠĠĠĠĠĠĠĠĠ ĠĠĠĠĠĠĠ
Ġfall en
Ġf ier
Ġhist or
pe lled
ke y
ch ild
s it
Ġquar ter
Ġwe ather
gr ound
Ġfor ced
ent ial
c alled
Ġc ourage
Ġaff airs
Ġser ve
Ġl ies
Ġexcell ent
Ġfre ed
nd ered
Ġfam ous
Ġc ook
Ġa id
an a
Ġp owers
le ep
Ġhill s
Ġc ell
Ġpict ures
olog ical
f riend
man y
ut ions
Ġb irth
look ing
r ate
Ġking dom
Ġfamil iar
Ġun ivers
Ġestab lished
fe rent
Ġjud ge
Ġtr ou
ĠR ed
Ġbl ind
TC TG
Ġp ack
Ġsupp l
3 1
Ġtalk ing
E M
u le
ĠSt reet
Ġpro of
Ġt or
Ġinst ant
Ġser ies
ĠCol onel
Ġper form
Ġs orrow
Ġregard ed
Ġcomp ar
et te
c ies
Ġty pe
Ġprop ort
Ġadv ance
Ġwor se
Ġ3 5
Ġfin ished
H er
am m
aster n
Ġsw ord
Ġqu estions
GG G
j ud
Ġb are
Ġcl im
U L
Ġb ra
Ġend eav
ac le
Ġspo ken
Ġed ge
á ¼
Ġtit le
Ġbecom es
6 9
ER S
th ink
Ġse vent
Ġfort une
Ġcor respond
Â ´
t ake
Ġconc er
Ġev ents
Ġr ough
Ġprom ise
ser v
Ġpre c
ur ies
Ġdark ness
Ġr ate
pe ople
ĠPres ident
ashing ton
Ġparticular ly
ust ed
ver t
Ġadd ress
Ġcit iz
b ook
Ġlar ger
Ġd u
m other
Ġwe l
or g
Ġdist rict
Ġwe ar
ĠĠĠĠĠĠĠĠĠĠĠĠĠĠĠĠĠĠĠĠĠĠĠĠ Ġ
Ġhapp iness
im s
ac ity
A h
Ġg ate
Ġopen ing
ĠAp ril
ra p
s w
Ġp age
Ġter m
Ġe vent
The se
Ġwould n
Ġtrans l
i ation
l ife
Ġsh ape
Ġgl ory
ne cess
E x
v an
ĠĠĠĠĠĠĠĠĠĠĠĠĠĠĠĠĠĠĠĠĠĠĠĠ ĠĠĠĠ
Ġrel ation
Ġb old
Ġd well
iv ity
Ġb ab
ĠY es
Ġsucceed ed
Ġche er
re qu
ver se
Ġlead ing
Ġexp ed
ose ph
Ġ âĢĶ
s ay
ur d
Ġprinci pal
ĠĠĠĠĠĠĠĠĠĠĠĠĠĠĠĠ ĠĠĠĠĠĠ
Ġhold ing
Ġro of
Ġhig hest
Ġs ch
Ġsett led
Ġsm iled
Ġbes ides
Ġsh ook
Ġw ounded
Ġclot hes
AA AG
ĠT e
Ġs ought
ĠH im
Ġdis s
ĠCH APTER
Ġsh ows
k y
i pe
Ġdist ant
or a
Ã ¼
Ġshe ll
Ġl oud
ĠĠĠĠĠĠĠĠĠĠĠĠĠĠĠĠĠĠĠĠĠĠĠĠ ĠĠĠĠĠĠĠ
Ġcent re
ĠT H
ain ted
Ġprov ided
Ġb ull
G od
cl es
P r
ic o
GG C
Ġm or
Ġfollow s
Ġbr ave
o ber
ĠAf ric
Ġpoint ed
Ġestab lish
Ġle an
at is
at ives
Ġsu perior
fer red
ath y
ĠSpan ish
Ġworth y
Ġm ir
T ATC
il st
Ġbur st
Ï Ĥ
C E
Ġother wise
Ġoblig ed
ĠM art
Ġb ill
cons cious
Ġdo ctr
Ġb rief
d el
c ourse
Ġsh are
t urn
m od
ĠA lex
in cess
Ġsuff er
ad a
Ġem pt
Ġser ved
u fact
Ġn ine
Ġad vent
Ġf ill
Ġr ising
in terest
l ast
st e
Ġprinci ple
Ġp os
Ġcould n
ĠF ort
nd ing
AT ION
R e
ic a
is p
Ġy ield
Ġam b
Ġda ily
w r
Ġaffect ion
al ities
Ġwork ed
Ġs cience
Ġstre ets
ĠĠĠĠĠĠĠĠĠĠĠĠĠĠĠĠĠĠĠĠĠĠĠĠ ĠĠ
con om
f le
Ġis n
Ġwat ched
Ġd ouble
Ġf ate
TAA C
ad s
Ġqu e
Ġc atch
P er
the less
Ġdisc over
AR D
pan ied
Ġearn est
Ġwat ers
ĠM ed
Ġserv ant
Ġsor ry
Ġprodu ce
Ġinde pend
is hes
Ġanx ious
Ġc ool
Ġthrough out
ĠInd ia
um es
p resent
Ch rist
W here
Ġhon est
v is
ĠSp ain
Ġwood s
T A
Ġb ase
Ġex hib
Ġth ro
ĠC ast
te e
Ġa ston
ĠB el
Ġinst r
ĠH igh
o pp
Ġoffic ial
are t
w ar
Ġbl ow
Ġpower ful
ĠI V
ĠH all
Ġgl ance
ĠSm ith
iz ing
ud es
or ous
Ġh oly
Ġsee k
Ġbod ies
Ġag reed
Ġ âĢ
Ġliber ty
us hing
again st
Ġpr ince
Ġn ational
Ġpr ide
Ġdiv ine
Ġref used
Ġapp ointed
Ġt ax
ĠEd ward
Ġro b
uten ant
ĠE n
Ġl ose
ul a
T r
Ġm ission
ĠĠĠĠĠĠĠĠĠĠĠĠĠĠĠĠĠĠĠĠĠĠĠĠ ĠĠĠ
Ã ¶
TT AC
Ï ģ
Ġe ld
h um
ĠGerman y
Ġpr ice
und ay
ĠM ont
Ġv ig
our ing
Ġequ ally
ĠCom pany
Ġact ually
Ġvol ume
Ġse vere
oc r
Ġsac red
Ġtri umph
Ġnum bers
Ġsole mn
c ur
Ġ ice
Ġthan k
b ury
Ġfeel ings
Ġkeep ing
aw ay
p age
Ġplay ed
i ber
Ġf aint
ut ation
Ġbre ast
Ġd ign
av ed
ĠW il
ar i
Ġde m
Ġcl oth
ck ed
Ġal together
Ġp a
o ch
ĠT wo
Ġexpl ained
Ġv o
Ġex ceed
c a
Ġf ancy
Ġcontr ary
7 4
Ġappl ied
ain e
Ġr ad
ist ing
Ġmight y
ag o
ĠM ac
Ġsold ier
are st
appe ar
L e
ens ion
Ġjud gment
ter ing
Ġ z
m ir
Ġdro pped
Ġm ult
Ġsk in
v a
Ġce lebr
Ġgr at
Ġsec ure
ĠD ick
ĠC ath
Ġincre ased
Ġpre ced
Ġun cle
9 9
Ġheart s
Ġcru el
be cause
of fe
Ġh om
Ġm ajor
he m
Ġpri est
Ġdis play
ĠR om
is l
Ġman if
con f
it z
Ġapparent ly
Ġfl at
ond er
ĠP at
b ly
ag g
Ġd ust
Ġa ud
Ġfar m
G CC
Ġprom ised
Ġconcer ning
Ġrock s
ii i
ĠM er
Ġn ations
Ġsugg ested
ĠR iver
Ġadv anced
u able
fl ict
ĠIt s
ĠWh ile
m ind
Ġrequ ire
not hing
Ġst orm
a ur
Ġbel ief
Ġp air
Ġaff ord
Ġte a
ag on
Ġgun s
Ġp it
7 3
is her
Ġfa ult
W ill
Ġas ide
AA GC
Ġs alt
Ġsubject s
Ġpossess ed
Ġfl esh
Ġleg s
an other
ĠĠĠĠĠĠĠĠĠĠĠĠĠĠĠĠĠĠĠĠĠĠĠĠ ĠĠĠĠĠĠ
Ġsus pic
Ġbl ess
en es
Ġf er
Ġresult s
Ġeduc ation
ell e
Ġent ertain
Ġnot iced
Ġev idently
ĠL u
Ġjo ined
p es
Ġlab or
bet ween
Ġfail ed
Ġn ice
ĠPro f
ĠItal y
ĠWh ite
Ġ vers
Ġg ar
Ġfing ers
Ġl ack
Ġdes cription
ie ce
ĠM ore
ĠRich ard
U M
Ġt ail
Ġshad ow
Ġins ide
os en
AR T
Ġgr owing
Ġh osp
Ġthe ory
ie ur
Ġclear ly
Ġf ond
ĠS an
ĠÂ £
Ġgentle men
Ġdes ired
re r
Ġinh abitants
7 2
Ġr ank
Ġfig ures
â ķ
Ġpap ers
Ġmar ry
Ġgu ess
ar ly
8 8
ĠH el
Â °
a ver
Ġle vel
c hen
Ġn on
Ġuse ful
Ġp ounds
Ã ª
w he
Ġcur rent
k er
ap an
Ġun known
Ġdirect ly
Ġw in
ĠW al
Ġstand s
h ost
6 5
Ġl og
Ġ18 0
r ant
ive red
ĠV irgin
Ġinst ruct
Ġforgot ten
Ġsupp ly
ĠMad ame
ch ange
Ġpur ch
ce an
in et
Ġcar rying
Ġfor ces
Ġdevelop ment
Ġt ext
Ġl over
Ġconn ected
m o
Ġt aught
Ġ ident
al ing
st ill
Ġte eth
Ġle ar
ĠI m
m ond
Ġexp ressed
p ri
nd ed
Ġre ign
Ġoccur red
ĠBl ack
il ities
Ġc ow
Ġspir its
Ġdistingu ished
Ġtong ue
Ġprinci ples
Ġmy st
Ġcont em
Ġst ones
ĠP et
Ġas ser
count ry
ar th
ĠB en
Ġintell ect
Ġknow ing
Ġbr an
Ġpro ble
Ġnecess ity
est ig
ous in
Ġse x
Ġcomplete ly
Ġwrit er
Ġgold en
Ġstr anger
ĠG ood
Ġs ons
Wh o
ang ers
Ġre sembl
ĠIr ish
cri bed
AT AT
Ġr ub
stit ution
h alf
P l
Ġconsequ ence
i pped
Ġremark ed
Ġx x
Ġshould er
un ch
Ġremem bered
Ġb rill
p oss
Ġar r
ep ing
ĠC ity
ĠM ount
qu ar
ĠDav id
Ġconf idence
at o
T AGC
Ġmil k
Ġdes er
-- _
s es
Ġenem ies
Ġfac es
s ame
Ġnat urally
Ġserv ants
Ġcompan ion
Ġgod s
st ance
Ġrapid ly
s ue
or ation
Ġdoll ars
ĠR oyal
Ġeff orts
Ġinn oc
Ġt ask
Ġt u
Ġpo cket
ut ch
Ġadm itted
p oint
cont in
Ġso il
f am
m ount
Ġsuff ered
p ur
it ement
h us
re ement
Ġmur m
Ġg e
Ġrel ief
rif ice
Ġcom mer
ĠJ oseph
le ction
! âĢĻ
if orm
Ġcross ed
ch an
Ġwind ows
Ġinst it
Ġgr own
ĠP ol
Ġre ck
Ġeng ine
ĠD iv
ĠS er
7 1
ĠW ashington
ed d
ĠM il
Ġt im
AA CC
c ap
ĠF irst
w ind
Ġshould ers
ud den
ĠM any
ce ive
Ġl od
est ic
Ġinter rupt
IS T
Ġconn ection
Ġdri ven
at ur
Ġdis app
Ġfreed om
Ġmer ch
Ġmem ber
ĠD es
Ġe rect
ĠN ap
ons ieur
Ġp red
Ġy ards
Ġaccept ed
g iv
Ġobject s
ix t
Ġ3 1
bo ard
l a
Ġco at
ie ved
I M
Ġg athered
comm end
m ist
9 8
ove mber
ĠS al
T ACC
d s
re land
Ġt ired
Ġab and
men se
Ġse ized
Ġhands ome
Ġquiet ly
Ġneed ed
Ġal ive
Ġphys ical
Ġres pons
ES S
in ity
Ġcont ent
ic ian
Ġmar ch
Ġprot ect
Ġb al
Ġwill ing
Ġtw ice
Ġb ore
ĠH am
Ġland s
Ġrepresent ed
ed y
Ġdis g
t a
ĠF eb
Ġproport ion
p ower
Ġb ent
p ret
Ġdiv ided
row s
Ġ6 0
ĠD E
U N
Ġwa ited
o very
Ġdri ve
Ġdanger ous
Ġsa ved
ĠR E
Ġl uck
e qu
t m
Ġkn ight
Ġg as
Ġo il
Ġf ly
._ --
Ġd are
op h
Ġdemand ed
Ġp an
su red
o ir
Ġthr ow
Ġcreat ure
Ġno vel
ie l
Ġsurpr ised
Ġpop ulation
Ġm ile
ard on
Ġsm oke
ound ing
m al
or ing
Ġmind s
Ġread er
ut s
Ġfl ight
ĠP ers
Ġmo ving
ines e
J ohn
Ġamong st
Ġfl ower
ĠJ im
Ġproceed ed
5 4
Ġsh oot
S ir
Ġfind ing
ĠPhil ip
Ġexpl an
Ġincre ase
sh all
S ome
Ġm as
Ġclose ly
ren ces
Ġwor ship
EL L
Ġtreat ed
Ġh arm
Ġp ity
Ġprev ious
M iss
Ġbr ain
ab eth
ĠM ex
ĠF red
p res
ĠL ie
Ġpal ace
Ġhigh ly
somet hing
ic ious
ĠP RO
Ġdut ies
ĠJ e
G ood
b us
ol s
Ġst ated
A m
ing ing
ĠC am
Ġarri val
ĠV en
Ġim pl
l ie
ĠBr own
r ated
sh ire
ĠB ill
k in
ĠRe g
Ġp ick
ĠB ook
) </
Ġor n
Ġspirit ual
ĠEm peror
Ġpl ants
Ġgrad ually
A b
AA TG
ative ly
Ġfif teen
Ġhapp en
A V
Ġintrodu ced
C ome
Q u
Ġact ive
5 3
A B
wor ld
Ġcol umn
ll er
Ġl ake
Ġbe aring
Ġg ather
ire ct
Ġfar ther
Ġce remon
Ġ1 00
Ġent rance
Ġre v
v ious
Ġex tend
av y
ret urn
A d
Ġcomp osed
k ins
Ġst ars
Ġrel ations
R AN
Ġ[ _
ant ry
ill a
te enth
Ġt alked
Ġtou ched
th ur
Ġt al
Ġis su
ra g
Ġright s
se en
Ġd iam
Ġaccom panied
ce mber
Ġwh ilst
Ġsure ly
Ġact ual
Ġadm in
Ġcr im
m iss
Ġw and
Ġshe l
ĠS unday
ĠX V
Ġspe ct
es ides
Ġpro ject
Ġatt ached
Ġaw are
ĠH oly
Ġquant ity
an ks
go ing
b oy
iz abeth
l im
as y
Ġfl o
G E
? '
in ions
Ġpray er
ĠV er
Ġcont rol
Ġkind s
ĠSo ciety
d et
Ġabs ence
ĠY our
Ġfight ing
i est
Ġend s
he ld
m ake
Ġr out
all s
a ith
Ġcount ries
Ġm al
l ow
Ġsatisf ied
Ġbu y
ĠC oun
Ġl oose
sel ess
.... ....
ĠIn c
al og
Ã ±
ĠOct ober
OO K
ĠF OR
Ġpre par
Ġcar riage
n s
Ġang ry
Ġimp ression
J an
in ate
Ġ á¼
Ġc ro
ĠAn n
r im
at us
Ġloc al
Ġsa f
p ire
Ġ ing
Ġtell ing
Ġbreak fast
Ġstrugg le
Ġjo in
Ġmid st
c ast
Ġhur t
ĠJ ul
Ġwas n
Ġcare ful
Ġp or
Ġdise ase
âķ Ĳ
Ġposs ibly
om b
Ġhur ried
Ġearli er
Ġtr uly
Ġexpl ain
Ġmy ster
Ġmach ine
Ġsl ave
Ġsplend id
them selves
u it
ri fic
Ġempt y
Ġh ide
] .
O ct
Ġvessel s
Ï ĥ
T AGG
Ġsw ift
ck now
pt ion
C l
Ġp u
ain ts
al y
ĠRe v
an im
N or
._ ]
ĠItal ian
Ġfem ale
Ġbr idge
t aken
ter day
w in
ld om
Ġburn ing
re f
Ġ rom
et ch
Ġprop osed
Ġtre mbl
Ġer r
ĠCong ress
AG TC
Ġsh owing
b orn
dis c
Ġh uge
Ġvirt ue
other s
Ġpers u
O r
Ġqu ality
Ġs li
Ġh ab
ĠL ife
n ame
Ġf il
ri ved
Ġreg ret
Ġfield s
Ġun f
ĠFran cis
enn y
Ġreg ion
B ook
Ġnot es
less ly
Ġfe atures
ĠSept ember
Ġret reat
Ġprint ed
Ġa in
Ġa cknow
ĠA cc
Ġno ise
Ġchap ter
Å ĵ
] ,
Ġbran ches
th ings
ol f
Ġcoll ect
ul ate
b id
5 2
Ġpart ic
Ġput ting
Ġbus y
Ġca uses
Ġpart ly
ye ars
---------------- ----------------
O S
Ġbur ied
Ġpl ate
Ġconst ant
Ġd ressed
Ġliter ature
Ġwhis pered
en a
Ġsu it
ot es
Ġwalk ing
8 9
S e
G eneral
se y
tr ans
Ġfort un
6 7
Ġhe nce
Ġvar iety
Ġs an
p o
Ġcirc le
Ġro de
ag n
Ġb le
Ġprison ers
Ġfall ing
t is
ĠS im
Ġbut ter
ĠM al
Ġd ull
Ġconsider ation
Ġinst inct
Ġwatch ing
Ġsu gar
cons ider
Ġparent s
Ġman ufact
ĠJ apan
act ers
m at
ĠM ark
Ġgen ius
ĠH ad
Ġte acher
Ġent hus
Ġst ore
Ġmur der
Ġadop ted
Ġtreat ment
happ y
ĠE s
6 4
Ġwant s
Ġgr ay
6 3
Ġh ither
age ment
Ġno se
Ġsh ame
ĠM aster
ĠD el
Ġw ore
I E
Ġpract ical
Ġcap able
Ġob st
Ġsol id
al so
oura ble
Ġhe aring
Ġegg s
s ix
Ġacqu aint
m aster
Ġst ories
oo p
Ġlist en
Ġd ig
Ġconcern ed
ĠUn ivers
ed ing
ĠPer haps
am ing
Ġun able
Ġfl our
Ġpol icy
Ġlove ly
t oo
Ġdis ci
t ook
a el
en ance
Ġg ained
Ġpat ient
c irc
Ġa ver
Ġexc ited
Ġw ings
ri a
r ous
Ġcou ple
pr ing
Ġdev il
ĠB et
re al
it ure
Ġsepar ate
Ġbeg un
ĠW ood
ĠGr and
ĠC ent
C ol
art s
Ġli br
Ġsk ill
Ġinterest s
Ġsub s
Ġun fortun
â Ħ
Ġroom s
ĠS en
Ġprof ession
Ġcult iv
Ġadv ice
Ġst ick
Ġslight ly
Ġfe e
Ġincl uding
Ġgl oom
in o
ĠI reland
Ġcol on
for ce
Ġcont ribut
el ing
Ġwho lly
f ar
ab or
c ase
Ġr ange
Ġcast le
in ction
Ġas sured
Ġh o
Ġt empt
ĠPro v
Ġinterest ed
ac qu
5 1
i ge
Ġce ased
v y
ustom ed
Ġp ill
Ġacc ident
Ġstat ement
Ġsmo oth
Ġter rit
Ġdestroy ed
oint ment
Ġfaith ful
Ġadm it
Ġim mense
it chen
om er
Ġextra ordinary
w ent
A ug
Ġstru ct
Ġc ities
Ġin formed
Ġdo zen
ĠM en
Ġyour s
Ġval uable
Ġab und
Ġpart ies
w oman
Ġcomm it
Ġimmedi ate
Ġmin ister
un ning
ree k
Ï Ģ
! --
Ġtell s
ĠL y
ĠA h
ĠD id
Ġev ident
Ġfin al
ĠE r
Ġdirect ed
Ġre nder
AT ATT
Ġfle et
b our
AA TT
Ġam id
com mon
f oot
Ġimag ine
ac on
Ġne arer
Ġli qu
TG AC
Ġsuff ering
Ġcred it
Ġph r
Ġstri king
Ġke en
um s
f ld
Ġarr anged
ĠM ajor
ĠH u
Ġabsolute ly
cient ific
Ġwis dom
eal ous
Ġme at
Ġfl ag
Ġe conom
Ġpr on
ak s
Ġdiv ision
t ell
Ġsuccess ful
Ġch anges
Ġtri al
ro g
ĠB ra
IL L
Ġcon tained
Ġcontin ue
Ġappro ach
Ġcall ing
Ġre asons
Ġfair ly
al ways
Ġgre y
ĠAr t
Ġsurr ounded
ĠF ound
Ġr ide
Ġchief ly
ĠR ob
Ġsaf ety
Ġ4 8
p ol
ĠL atin
ing ton
Ġexc itement
Ġdel ay
ol id
ĠĠĠĠĠĠĠĠĠĠĠĠĠĠĠĠĠĠĠĠĠĠĠĠĠĠĠĠĠĠĠĠ Ġ
Ġre ndered
s ing
Ġeffect s
Ġsymp athy
h ard
g ain
E CT
Ġsl aves
B r
act ion
Ġexerc ise
ast ed
it ect
Ġen ergy
Ã ´
Ġcr ime
m osp
Ġthorough ly
u a
_ :
Ġg ain
ĠM ajesty
Ġtown s
Ġar rest
Ġch osen
ĠW as
A meric
Ġspec im
Ġwe ap
Ġvis ited
Ġf ought
Ġdro ve
Ġdo ors
X page
Ġprison er
ost on
ĠM ass
ĠIs land
ES T
Ġlif ted
âķĲ âķĲ
ri an
Ġdeep ly
Ġqu een
ru ary
Ġwor st
el ess
Ġaff air
you ng
Ġpresent ly
Ġre ference
nat ural
ĠN ature
âĦ ¢
ĠCh inese
Ġo x
Ġhe sit
O P
Ġli ked
Ġsmall er
Ġwor n
Ġtem ple
oun ce
in ced
ĠHe aven
ra el
Ġl at
Ġdev oted
Ġstr ict
l ers
Ġt um
Ġvict ory
ĠN ovember
d ep
Ġappre ci
AL L
Ġa head
Ġa im
p ut
De f
Ġse ated
s ent
Ġview s
ĠJew s
ul se
ot ton
ĠD or
ac les
Ġexcept ion
il ty
ous ed
oy age
ĠE arl
e enth
Ġd ying
Ġclass es
Ġf old
: âĢĶ
Ġal t
Ġartic le
ĠSc ott
Ġw icked
m us
g ener
Ġre ar
at ched
Ġpol ice
W H
ad em
ĠB ob
br idge
Ġhop es
re ason
Ġrem ind
Ġcon ven
Ġdoctr ine
ĠD u
ĠB ay
Ġint ention
necess ary
ow der
ar se
ĠH istory
Ġter ror
O D
Ġst ern
lar ge
Ġcond em
Ġm ale
ĠB ishop
! '
wh ite
Ġre ven
Ġcrit ic
ĠOn ly
Ġprot ection
udden ly
our n
Ġl amp
Ġmain tain
ĠE mp
ink ing
ĠJan uary
Ġwel come
Ġlist ened
Ġb ay
Ġg le
ur ches
Ġfour th
Ġus ing
w a
Ġmer cy
ĠHow ever
---- --
Ġold er
rop ri
c ut
o qu
Ã ¤
Ġg rief
Ġdet ails
Ġfell ows
Ġde ck
Ġtre m
Ġdel icate
TT TTC
Ġn arr
Ġag reement
t ion
Ġd rop
ĠS pe
Y our
m ons
N ew
Ġch amber
ĠP ark
Ġp ages
Ġcal cul
Ġhop ed
ĠRuss ian
X X
Ġconst antly
Ġmark et
Ġa rose
Ġsing ular
Ġprom pt
pl ic
Ġpull ed
ro s
Ġavo id
Ġact s
Ġesc aped
Ġcontain ing
Ġgood s
Ġt ur
Ġmom ents
Ġm ental
offe e
Ġdes ert
ol a
Ġw et
Ġshe ep
Ġmist ake
Ġc ard
ĠG o
hen omen
Ġsour ce
of t
Ġbring ing
Ġsatisfact ion
Ġre commend
Ġo bey
com ple
ĠH ill
Ġatt ract
how ever
ch o
um in
d a
Ġsent ence
6 2
e ight
Ġgrow th
st ra
Ġadmin ist
Ġc attle
Ġcompan ions
Ġexplan ation
Ġneed s
_ ]
Ġthr one
com ing
w est
AAAA C
f ig
ĠH on
Ġcoll ection
as ions
á ¿
Ġplay ing
un s
ĠN ever
Ġpriv ile
mb ly
Ġfe ver
Ġu l
p ent
Ġdes per
Ġda wn
Ġb ag
Ġimag ination
ure ly
Ġsh op
d ro
Ġres olved
Ġbecom ing
p erson
ap ers
er k
and y
Ġartic les
Ġcontain s
Ġpurp oses
Ġimpro ve
Ġh ang
Ġend ed
h on
Ġkind ly
Ġin vent
z a
ia h
Ġa x
in th
Ġbrill iant
AA TC
su ccess
ĠTh ose
Ġnat ives
Ġcloud s
w rit
Ġh ate
O H
h aving
Ġste ad
Ġper mitted
Ġp ressed
TG TC
own ed
ĠG reen
Def n
Ġn erv
Ġex ha
Ġp il
Ġgu ide
Ġdesp air
ar med
Ġac id
ĠP ope
ĠDe cember
Ġsign s
p ost
Ġinv estig
se mbly
ĠA c
es c
Ġso vere
Ġex tended
Ġlab our
ĠSe c
Ġdog s
Ġconcl usion
Ġb ought
ĠT em
B l
_ ).
du ce
Ġte ach
ĠCon t
u ce
ĠProf essor
Ġconstit ution
Ġcreat ed
ĠF er
Ġsupp er
s al
ful ness
ĠA ct
ĠPar liament
Ġass ist
ĠL ong
Ġvis ion
Ġsoul s
ĠL and
Ġse ldom
Ġvis ible
ĠBrit ain
por ary
ĠV al
it ated
Ġ4 9
ĠHar ry
Ġmess age
Ġrequ est
Ġre ward
L ord
Ġc rew
IG H
Ġ2 00
Ġh ole
I A
ĠAr thur
look ed
e f
at re
Ġse ll
Ġd ance
Ġch oice
ra it
m outh
g s
Ġtri bes
Ġextreme ly
Ġpo ison
Ġcitiz ens
Ġde mon
Ġpoet ry
ib r
__ __
Ġadd ressed
y er
ĠL ove
ĠC ome
Ġnew sp
Ġinqu ir
Ġh aven
c are
b ably
ĠEurope an
Ġb att
Ġpl enty
Ġpros pect
ape l
l ove
Ġsh r
Ġpra ise
ĠEl izabeth
ĠP o
Ġk ings
Ġbr anch
ĠH or
Ġmagn ific
Ġg ay
ict ed
C an
ĠS omet
Ġve get
us ual
= :
ĠL ake
k a
g est
qu estion
imp ort
Ġt ale
ri er
ur ity
Ġdoes n
se ll
Ġse ction
a us
ĠA N
TG AG
Ġkne es
Î »
Ġobser v
Ġdefe nd
ĠScot land
Ġh idden
ag raph
ĠP art
Ġgr anted
p rom
ĠE ll
v ar
Ġme chan
R Y
ĠSp irit
Ġfriend ship
char acter
ĠAfric a
sm all
AAAA G
Ġw ound
Ġstri ke
t le
ĠB ab
be aut
AT AG
Ġra ise
Ġass istance
ĠL ittle
Ġcomm ission
Ġre jo
Ġacc ess
Ġcall s
ole on
Ġban ks
p he
Ġf und
D ec
er al
Ġlaugh ing
p ot
ĠP ri
Ġin ch
ail ing
Ġn ur
d oor
a ign
Ġformer ly
aval ry
vol ution
6 1
Ġn odd
Ġfr ame
Ġdisc overy
ge nd
E W
ard ed
ĠA rab
Ã ³
IT H
p osition
Ġfriend ly
Eng lish
Ġbo ats
ĠSe a
ĠRuss ia
ĠA ng
st airs
Ġru in
Ġele ment
ĠM ich
ĠT er
ios ity
u gg
Ġcomm itted
Ġdign ity
Ġ17 9
Ġbab y
Ġserv ices
S c
ens es
Ġke y
Ġat tended
Ġcom pelled
t ra
Ġsm iling
ey es
Ġb en
Ġrec ent
Ġe mer
Ġpain ted
st ead
ĠFound ation
Ġag es
Ġf an
Ġexped ition
Ġind if
Ġpres erved
Ġsac rifice
u ation
reg ular
Ġas sembl
Ġtot al
s im
g eneral
Ġnor thern
Ġdis appeared
Ġimp ress
J ust
Ġsoon er
am ong
Ġd ish
Ġthousand s
Ġevery where
Ġs igh
P ar
Ġre duced
Ġg ently
Ġreal ity
Ġneighb our
---- -+
ĠM ur
ac he
ig hed
ĠW he
ĠC ons
if ying
ĠCoun cil
Ġst uff
OR D
Ġcommand ed
d em
Ġdevelop ed
of fic
Ġdis char
ond s
Ġsuffic iently
Ġrep ro
Ġatt ribut
ill ery
Ġfamil ies
Ġreg iment
Ġthink s
p at
st ep
u er
ĠCath olic
Ġarg ument
D id
Ġpre cious
Ġro ll
TT TAA
ale m
pro v
op er
w ers
Ġas cend
Ġl it
Ġh orn
Ġwrit ers
mosp here
Ġind ign
Ġen orm
ĠC at
s il
Ġun iform
Ġproper ly
d r
ĠUn ion
O ur
Ġc ord
Ġcelebr ated
Ġcont empt
Ġo w
i able
Ġcent uries
ĠĠĠĠĠĠĠĠĠĠĠĠĠĠĠĠĠĠĠĠĠĠĠĠĠĠĠĠĠĠĠĠ ĠĠ
Ġbl ank
Ġfing er
Ġart ist
Ġdo c
Ġam az
ind er
Ġfrequ ent
Ġde finite
Ġv ic
com fort
ĠV I
Ġm at
Ġcon vey
Ġpro c
Ġs en
Ġfl ed
Ġn et
ra v
z y
ĠMar g
Ġsub sequ
Ġmist ress
Ġh it
Ġind ust
Ġp up
Ġa st
res pect
in i
Ġinstr ument
ĠK e
Ġchar acters
app ed
le m
per haps
Wh ile
Ġunderstand ing
e ach
AN T
ĠC orn
Ġh al
Ġar med
arr ison
ĠD uring
ĠBe fore
or ial
Ġatt itude
Ġpl ans
eng er
Ġspe nd
Ġbrother s
ĠPr ot
Ġc ousin
ac ious
Ġoper ation
ĠO x
Ġl ux
IN E
Ġsc he
e ous
Ġt ight
with standing
Ġc aut
Ġimp at
m es
os pel
Ġsur v
t em
Ġlear ning
a ft
c d
ĠA then
n on
ab b
G e
Ġas pect
ĠTh ou
Ġrefer red
Ġw ing
Ġsing ing
t ri
==== ====
Ġrep orted
ĠTh ough
f ull
Ġany one
I ES
Ġprob able
Ġbuild ings
t ow
Ġfound ed
I X
he ard
Ġb oot
Ġj ealous
Ġmanif est
w ild
os al
im ony
Ġschool s
I F
str ong
F eb
Ġlike wise
Ġe ase
Ġsix ty
ĠS av
ant e
aw s
ĠB Y
R A
Ġsub stance
Ġr ow
g over
Ġwhen ce
Ġconf ess
Ġwhe el
g ent
ur ance
m atter
Ã º
Ġf lying
Ġper formed
v als
ĠT ri
le ase
Ġal arm
Ġthro at
on ce
Ġess ential
ĠF ar
Ġem otion
ograph y
> [
ce l
ĠS l
Ġdef ence
ard ens
2 00
Ġacc ord
Ġin ner
Ġin fer
Ġb ones
em ents
Ġmed ic
Ġan ger
ĠSt ill
Ġrecogn ized
F ig
Ġprov ide
giv en
Ġpress ure
al most
Ġviol ent
Ġk itchen
ĠL ike
ĠM at
J ul
Ġs pl
Ġdel ivered
Ġas leep
Ġmajor ity
Ġav ail
K E
ĠJ o
it a
Ġdep os
ĠC amp
i ot
ing er
ĠS on
Ġex cess
ĠGover nor
Ġaw ful
OU R
Ġsu pre
Ġcons ult
Ġm ixed
ur bed
Ġcount y
ad el
Ġsent iment
d iv
ag ger
f ind
Ġ ze
Ġsound s
Ġfool ish
add le
pr ise
Ġgre et
m om
c est
Ġper man
Ġv en
Ġrul es
Ġyoung er
f ire
Ġdest ruction
Ġunivers al
bl ock
ĠS il
i ated
Th us
Â ½
Ã ł
Ġacc ur
Ġme asures
Ġhot el
Ġstrong ly
Ġoccasion ally
Ġpat ri
Ġphilosop hy
Ġrec oll
ĠA unt
Ġhab its
Ġd ed
ĠO ther
for ms
Ġwe ary
Ġyes terday
y et
Ġ â
Ġwas te
Ġo cean
ĠAm ong
Ġvo ices
st re
rep resent
on a
Ġsch ol
az e
id ents
Ġas king
Ġno body
Ġref lect
Ġproble m
ĠFeb ruary
g ments
Ġfurn ished
er ves
ĠS ar
ell a
Ġwis hes
Ġnot ed
Ġle af
TT ATT
Ġind ul
Ġout er
Ġcab in
m is
Ġmethod s
Ġf o
Ġset ting
Ġch oose
Ġp icked
Ġintellig ence
Ġappro ached
Ġin se
ĠN at
Ġche st
ĠO N
ĠP R
Ġb ree
Ġune x
Ġcomp et
Ġg ift
Ġaffect ed
Ġshout ed
v est
Ġin finite
ian a
Ġhor iz
ou ps
ĠU nder
Ġcons ent
Ġt ent
Ġhar mon
E very
le ft
ĠB oston
Ġmove ments
Ġpro cl
Ġr ushed
Ġgu ilty
Ġsugg est
ĠN ational
Ġpros per
Ġw estern
Ġreturn ing
Ġgl orious
Ġ( ?
Ġliter ary
Ġme al
Ġmod e
Ġw aves
Ġsav age
in cl
int ed
Ġremain ing
S p
Ġevery body
ol k
ĠL P
E d
ist or
re ction
ĠE ach
Ġobser ve
b or
Ã© e
ĠA ustri
Ġtri be
Ġob sc
ĠSt r
Ġn est
ĠUn cle
Ġthr ust
ĠC ON
c oll
tain s
Ġed ition
Ġsy m
E n
Ġst ret
ab led
Ġqu alities
No v
Ġcons cience
ĠA re
Ġdifficult ies
Ġgover nor
Ġincl ined
ĠB ible
ĠL in
Ġsett le
ap ter
Ġcont act
ist ent
>( ?
Ġelect ronic
u k
pl ess
ĠA ss
Ġlead er
ĠG old
Ġass umed
Ġwood en
Ġper mission
Ġread ily
Ġide al
Ġh ollow
art ed
s ign
Ġcent ral
ĠVirgin ia
Ġper pet
ĠG ra
ĠH y
Ġpa used
Ġab road
oub ted
her s
Ġcl ergy
Ġspr ang
TTTT G
ĠA pp
wh ole
C ap
Ġint ense
Ġconf usion
cl osed
Ġp henomen
Ġcle ver
ab s
Ġo wing
m aking
ĠMart in
Ġele ments
Ġtrad ition
con st
child ren
Ġlibr ary
Ġcl ub
ĠA L
it led
h ind
Ġisland s
os om
Ġ7 0
Ġbelong ing
e ffect
>(? )</
c al
Ġthan ks
Ġre se
ĠSec ret
Ġcomp re
AA ATT
Ġto mb
or ter
ĠIs rael
Ġappe al
cl ass
Ġcont ro
Ġconst ruct
ress es
Ġam use
oub t
ĠM us
Ġsil k
.] </
G er
ĠD em
ra w
Ġexp osed
ĠB esides
Ġown er
Ġ âĢĿ
Ġp ushed
ĠV an
> <
Ġfe ather
Ġsy mb
O C
Ġinc ident
Ġ3 2
b oth
O V
Ġste pped
bre ak
l iness
ĠJ oe
Ġpun ishment
Ġa ch
er o
Ġsign ific
ĠCh ina
Ġfat al
Ġc am
Ġfree ly
Ġs outhern
Ġaccompl ished
Ġacc ustomed
ĠG erm
ant ing
o ked
Ġal ike
y ard
Ġinqu ired
Ġsol ution
ĠAlex ander
Ġsepar ated
Ġcomp ared
os er
all el
Ġacquaint ance
Ġquar ters
e ither
pass ed
ĠD utch
Ġmyst ery
bur gh
Ġinst antly
Ġste el
ur a
ar ian
ĠâĢľ _
Ġman ners
Ġhelp ed
ent ions
Ġutter ly
Ġte le
Ġd il
._ )
Ġcount enance
Ġstruct ure
Ġf ulf
Ġj ob
Ġinnoc ent
ĠTr ans
ap h
Ġbelong ed
Ġj ew
me an
b ow
Ġe ternal
Ġbeh old
Ġcoun ter
it an
d est
Ġmount ed
Ġsur re
r ound
Ġabs or
Ġche ck
ĠInd eed
ĠS qu
ĠV i
Ġ8 0
( _
T ON
Ġcons ists
ĠS chool
ink s
ict or
ĠT w
r ain
d ays
Ġremark s
h ar
Ġtra ce
Ġsec ured
Ġth under
ĠJ ean
Ġf ix
8 5
Ġkind ness
ur ther
h igh
ĠH ave
ul ph
Ġissu ed
ĠR ose
r ical
ul ations
Ġder ived
Ġrel ated
se emed
i ary
Ġassoci ated
ĠO R
ot ted
Ġb ul
Ġare a
ĠM ess
w ord
S ON
Ġl est
Ġdepart ure
ĠRep ublic
el f
us ive
Ġs cientific
ĠÃ ł
Ġsp ark
Ġenjoy ed
bet ter
Ġacqu ainted
ĠB ro
bu ild
Ġc ott
Ġneg ro
Ġsh ade
ic ations
Ġst iff
Ġret ired
ad o
Ġpar agraph
Ġcl o
Ġcont ract
br ought
Ġkn ife
Ġp ipe
9 4
Ġexec ution
ĠDo ctor
g a
Ġbene fit
. ),
ĠD ay
Ġb ark
Ġm a
un te
sub ject
Ġanx iety
Ġcare er
Ġthen ce
OH N
Ġsc attered
âĢ Ĳ
ĠB E
g ate
s ince
Ġim age
au x
it ate
Ġinterrupt ed
Ġgr ate
Ġre new
ĠColl ege
os ure
Ġaver age
ic able
P WH
e z
amp ed
Ġswe pt
Ġdread ful
Ġste ep
ic ense
Ġv oyage
ver ted
Ġis sue
Ä «
Ġchar ming
or able
N ever
ul es
Ġpri ests
eng ers
ĠE v
Ġlim ited
Ġst airs
for th
ĠUnivers ity
8 7
Ġhouse hold
y ear
u v
Ġlight s
! _
A re
G o
ias m
worth y
a very
t own
i ast
ĠM other
D r
ĠC ur
in ch
Ġp ardon
Ġr um
ĠD ep
Ġwar ri
Ġbl essed
ir med
ĠA R
Ã §
um ption
Ġdes ir
Ġman kind
ot he
Ġpre fer
Ġmon arch
iver se
Ġse es
Ġann ounced
Ġth read
n et
Ġg rie
Ġleg isl
AC AG
Ġph ot
Ġse ed
or gan
Ġmill ion
bl ack
ĠB oth
t aking
Ġdoubt less
o id
Ġwith dra
up id
Ġauthor ities
Ġprec ise
ĠM ill
Ġh a
Ġfl ood
Ġnerv ous
quar ters
Ġnodd ed
ĠR h
AA TAA
unt il
Ġl one
t able
y es
su ffic
Ġdream s
Ġbet ray
Ġincl uded
Ġopp osition
Ġ vel
ĠB ell
Per haps
ĠG al
i ate
Ġun ited
Ġtrave l
ex pl
pir ation
ion ed
Ġadmir ation
w ick
Ġignor ant
Ġcoun sel
or ig
â Ĥ
Ġsche me
Ġcoun cil
Ġcomm unity
_ ),
Ġeld er
cl ose
TC AG
ĠG en
use um
l ay
en ough
um ped
re ck
ĠH ol
Ġimp r
Ġorn ament
Ġexp ense
ul gar
G r
Ġg if
Ġchar m
Ġobser vation
Ġprof ound
Ġbre aking
Ġwhe never
ĠAn other
ann el
ou ch
Ġact ed
S ep
dif ferent
9 6
com pl
ĠB oy
Ġmark s
Ġconscious ness
Ġv ague
Ġmod er
Ġcoll ected
Ġdist inction
Ġl es
TT TCC
Ġexper iment
p en
Ġb orne
l ive
cc les
e le
Ġdeg rees
Ġconv inced
Ġexam ination
art ment
Ġget s
Ġterrit ory
u ine
Ġany body
h undred
g irl
p ired
and s
Ġat mosphere
ON D
Ġabs urd
Ġenorm ous
Ġh am
all ow
Ġm atch
or us
se tt
Ġb atter
ĠAg ain
Ġcur iosity
Ġo ath
ĠNap oleon
Ġarrange ment
ĠChrist mas
in ations
Ġv ac
Ġleg al
tain ing
Ġintellect ual
BER G
Ġmyster ious
Ġarch itect
ĠCar ol
to p
Ġal tern
Ġut most
Ġfor b
Ġf est
Ġrevol ution
Ġhor ror
Ġinter ior
Ġman aged
Ġpo em
am ents
Ġsw ell
Ġj oint
Ġc ig
Ġl ately
Ġcharacter istic
anch oly
Ġhum ble
Ġ4 5
ĠM AR
Ġattempt ed
Ġun ion
Ġindepend ent
ĠTh ree
Ġt ables
8 6
s atis
Ġch urches
Ġris k
Ġfier ce
Ġstand ard
qu ote
Ġcreat ures
Ġr ude
Ġto wer
Ġmed ium
Ġc offee
om ach
Ġcomple ted
Ġ ÏĦ
ress ing
P hil
ĠW ater
Q U
IGH T
h ouses
V ery
Ġdom estic
ri ve
Ġro lled
mom ent
ock ing
Ġw ire
ir on
Ġsu st
Ġm ood
Ġfright ened
un n
Ġfind s
Ġsoft ly
ri ff
ic an
ĠR es
Ġb i
Ġsle pt
Ġsc ale
.âĢĿ [
ĠF air
ĠTh y
Ġa unt
ĠM S
Ġbe ast
ĠS ur
p hen
Ġf ired
? --
ac ob
s we
ĠF ore
Ġbr ide
Ġcomfort able
Ġr ic
le ts
Ġur ged
Ġunfortun ate
in v
Ġf are
Ġact ivity
aught ers
Î ¼
Ġbeg ins
ĠChrist ians
i ents
h ome
int ell
Ġest ate
Ġspeak s
ĠT re
Ġrun s
Ġfe ared
im ately
ex am
ĠAr my
ĠL iter
al ys
ĠNot hing
Ġmis erable
Ġfall s
M AN
pr ot
Ġoper ations
Ġwond ered
ixt ure
Ġelect ric
col n
Ġsh ining
ĠWor ld
int s
Ġsupp orted
Ġsovere ign
wh ose
ĠC a
ru b
ĠR og
# #
Ġdeli ver
ĠD en
Ġocc asions
app ro
Ġp ier
Ġu seless
pr inci
ĠCast le
Ġattack ed
it ors
ge on
b urn
Ġprop ri
Ġprov ince
turn ed
Ġref use
Ġf ame
Ġ3 3
Ġfl ame
Ġindust ry
Ġl aughter
Ġconcl uded
Ġtra ck
Ġacqu ired
Ġze al
J ECT
Ġro pe
gr am
ĠV II
Ġrec ently
su ff
Ġmet al
Ġf rank
ĠV III
Ġan cest
us ions
st ru
ci a
is ation
Ġob ed
ĠAn y
Ġco al
A pr
ch n
op en
ĠY e
Ġsome where
ĠO ff
il ton
Ġp ause
Ġche eks
Ġdiscuss ion
per fect
em an
i our
m orning
er ick
Ġg host
p ract
ĠS ol
ist ence
us alem
y m
Ġem pire
Ġd oth
b ra
Ġop inions
Ġexc use
ĠS erv
qu ite
ĠE p
er a
Ġdif f
block quote
Ġre ject
8 3
Ġturn s
Ġdec or
Ġinst ances
t ies
Ġhe ll
Ġphr ase
AC TC
H ave
ĠF our
Ġelse where
L ook
os a
Ġtra il
Ġ9 0
Ġpass es
Ġt ied
Ġdeli ber
Ġdelight ed
b an
Ġp ist
Ġs ed
P H
ĠD ar
there fore
ens ions
Ġlarge ly
Ġ #
b ird
tw enty
AT E
w w
un ction
id a
Ġcor rupt
ĠB on
any thing
ĠW all
Ġform ing
Ġburn ed
Ġappro aching
Ġre n
Ġrep utation
Ġprop he
Ġadvent ure
Ġun happy
in ally
ĠP re
Ġdim in
Ġdec ision
ĠR em
ĠPort ug
Ġchar ged
con c
** *
ol ation
Ġapp ropri
pend ed
mir al
ĠR el
Ġcamp aign
Ġlead ers
Ġdisp osed
dif fic
ĠC le
K ing
Ġconst ruction
L ES
F F
ask et
Ġmagnific ent
sec ond
bo at
r d
am ation
Ġgu ests
Ġacknow led
Ġconf ined
Ġele ven
Ġod d
m un
Ġan ch
Ġgr im
ic ians
as ped
ĠMarg aret
Ġhither to
oo s
ol ate
Ġprev iously
Ġt ort
TT AG
Ġtri p
Ġ /
r ich
Ġa pt
ĠM a
8 2
um mer
Ġsm ell
Ġde fect
Ġplain ly
Ġgaz e
ĠT y
ĠF IG
Ġdep th
Ġweak ness
Ġmar ched
Ġun certain
Ġpen et
Ġent itled
Ġcopy right
Ġpract ically
ac count
9 7
ĠPr incess
Ġcomm enced
Ġw ave
Ġver se
U D
Ġy ard
Ġp ig
Ġrem ove
Ġer ror
Ġgl anced
ĠP en
Ġra ge
ustr al
r ick
c s
Ġprov isions
ĠH ence
Ġhand ed
Ġroad s
Ġbe ars
ĠM el
Ġsuspic ion
Ġun conscious
EN BERG
9 5
Ġfail ure
p ose
ĠTur k
Ġm ing
l ist
Ġexam ined
s us
Ġas certain
ĠFl ore
ra cy
Ġst retched
Ġcontem pl
Ġc as
Ġch ain
ell y
s ar
r as
b al
ch anged
Ġcoll ege
Ġm ild
w all
B OOK
ship s
ann ed
ut her
s aw
a uthor
8 4
Ġinv ited
Ġcom ment
Ġte aching
Ġfore head
T is
O G
ap ing
Ġg a
ter ior
ĠW estern
AA ATG
i ency
Ġlight ed
hand s
Ġre nt
Ġri g
Ġeager ly
ĠS aint
Ġ3 4
ar ms
Ġem ph
Ġdet ail
Ġhuman ity
ĠC ape
AC G
Ġfirm ly
ĠM ost
ul p
I AN
pro per
ĠEmp ire
ick en
u ated
, )
ĠL ook
Ġw retched
gl ass
Ġwrit es
Ġsuppl ied
ĠAcc ording
Ġ" _
qu et
Ġp our
hed ral
Ġtreat y
s chool
Ch ar
Ġr ust
Ġl ect
Ġcrowd ed
Ġcon flict
Ġsc orn
Ġinv ol
Ġhun ting
Ġr ush
est ab
Ġmain tained
Ġignor ance
tend ing
Ġb ishop
ist le
g one
d one
ic it
Ġsp are
Ġprodu ction
p her
Ġsign al
Ġmurm ured
Ġsc enes
ĠCom mission
; âĢĿ
ĠL E
os itions
ĠJ ane
P E
ob ser
Ġexist ed
wh om
ad or
Ġlo ving
Ġappl ication
Ġdri ft
Ġrail way
Ġviol ence
Ġde ce
AC TG
ĠWal ter
ĠM o
Ġaw a
sy ch
Ġpar ish
ĠCon f
ĠM onsieur
Ġc avalry
Ġeff ic
Ġgener ous
al ks
Eng land
Ġm ud
ie u
r ust
ĠDe v
u an
ie ge
Ġh anging
Ġcommon ly
Ġgr oups
t re
r ather
i pt
_ --
Ġcom r
Ġle gend
a ffect
Ġag ent
Ġc otton
fort une
to ld
L ondon
Ġerect ed
b b
Ġgr ant
Ġkiss ed
Ġfound ation
sh ine
ach ment
Ġgl o
EN D
Ġb osom
Ġro ot
if orn
b est
om ed
Ġtrou bles
Ġcl iff
Ġtre asure
Ġfe ast
c ra
Ġground s
g entle
Ġdelight ful
Ġdemon str
s ight
F rench
An other
ĠRom ans
Ġfl ow
Ġst ared
Ġres istance
IS H
occ up
m em
ĠCh ief
Ġrid ic
ple asant
g reg
ĠSpan i
de ath
Ġbar bar
mit tee
Ġres c
x ed
p ast
Ã¨ re
Ġr iding
Ġg ates
Ġst aff
Ġut tered
Ġopp osed
TGGG C
Ġland ed
Ġc art
st ate
ict ures
ag ree
Ġc her
com mand
ĠLie utenant
ul ating
Ġwhis per
ĠB u
Ġsitu ated
ord ers
Ġto ler
um m
ĠS un
Ġri val
p op
BER T
part icular
ra ge
d oes
ĠC OM
Ġhistor ical
Ġshe d
th us
ĠH oll
ĠM ah
ab el
ĠH aw
Ġact ions
whe ther
ill ing
in er
Ġt ide
ra ction
Ġpresent s
Ġe re
er ity
Ġb rig
Ġbl ame
Ġan tic
M an
Ġres idence
Ġbe ings
Ġcapt ured
atur day
de c
Ġmill ions
ĠGerm ans
Ġche ek
ib us
quis ite
Ġdirect ions
Ġaband oned
Ġw edd
Ġwid ow
Ġpreced ing
Ġins ult
ĠAn ne
Ġp aint
Ġclaim s
Ġtrain ing
t ree
ĠI nt
Ġgaz ed
Ġrest ored
Ġinter view
Ġapp ly
Ġest e
ĠF e
ĠS k
Ġe astern
Ġsum mon
Ġtrembl ing
Ġdr am
sp irit
ĠOn ce
ac co
Ġl oyal
op es
ĠS ince
Ġspe cul
T wo
Ġpl at
Ġhur ry
p iece
Ġrec overed
Ġbas is
U B
Ġd ared
al a
Ġw ra
Ġfle w
Ġbr ings
Ġ3 7
Ġst or
Ġsac rific
Ġwar ning
cript ions
plic ity
Ġearli est
ĠG all
th ousand
Ġcap acity
Ġshel ter
oubted ly
iz es
Ġaccount s
au gh
" '
Ġb ased
Ġpre jud
ĠGree ks
-- âĢĿ
Ġri vers
av ig
w ords
heart ed
th ren
ud ent
al o
Ġcomp ass
ĠMex ico
ĠPRO JECT
Ġbel oved
h ur
Ġre aching
b all
akes pe
ex c
de v
ac ific
Ġent ering
Ġtr ick
ĠOx ford
on ia
Ġlist ening
Ġcut ting
ĠI llustr
Ġaccom pany
ter y
Ġcomple x
Ġnever theless
Ġne arest
S uch
am ma
ĠC ross
of ty
Ġex ternal
Ġrare ly
appear ance
Ġm art
Ġmis ery
medi ately
Ġprof it
Ġp oured
Ġste ady
Ġob vious
Ġt iny
d ig
Ġqu oted
M ad
ĠCon stant
Ġpursu ed
ist ics
ke ep
ĠG UT
ar ry
ĠSe cond
Ġsort s
Ġj u
Ġrout e
Ġaud ience
Ġp atter
Ġun usual
Ġal ter
Ġcon ception
Ġg est
Ġst out
Ġwind s
ĠDe ath
inn ed
Ġres olution
ĠCol umb
Ġrec all
Ï ħ
Ġpray ers
for mer
Ġsupre me
ĠGUT ENBERG
Ġstud ied
Ġgener ation
Ġne at
ll e
Ġaccording ly
ĠS us
Ġcor p
Ġcra ft
Ġul t
Ġb on
Ġrem o
ific ations
se a
Ġbr ow
ex peri
AA AT
Ġlone ly
Ġorigin ally
Ġhold s
f av
Ġinfer ior
ĠD un
AGG CC
a wn
ĠYou ng
Ġann oy
ant a
Ġpu zz
Ġb ath
f ell
Ġan gel
Ġab st
Ġbl ock
ar ation
Ġper ceived
arr ass
ill es
Ġele g
ax im
Ġstrong er
so on
Ġp owder
hum an
Ġant iqu
Ġtest imony
rel ig
Ġunex pected
Ġtend ency
Ġdisp osition
en cies
Ġcircumst ance
Ġper mit
th a
Ġe ating
Ġsens es
Ġ(? ),
Ġrel ative
Ġher s
Ġenthus iasm
ĠJohn son
comple te
ĠHu gh
ĠM em
Ġfl ung
Ġact ing
Ġter min
Ġed itor
J un
Ġsend ing
Ġ4 2
Ġdeb t
ĠWh ich
uck y
ĠT im
d ark
uth ors
oura ged
wh y
ĠK h
ĠChristian ity
Ġmaterial s
ll a
D uring
âĢľ âĢĺ
ĠS to
ir k
ĠS at
ĠJ ones
Ġrece iving
ĠSomet imes
Ġaut umn
Ġagree able
Ġhosp ital
Ġcontr ast
ut ter
Ġdepart ed
Ġpain ful
Ġconsequ ently
ĠP ost
ob ject
Ġin form
ĠH aving
Ġsugg estion
Ġcop ies
Ġgr asp
m i
ĠU pon
RO M
ĠAt l
19 0
che ster
Ġin her
Ġden y
ĠCr own
Ġreal ized
Ġsc ream
Ġb owed
th ird
Ġno on
Ġnur se
b ishop
Ġantic ip
Ġas h
our nal
s ac
Ġfavour ite
L Y
Ġind icated
Ġen v
Ġhundred s
Ġexperi enced
Ġsh oes
Ġsleep ing
Ġ15 0
Ġd ancing
Ġest im
Ġbott le
Ġbelong s
Ġdist urb
Ġsa le
stit ute
Ġdescend ed
ult ure
is k
AS T
Ġindividual s
Ġdesper ate
Ġcommun ication
z o
9 3
v in
ĠMich ael
Ġc ries
Ġsu itable
Ġru ins
Ġw ives
ot ing
Ġing en
Ġtemper ature
og ue
Ġrec ords
Ġab ility
Ġref uge
Ġhad n
Ġalt ar
ĠLin coln
ge ant
Ġneighb or
Ġceremon y
ex cept
d in
ĠR u
IT Y
g on
Ġperman ent
th y
Ġpre cip
ĠO ut
Ġsli pped
Americ an
eder al
ind ing
ean while
r at
ĠT ra
us cript
Ġ16 0
Ġtrou bled
Ġcontin u
ĠÂ §
Ġmist aken
Ġany where
Ġser iously
m ans
Ġco pper
Ġshort ly
Ġdev otion
az ine
Ġmer ry
pl ine
can not
âĢĶ âĢľ
s a
B rit
Ġme as
fe et
Ġins isted
man n
somet imes
e ff
b a
pro f
Ġstra w
Ġlo ves
Ġmar ble
ĠAb out
Ġconduct ed
Ġstr ain
ar ling
Ġst im
bl er
ĠK ent
ĠC y
ĠS H
Ġmel ancholy
Ġgen uine
Ġexist ing
8 1
Ġres our
ph ia
ot ic
Ġprim itive
Ġr ot
f ree
t es
n umber
Ġm ap
Ġestablish ment
Ġpat ience
ĠA T
n ature
Ġin ev
as se
Ġdri ving
Ġhast e
c ity
Ġnot ion
ĠJ OHN
Ġir rit
Ġprep are
ĠCor p
Ġ* **
Be fore
Ġse lected
ĠS outhern
ot ions
Ġe Book
ur g
US T
Ġst omach
Ġreve aled
Ġn aked
re ls
ĠV ictor
Ġsince re
Ã© s
N E
Ġrep orts
Ġbur den
ĠW ould
ĠP an
akespe are
Ġincre asing
Ġmid night
Ġpur ple
fe rences
Ġfol k
Ġext rem
Ġs ore
Ġdescri be
ĠM et
ty m
ĠLe e
Ġt orn
Î º
comm un
Ġnight s
d uring
Ġ âĢĶâĢĶ
ge ls
Ġhast ily
hor se
in ated
me re
ĠAs ia
Ġnecess arily
ĠAd d
U RE
h o
ke eper
less ness
9 2
p ublic
Ġsh ield
ATC TC
ĠJ acob
v ous
Ġsle nder
Ġread ers
Ġfe ed
Ġsh ock
; "
Ġsp ort
Ġcl ay
Ġar d
E l
pt on
c ross
ĠS cript
c overed
Ġv on
Ġcommer cial
Ġreg ions
ATT TC
Ġf itted
Ġmedic ine
Ġrec over
Ġo h
v ate
AC TT
Ġcommit tee
om y
p ossible
h all
id el
Ġregard ing
Ġext ensive
Ġlim it
Ġs ins
Ġco ach
Ġsafe ly
Ġexceed ingly
Ġassembl ed
Ġmag ic
Ġsuccess ion
Ġgover n
s ed
es pecially
Ġmass es
ocr atic
am med
Ġsett lement
Ġ7 5
ĠCh ic
Ġte ar
f are
Ġv ote
Ġs ang
TGG CC
I P
AC AA
Ġ4 4
it udes
Å į
Ġcont ents
m il
Ġhom es
con n
9 1
ĠE arth
Ġp ed
ĠThere fore
Ġper sec
V I
ist ry
se veral
f ashion
Ġpar allel
OU N
ham ed
fe w
r ates
Ġcon j
enn a
Ġrail road
Ġlead s
âĶ ¼
Ġle ather
ĠHel en
ĠP L
Ġshad ows
m oney
G AG
Ġour s
ĠW H
Ġmas ters
il a
w omen
Ġmerch ant
Ġcomp osition
d ri
Ġel oqu
iforn ia
Ġg ri
le ton
ĠAl so
ur red
her self
Ġhel pless
P e
for ward
ĠProt est
Ġstay ed
Ġtem p
Ġfar mer
ĠG re
Ġsl avery
Ġem peror
an ed
ul ars
Ġp ound
âĢĶ _
Ġas hamed
Ġv ary
bl ood
ĠP ass
ab ove
and a
f if
ed ge
Ġheav ily
." [
Ġexam ples
Ġabs ent
Ġrest ed
Ġab rupt
ĠSecret ary
Ġhung ry
n um
ĠS ax
head ed
ĠM arsh
ĠJer usalem
ag ues
ĠL ight
ĠÃ Ĩ
adv ant
Ġthreat ened
Ġvill ages
Ġg ent
AT H
so ld
with in
per t
> </
" --
Ġd aughters
Ġreason able
al ph
i ations
Ġsee king
in qu
r ors
Ġri fle
Ġcommer ce
Ġdet ect
Ġin it
ĠCan ada
acc ording
Y et
ear ly
g reen
t rees
ĠI ll
bo x
Ġfore ver
Ġint r
G u
ed ed
w ich
Ġre vel
Ġmin or
s pect
Ġb orrow
ĠTem ple
Ġvict im
Ġsong s
F l
Ġl ofty
i pping
Ġconce aled
gr at
Ġconv iction
D E
ro ll
Ġ4 3
Ġse as
on ic
it self
Ġimag ined
Not hing
Ġsome how
Ġlar gest
of ten
Ġb one
Ġprodu ct
Ġprevent ed
ay ed
Ġpl ays
os h
ĠD is
Ġcry st
Ġs isters
ĠJapan ese
Ġneighbour hood
ĠĠĠĠĠĠĠĠĠĠĠĠĠĠĠĠĠĠĠĠĠĠĠĠĠĠĠĠĠĠĠĠ ĠĠĠ
bel ieve
Ġpay ing
Ġcomb ined
Ġimp ulse
Ġcol ours
Ġs ank
Ġad j
ĠGree ce
Ġmed ical
er ies
Ġque er
ĠH ard
Ġc rying
Ġbeat en
Cap tain
Ġcontin ually
Ġsw im
g ave
Ġcent er
adel phia
Ġposs ibility
c ourt
l ad
if ully
Ġmut tered
Ġconn ect
Ġbr id
al ready
w it
OR Y
ane ous
Ġfe ars
Ġconc ent
Ġd ivers
ut ive
g row
ve t
Ġrem ote
Ġdr unk
Ġmort al
ĠA ustral
Ġshe et
G TG
Ġbeg ged
Ġgr ain
Ġsign ed
ars on
Ġa ven
Ġthere by
Ġ4 1
wor ks
Ġcre ation
Ġdeser ted
Ġprot ected
; --
gr and
Ġpass ages
ins on
Ġaddition al
ian o
C ar
Ġsevent y
Ġdist ress
ak ers
Ġfl u
Ġbo il
Ġmer it
ĠM P
ann y
Ġe cho
Ġtrans p
Ġslight est
P ER
Ġbad ly
AG E
Ġrecord ed
Ġsl ain
Ġprot est
ut y
Ġa u
Ġdrink ing
Ġreck on
b rew
Ġran ks
ld er
Ġcott age
ing ham
Ġsa iled
ĠT own
Ġar ts
ather ine
l est
Ġrequ ires
Ġthere of
st ri
AR Y
Christ ian
bus iness
ĠB ern
occ asion
Ġpat ron
re ne
oo f
Ġdistinct ly
Ġfor give
A K
Ġlim bs
ack s
ĠR O
Ġcover ing
w ife
Ġstud ent
Ġp ark
Ġth ine
ir s
sh ort
Ġinstruct ions
ĠB as
ĠBar on
Ġpres erve
Ġfe ature
Ġele ction
Ġ }
v iously
Ġen abled
Ġth ir
Ġinter pret
Ġart illery
Ġ4 6
ur ious
ig g
Ġlim its
Ġun like
Ġeight een
Ġpl un
Ġs ite
ig ence
Ġar ise
Ġst upid
Ġap ost
Ġcommand er
op ing
Ġbur nt
Ġfol ks
ertain ly
IC E
mon t
Ġdecl are
-- âĢľ
pro du
Ġinv olved
Ġc ree
import ant
ĠPr uss
Ġrest r
Ġf ert
g iving
eg ro
Ġgrat itude
arn ed
Ġsus pect
Ġafter ward
Ġart ific
ĠE BOOK
w art
al ion
alys is
Ġal oud
ind eed
Ġex ert
ker chief
Ġcompar ison
ĠL ew
Ġres ist
ĠPe ople
Ġimm ort
ol as
ustri ous
Ġintrodu ction
ĠTh rough
ĠC O
Ġch ose
TG TAA
ol t
Ġcivil ization
ĠW IL
ap es
ĠR ock
e ur
con ven
ic le
al ong
amp s
ĠXX X
Ġrepe at
Ġp ains
pl ed
ATG CC
ru p
ic ating
Ġexha usted
Ġthr owing
Ġmanufact ure
Ġsh ake
Ġres pond
S u
Ġ5 5
Ġvent ure
Ġf ires
sel s
m ble
ĠG il
follow ing
ar ia
an es
Ġr ays
c all
z ed
Ġid le
and al
ĠDe c
ul us
r ot
ag le
ĠP ier
Ġpr inces
---- "
l ord
ĠM os
iet ies
ly n
Ġ4 7
es ter
ĠL uc
Ġinquir y
Ġcustom s
Ġg ardens
b un
Ġl ust
Ġr at
Ġh oney
Ġint im
under stand
f ellow
b acco
-----+ -----+
Ġb apt
ish ops
Ġpursu it
in us
Ġfurn iture
h ot
ĠÃ ¾
Ġorgan ization
Ġmo ist
Ġra v
w hel
ud ence
ag ing
Ġform ation
cl aim
oun ter
ĠLe g
hens ion
Ġmore over
Ġsome body
Ġm ob
Ġu g
Ġcons isted
Ġmost ly
E ven
c reat
ccles iast
all owed
Ġdisplay ed
every thing
Ġmer c
Ġhor rible
oc racy
Ġaff l
Ġdis miss
Ġd uke
Ġass ume
Ġc ave
Ġir regular
ĠG ar
sc ar
o a
Ġgu est
beaut iful
Ġcon vention
Ġpo ver
Ġm ixture
ĠD ist
Ġro ots
Ã «
Ġat tain
Ġgif ts
ĠA S
Ġwant ing
Ġcross ing
t reat
Ġamb ition
Ġadminist ration
inc re
Ġce ase
ac ing
Ġto ss
Ġconce al
Ġspe ll
Ġre bell
Ġwr ath
Ġt ones
ĠP enn
Ġch apel
Ġche ap
Ġv ivid
Ġper il
ol is
ĠE ve
ches s
p ress
be ar
Ġres umed
Ġfin est
Ġsuppl ies
ol ph
Ġpover ty
ĠAl though
Ġwas h
ig er
Ġstr angers
h our
ĠCh ild
l eness
Ġsound ed
Ġcl erk
if ies
ph il
A p
ĠG race
i ac
re ceived
ole t
nd s
he red
Ġadm ire
co at
Ġspecim ens
Ġrest ing
sh aped
Ġcons ist
Will iam
in ery
um ing
ang le
ever al
rem ark
A U
gr im
Ġfin ish
Ġl in
Ġret ire
ĠT or
Ġb at
Ġen able
Ġocc urs
v ity
Ġqu al
Ġobject ion
Ġ17 0
l ot
ens ity
erv ation
ĠT ake
. -
circ umst
ĠJew ish
step s
Ġde eds
Ġfather s
ged y
Ġcra ck
Ġra ces
Ġwa ist
oth y
ĠAmeric ans
TC TT
ĠAd am
Ġcor ps
ĠCount y
ay ing
pl aced
Ġwhere as
Ġmot or
Ġy ell
Ġch im
Ġ6 5
Ġp ine
Ġtransl ation
Ġstart ing
Ġcheer ful
T ake
Ġsc r
om atic
Ġwond ering
d irect
st ers
Ġex change
su per
ENT S
Ġde eper
Ġsharp ly
ve ll
Ġover come
k new
L a
just ice
pic uous
Ġarri ve
Ġsus pected
Ġpl ates
ĠO b
Ġden ied
Ġmaid en
Ġprom inent
âĢ ²
art e
Ġt in
n ut
Ġt ick
ĠT ell
ograph ical
Ġinter vals
my self
br other
me et
Ġex ists
Ġvol umes
d y
Ġv ine
t imes
pt ure
Ġl un
Ġbe asts
e pend
t ill
Ġconqu er
ĠP ur
OR K
Ġarm ies
Ġr hy
Ġpre m
Ġavail able
Ġcol ony
Ġdepend s
Ġeat en
Ġintellig ent
Ġgr ows
Ġre b
ect or
L AND
ial s
Ġmag ist
th r
Ġstud ents
as m
em ploy
Ġde ed
Ġcondem ned
Ġless on
Ġperform ance
ĠE D
im ag
ĠMin ister
Ġfast ened
ĠS and
ĠM oses
contin ued
com es
Ġlean ed
Ġ5 6
Ġsun shine
Ġattempt s
l ines
Ġemploy ment
gg ing
Ġf asc
Ġrel ieved
ĠC ard
ĠAnd rew
Ġfru its
Ġtri but
Ġsec urity
Ġl ock
ĠĠĠĠĠĠĠĠĠĠĠĠĠĠĠĠĠĠĠĠĠĠĠĠĠĠĠĠĠĠĠĠ ĠĠĠĠĠ
IC K
Ġra ising
Ġelect ed
A IN
Ġdistribut ion
S te
Ġlight ly
Ġc y
Ġsym pt
Ġp sych
Ġneg lect
ĠE le
Ġtou ching
app ing
Ġpurch ase
er ness
Ġhapp ens
Ġst air
Ġj ump
Ġimpr ison
Ġsymb ol
Ġgra cious
Ġsh one
itt y
ĠM useum
Ġele v
Ġle is
re rs
Ġsl ip
ĠT ime
ĠSam uel
Ġl ion
M on
Ġc ir
Ġt ar
se ven
Ġland ing
Ġdec ide
u z
as hes
Ġbr ass
Ġm ould
ĠT est
ion e
it ality
Ġapp ar
Ġdist urbed
Ġc ure
Ġres ol
ĠI X
atter ing
Ġout ward
Ġbl oom
p osed
Ġstead ily
Ġbe ach
Ġprepar ation
Ġb ade
bro ken
Ġobserv ations
Ġoccup ation
TH ER
Ġs addle
Ġ5 2
ĠAd miral
in burgh
ĠLe on
ĠS aturday
so le
l oc
Ġport rait
Ġdefe at
Ġrespons ible
ĠFlore nce
et ic
Ġconsequ ences
nd ers
Ġsens ible
Ġl ap
ĠC ro
ĠH ay
Ġin duced
Ġcontr ad
Ġs iege
com b
Ġin fl
p ing
Ġstr ing
v ill
ne ar
um an
Ġcand id
1 00
Ġmus ical
ic les
Ġh ind
Ġpolit ics
Ġext ract
in ence
m aid
de cl
H en
ĠCom mand
Ġinter fe
Î ·
g n
Ġ12 0
p ie
M ER
Ġf ed
ĠS ub
ru it
m ill
Ġmot ive
rif ied
Ġdiam eter
Ġpron ounced
iv eness
Ġbed s
friend s
Ġheav ens
Ġcult ure
ĠAl f
p oor
op y
Ġwr ought
Ġlaw yer
Ġsan ct
Ġpain ting
ĠD ou
Ġc ents
gr ad
ck ets
TATT C
Ġgrate ful
Ġc ared
OO D
Ġnor mal
Ġsh alt
Ġvol unte
Ġcl aimed
Ġadvant ages
per ial
ig ne
AC K
Ġpri ze
i pl
se x
a ire
m ical
Ġwas hed
Ġp ace
Ġaston ished
ĠN ight
Ġrep ublic
AAAA AAAA
Ġmult itude
ult ies
Ġcle ared
ĠSte phen
Ġc ards
Ġbal ance
Ġthe atre
Ġdemand s
Ġcapt ure
Ġcolumn s
ĠAl ice
Ġpos itive
det erm
pr ison
gu ard
Ġo ak
Ġscar ce
Ġdepart ment
b ene
ĠF il
w s
ĠLiter ary
Ġcell s
pro bably
ang led
reg ard
Ġcitiz en
s un
Ġhat red
M e
Ġcompar atively
Ġstud ies
Ġdoubt ful
be gin
Ġgood ness
al though
m el
Ġf ury
Ġfif th
Ġty p
d rew
Ġsix teen
Ġfear ful
Ġsc ore
h ill
Ġag ric
AT ATG
. ).
ol en
f les
ament al
Ġfurn ish
Ġweap ons
v as
Ġexam ine
Ġ5 1
Ġ6 4
ag an
ur is
Ġf ount
ut ing
ĠM oh
Ġcl ock
ll ers
Ġsh aft
ATT TT
Ġh id
ĠH ind
ĠSen ate
op ed
Ġme ad
Ġphys ician
ĠN EW
Ġrespect s
Ġex quisite
ĠR os
Ġl ift
ĠP acific
w ed
um bled
Ġpo ets
Ġbre thren
Ġfl ash
o ard
Ġnewsp aper
ĠB i
Ġref lection
Ġaston ishment
ad er
Ġvar ied
Ġexper iments
d ire
R S
Ġper ceive
by e
d ess
Ġh az
Ġint imate
-- -+
d oubt
Ġc ream
Ġenc ourage
f elt
Ġnot withstanding
Ġpo ems
Ġ5 3
Ġbu ff
Ġhand le
âĢĻ ,
Ġ5 4
ri ages
Ġconven ient
Ġloc ated
ĠH al
in flu
s pring
ĠP ot
â ģ
Ġsur vey
Ġstre ams
man ner
ĠHoll and
ĠSpani ards
Ġad orn
ic he
Ġat tained
Ġinter nal
N e
Ġwe aring
B ar
Ġcour ts
Ġs way
Ġkne e
room s
ple asure
Ġg ang
ĠCal ifornia
Ġat e
Ġindif ferent
G over
Ġnarr ative
Ġwhere ver
u ity
Ġs ighed
f ish
ad ers
ĠB illy
ons ense
m ain
will ing
ĠHe ad
az z
av a
Ġre tained
Ġreg ards
B ec
Ġa uthors
Ġb order
ĠCom mittee
ĠN ich
Ġor g
ĠCon stitution
ĠIs a
Ġwrit ings
._ ;
t ical
Ġfour teen
Ġso b
Ġshell s
Ġoffic es
Ġfat ig
r un
Ġperfect ion
ĠRe volution
ĠB a
Ġpre y
Ġass ure
know ledge
Ġse lect
Ġd ried
Ġdes ires
Ġmod el
S ec
Ġel abor
Ġp ink
Ġind icate
Ġpl ot
TG TT
Ġwedd ing
Ġpre ferred
Ġsh ru
ic ing
Ġsatisfact ory
qu er
Ġprov inces
Ġend ure
Ġprov ision
for ced
Ġquar rel
Ġw ars
F irst
Ġb id
ĠT urn
Ar ch
Ġsc ul
Ġinj ury
A gain
Ġag ed
ens ation
AC E
u ously
Ġdwell ing
ĠâĢ ŀ
here nt
at ers
TAA AA
ĠCar l
ĠO l
Ġth irst
Ġemb ra
Ġfollow ers
Ġname ly
l ady
ur ation
Ġcol ored
um ps
b ot
Ġdistingu ish
Ġemb arrass
ĠA rist
Ġg iant
ge ance
, _
Ġprof ess
al one
Ġdra gged
all en
AC T
Ġconsider ing
Ġcrim inal
+ --------
CC CC
fam ily
con sequ
ĠJud ge
gover nment
Ġbree ze
L ady
Ġcompan ies
Ġaband on
Ġg arrison
Ġstart led
ĠW in
on ies
Ġconf irmed
O bs
ak ened
Ġcrit ical
us ually
end ous
ĠCent ral
resent ly
Ġsh aking
at i
A nt
Ġvisit or
Ġcl imate
Ġsum mit
Ġrep rodu
G utenberg
ipp i
Ġs ne
ra ham
ĠF le
Ġhesit ated
AG TT
Ġlive ly
ĠC Ã¦
Ġboot s
Ġref lected
Ġbless ing
suffic ient
b ott
f old
Ġm ate
ĠE astern
ĠEgypt ian
Ġro lling
Ġco arse
Ġf olly
CT ION
ĠF ield
Ġatt racted
Ġgall ant
Ġtrans port
Ġc ens
st ud
Ġpres ident
ib ilities
sc ape
n ation
ig r
id ity
Ġsy n
us k
leg raph
Ġconstruct ed
Ġin ser
ĠB udd
Ġexec uted
Ġoff ering
ĠE X
ĠĠĠĠĠĠĠĠĠĠĠĠĠĠĠĠĠĠĠĠĠĠĠĠĠĠĠĠĠĠĠĠ ĠĠĠĠ
Ġh aun
ad ise
od es
Ġclot hing
spe ak
Ġang le
Ġbr on
Ġlay ing
Ġtr unk
ou ched
en c
Ġdes k
Ġpoint ing
ĠFred erick
Ġprep aring
Ġfortun ate
Ġs d
ĠC L
ĠOff ice
b orough
Bec ause
Ġkeep s
Ġ5 8
Ġliqu id
ĠP ap
Ġh ated
Ġsurre nder
Ġ5 7
ĠT ex
e lect
G H
oon ful
is ms
Ġd ict
me ans
Ġhe d
A W
Ġinst ruction
in tend
de ep
i Ã¦
ĠW ITH
os ity
Ġann ual
az ed
Ġin tend
Ġenter prise
Ġund oubtedly
ĠE tym
tow ards
Ġpe asant
ĠChic ago
Ġf ran
Ġman uscript
an o
u h
Ġapart ment
us hes
ĠIs lands
ci ation
Ġins pired
Ġass ault
Ġv ulgar
Ġsubsequ ent
ĠB re
Ġdesign ed
LI AM
or se
Ġpart ed
Ġdeterm ine
Ġequ ip
Ġreal ize
be came
Ġprecise ly
if ted
ll en
Ġj umped
ĠMore over
Ab out
st reet
Ġan gels
Ġto bacco
ĠE st
cri be
ap ted
Ġindepend ence
d am
Ġp ond
ur rection
Ġbe held
Ġinstit utions
van ia
Ġdisg race
c at
Ġfeel s
Ġd rank
ces ter
ĠB ull
a ired
Ġsurr ounding
reat h
Ġphenomen a
Ġchief s
The ir
h ope
os is
Ġaw ake
Ġlean ing
Ġproceed ings
Ġru ined
Ġpl ains
Ġfee ble
Ġfun ction
Ġdisci pline
O ld
s ure
Ġhoriz on
n ie
e ast
Ġvirt ues
Ġdep ths
Ġre view
Ġinstr uments
Ġr ises
Ġn erves
Ġsol itary
Ġsens ation
Ġs ulph
Ġhe m
ĠM iddle
l ock
Ï ī
Ġl ament
t or
Ġweap on
d aughter
TTTT TTTT
ph one
Ġconce ived
Ġgather ing
Ġstro ke
au e
Ġprivile ge
Ġc oo
ĠA mb
ĠJe ff
Ġd irty
Ġhast ened
Ġself ish
IV E
Ġre form
ne ighb
Ġmin isters
Ġpe op
ast y
Ġcl oser
Ġbl oss
em b
ack ed
Ġobed ience
Ġd ining
be gan
s ch
Ġerr ors
ĠS C
ond ay
ult an
Ġswe ar
s qu
Ġh ook
ch ance
ĠIn f
TTC TC
wr itten
Ġcons isting
de velop
Ġdel ic
atch ing
Ġdeterm ination
Ġ5 9
Ġl ocked
Ġman age
Ġvan ished
ĠSt an
Ġbe ard
Ġug ly
Ġfeather s
Ġright eous
be come
LE Y
ear th
com pan
ch urch
Ġdistrict s
Ġconf ident
Ġharmon y
ĠSh akespeare
Ġre con
Ġbo iling
ri ly
S omet
ro d
ĠO ver
Ġte chn
Ġh arsh
Ġsh ores
ĠJack son
Ġwhere in
Ġb asket
cent ury
r ad
Ġper f
ĠB art
ĠA ra
Ã¡ n
Ġpl ane
ĠC ab
Ġtu be
he nd
Ġd aring
5 00
ĠMar ia
ay lor
T om
ĠW ales
C or
Ġn ut
Ġst aring
ĠE N
em on
Ġo un
Ġpr incess
ĠNor thern
Ġbr ick
sy l
Ġde er
m ove
Ġd iver
Ġadmir able
Ġo we
am en
Ġl ing
Ġphot ograph
ict ions
Ġafford ed
is er
Ġlight ning
ĠDiv ision
Ġgr an
Ġacc used
ĠI S
te xt
G reat
Ġt ales
am an
yl on
ĠR od
._ âĢĶ
Ġ3 00
v oice
Ġtrave lling
ĠP age
ĠB O
âĶĢâĶĢâĶĢâĶĢâĶĢâĶĢâĶĢâĶĢ âĶĢâĶĢâĶĢâĶĢâĶĢâĶĢâĶĢâĶĢ
Ġdon ations
ĠW ind
le ased
Ġcritic ism
Ġh oles
cess ion
Ġpal m
Ġb er
Ġarrest ed
alk ing
Ġtim ber
ATT CC
pl aces
Ġpl anted
Ġbe ating
Ġabund ant
fe el
be hind
ud ge
Ġpropri et
Ġt ub
ĠĠĠĠĠĠĠĠĠĠĠĠĠĠĠĠĠĠĠĠĠĠĠĠĠĠĠĠĠĠĠĠ ĠĠĠĠĠĠĠ
Ġgloom y
Ġinstit ution
Ġw ages
Ġprocess ion
Ġport ions
Ġr ang
ĠO s
Ġup right
let ter
ĠD om
Ġun iverse
ĠL ow
b ound
Ġf ishing
f ight
follow ed
n ational
de al
Ġimp ressed
Ġplat form
Ġcomm ence
ĠOh io
ĠBe ing
k i
Ä ĵ
f ront
Ġreven ge
Ġinc red
Ġ6 3
Ġconf used
g un
ĠâĢ ¦
oc he
Ġb ond
Ġre ception
AGG AG
ast on
ĠWil son
Ġs aint
ĠH ell
rec ogn
Ġl ou
s q
U C
Ġgrace ful
Ġtr an
Ġsc ri
Ġcomb ination
Ġeight y
use t
ey ed
ĠDiv ine
om p
ĠBel g
pre p
so ever
r idge
ĠF riend
Ġadd ing
Ġproceed ing
as ked
am in
um er
Ġc el
Ġre tain
ĠF r
ig s
ĠD ra
âĢĶâĢĶ âĢĶâĢĶ
o ven
Ġad vert
Ġfun eral
requ ently
Ġvers es
Ġch amp
ĠHe brew
out s
Ġth ither
Ġrecogn ised
Ġpass ions
ĠSw ed
w en
qu iet
P R
ĠR us
Ġv ice
Ġad just
Ġdoc ument
od s
im m
Ġas sembly
Ġm ant
de ad
Ġpure ly
g old
car ried
Ġmod est
Ġhost ile
Ġv ii
Ġsw ung
ord on
ĠO ri
V II
I CH
Ġse eds
Ġkn ocked
ĠR uth
Ġgaz ing
Ġass igned
Ġus es
Ġsle e
H aving
cclesiast ical
land ers
Ġprosper ity
Ġ6 2
L D
it ical
ir ts
ĠNo v
f ied
Ġinf antry
li ver
fam il
og s
ĠPhil adelphia
b ad
et her
Ġp in
ĠS her
Ġvisit ors
Ġlo ad
Ġd arling
x x
angu age
Ġmy th
ĠTurk ish
cond ition
ACC TC
Ġcan non
EN CE
Ġbr ush
and ed
ĠCl ub
Ġimper fect
ost er
phe w
Ġt ract
Ġv oc
le ast
ĠB rig
agree able
Ġsub stant
ach uset
tr ue
as is
in f
Ġh unt
ON T
Ġdis gu
oo re
A cc
iss ippi
Ġpro hib
ĠL ibr
achuset ts
OR T
u y
ois elle
ĠWith out
Ġf iring
tr ave
ent ire
Ġexp enses
Ġam end
Ġw ounds
ar ound
Ġm our
Ġh ut
an tern
Ġanch or
Ġcow ard
Ġneg lected
Ġeng ra
I B
Ġp ile
M ore
qu al
Ġtr ained
o bl
read ing
Ġcand le
Ġset s
b able
U E
Ġqu i
z ing
Ġsecret ary
r ons
Ġsun k
Ġ6 6
Ġt our
Ge orge
Ġfra gments
V ER
un ting
Ġf et
TCC CC
Ġbeh alf
ĠAs soci
Ġconsider ably
ĠB al
ATT AC
Ġarrange ments
ol i
Ġspecim en
GG GG
Ġ6 8
Ġt ip
w ering
ĠRog er
Ã ¯
.) </
ĠÎ º
Ġdro ps
Ġdistribut ed
Ġcre pt
gr ave
ic ism
âĢĿ ;
Ġj ack
Ġsteam er
T ell
Ġapp et
Ġele ph
' ,
Ġup ward
Ġsl ope
Ġmut ual
Ġv ener
Ġinv ari
Ġdefe ated
Ġpol ite
ACC CC
Ġv iz
ĠGe org
Ġdiscuss ed
Ġs ke
On ly
Ġdes cent
Ġw ake
Ġse ats
im a
Ġeffect ive
Ġab ol
Ġdead ly
ĠS ix
Ġprepar ations
ac hel
Ġen er
s en
Ġcol ors
il ian
as per
ues e
Ġinf ant
Ġming led
ĠM ir
Ġac res
Ġno is
Ġrespons ibility
Ġeffect ed
ĠGr ant
Ġsummon ed
ĠP oor
ĠH art
Ġorg ans
ĠB urn
ĠW y
Ġover whel
es y
ber ry
ĠR alph
Ġgrand father
ĠBer lin
ĠF ROM
ĠEs q
Ġm ail
ĠMar ie
Ġsim plicity
Ġ7 6
Ġamuse ment
Ġspec ific
Ġoccasion al
r ise
ĠL iber
c orn
ri bly
Ġconqu est
Ġpersu aded
Ġforest s
Ġty pes
un ities
Ġwide ly
we alth
ch air
Ġw ard
en em
Ġvig orous
res ult
Ġres erve
port ion
ĠK ings
us ively
ĠV ery
Ġun ity
M any
ĠN egro
Ġgl ow
Ġent reat
C L
Ġr idge
might y
Ġro ar
Ġchar ity
su gg
bu ilt
L L
c ott
OU S
AS S
Ġmiss ed
v ag
.-- _
Am ong
ĠK night
Ġstir red
ĠB ed
Ġcultiv ated
Ġmoder ate
k ward
in ating
s ays
ĠR ay
Ġchar ges
og rap
off ice
ps on
ĠA sh
V III
ran e
ĠW el
r ice
Ġrespect ing
Ġm ajesty
con tr
Ġrepl aced
Ġach ieve
it als
h i
Ġ6 1
ĠM od
ĠAthen s
ĠF ox
idd ing
th rop
Ġp ool
G l
Th ank
ĠN ed
ord ered
Ġun c
Ġpictures que
u i
J ack
fact ion
P res
Ġn aval
att ention
Ġ7 2
ustri al
Ġwand ering
Ġ1 10
ĠLu cy
N OT
ĠÃ Ĺ
writ ing
Ġstat ue
ath an
Ġwe igh
Ġwhe els
Ġinter course
Ġ6 7
h in
S pe
AG AAG
ATG GC
Ġwhe at
Ġoccup y
ĠSu pp
th row
18 0
ip es
âĢĶ âĢĿ
Ġsatisf y
mind ed
f aced
Ġremain der
ran ean
Ġswift ly
Ġcan oe
ar c
Ġcalcul ated
Ġpe as
Ġsm art
TC AA
Ġpay ment
Ġm ix
Ġn avig
app l
Ġgl it
Ġrecogn ize
in h
Ġne got
Ġcon vent
I RE
Ġl osing
Ġre du
Ġstrict ly
ĠA uthor
Ġresour ces
pl ain
Ġform al
Ġstreng then
ĠU N
ment ioned
Ġd ense
Ġconf irm
Ġf oe
Ġearnest ly
d ed
Ġorgan ized
Ġexhib ited
Ã ®
ob ody
Ġsal vation
p ain
Ġimpro ved
Ġconf er
I m
w onder
Ġp ir
Ġacc um
ĠD am
Th ou
f aith
ow l
fe eling
ro b
Ġdest ined
OL D
ĠPl ace
am bers
id able
Ġswe ep
Ġj est
ĠPers ian
ĠTh or
Ġmis chief
Ġcra w
TGGG G
ass es
qu ick
Ġrepresent s
Ġg ross
S H
Ġcont est
Ġimprove ment
book s
Ġclim bed
Ġfl ames
pro ceed
Ġsurr ound
Ġsp ots
ĠAustri a
ĠH ome
Ġphilosop h
iv ities
Ġreturn s
Ġc yl
Ġple as
Tr ans
Ġth ri
ne xt
ĠD own
ĠM ort
ĠB uck
is ible
ĠG oth
Ġag ony
ĠAl bert
ud der
Ã Ĩ
Ġbl ows
Ġrom antic
Ġgener ations
Ġhy mn
Ġc unning
adem y
ass ador
Ġrespect able
Ġhum our
Ġsub mit
Ġwarri ors
Ġn erve
ra its
Ġrom ance
B et
Ġch in
ĠEd ition
Ġris en
p it
ĠHam ilton
Ġ13 0
Ġ8 5
Ġdress ing
il i
Ġ6 9
Ġgest ure
Ġshoot ing
Ġtem porary
ag ne
Ġliber al
ne x
Ġcolon ies
Ġch o
ĠE ND
Ġjud ges
in ople
---- âĢĿ
Ġhealth y
Ġhe ap
Ġn inet
re ally
re te
Ġs aints
ĠA A
as ury
Ġsu bl
Ġday light
Ġown ers
Ġcomb at
ĠAtl antic
Ġmerch ants
con ce
Ġex agger
Ġprop het
Ġmot ives
Ġin duce
Ġadv oc
Ġt ons
Ġbeh av
Ġtransl ated
syl vania
tr uth
ĠP oint
Ġre in
Pro ject
AGGG C
Ġdischar ge
Ġrem edy
ong s
Ġdisapp ointed
f air
Ġeng age
ĠC red
C al
Ġillustr ated
ĠX IV
R ep
f a
ĠN ic
ĠB ru
ATT GC
vers ion
Ġl ic
Ġenjoy ment
Ġst em
ĠX I
ĠV alley
ne g
ĠĠĠĠĠĠĠĠĠĠĠĠĠĠĠĠĠĠĠĠĠĠĠĠĠĠĠĠĠĠĠĠ ĠĠĠĠĠĠ
ĠD i
Ġprompt ly
Ġst ores
ĠP ublic
Ġill ness
Ġhy p
an ing
Ġtre acher
f olk
Ġw agon
Ġmus k
Ġpass engers
ĠP ut
serv ice
Ġv ital
Ġas hes
ent er
Ind eed
us al
ĠNor man
Ġeduc ated
an i
Ġsent iments
Ġ7 1
Ġfin an
Ġ ~
ĠH E
medi ate
Ġpro sec
Ġve il
ust er
ay er
ĠAfric an
Ġfavor ite
Ġ ÏĢ
am ount
Ġso ber
Ġd yn
aps ed
Ġin vention
M ary
Ġun w
Ġpublic ation
Ġb und
Ġoff ence
Ġdesir able
w ant
im mediately
Ġcomr ades
ĠN OT
c ular
ĠL o
Ġqu art
Ġy er
un ic
Ġplac ing
ĠB ank
Ġtrem endous
âķĲâķĲ âķĲâķĲ
ĠL es
Ġsk etch
ph y
ci ences
Ġp ious
Ġclo ak
Ġacknowled ged
Ġvis its
" _
Ġdiv isions
Ġsh rie
Ġ7 8
Ġapp ointment
Ġindign ation
est ine
Ġf ab
Ġl y
p ool
Ġg own
Ġal tered
Ġli able
Ġv est
ĠLew is
Ġinv itation
z es
at oes
Ġattack s
Ġjour nal
ct ors
stre ng
IN D
cond uct
m ur
c us
Ġch anging
Ġfair y
Ġlow est
Ġrest rict
Ġ7 4
Ġin flict
Ġsour ces
ĠGr ay
it he
Ġam ple
ri ver
ent ially
ass o
con v
Ġs illy
ĠM AN
Ġeng agement
Ġd uck
ĠVen ice
ĠP y
Ġin ward
Ġinse cts
com pany
Ġsil ently
ĠSh all
Ġse al
ener y
GG CC
Ġde fin
Ġv ault
Ġc ock
Ġtra ces
Ġsail ors
Ġmus cles
r um
Ġsympt oms
Ġrenew ed
Ġ7 7
Ġpurch ased
mount ed
Ġentertain ed
Ġdoor way
Ġinev itable
Ġ ..
e ches
ign or
Ġcount ed
ol ent
F ather
Ġrep ent
Ġmach inery
Ġv iii
Ġf ain
Ġbe wild
Ã »
cl ot
l ain
Ġf t
Ġsqu ad
ĠCH AR
Ġmain ly
ir a
Ġteacher s
Ġadv ised
ch ant
ick ing
Ġopp on
Ġx v
Ġple asing
Ġpro long
id ers
Ġartific ial
jo ining
Ġprev ailed
ight ed
Ġp y
Ġ7 3
ci ed
h ast
build ing
Ġpre tend
Ġput s
Ġh int
sm ith
f r
P L
Ġro ses
un ct
Ġaccom mod
part y
ĠCom p
Ġpos itions
ĠD er
ens ed
om on
Ġrep air
i eth
Ġp itch
te gr
ĠB att
ind ividual
Ġn urs
pur pose
w elt
Ġfare well
ĠEd inburgh
athe tic
advant age
st range
Ġless ons
Ġdi pl
Ġextend ing
Ġse ver
Â §
Ġthere in
Ġaccompl ish
Ġdesign s
after wards
Ġf f
ĠS ac
ĠBe cause
S m
Ġchild hood
Ġpeace ful
ĠEnglish man
Ġmay be
Ġinc ap
Ġd amp
Ġsail or
Ġperiod s
Ġrel uct
Ġtra gedy
ĠProtest ant
Ġgu ilt
Ġhand kerchief
athe mat
Ġcl osing
Ġash ore
ĠCarol ina
ĠH ung
ber y
Ġfl ashed
Ġord in
Ġhung er
." --_
Ġconqu ered
Ġlast ed
ne ed
l ater
Ġper ple
Ġeas ier
Ġwa x
Ġcan al
b od
Ġdram atic
Ġtr ump
ubl ished
Ġc rest
fic ial
Ġabsor bed
Ġadd s
Ġarg uments
Ġed ges
ĠG reg
ĠTur ks
m id
b i
Ġbus h
Ġcons picuous
ĠH a
OR E
is ons
st ances
ĠAr m
IS S
Ġne ut
Ġtem ples
Ġst uck
E urope
c it
ĠM ax
Ġbus hes
Ġheaven ly
att empt
. |
Ġnew ly
Ġlo aded
Ġall e
Ġconf ession
Ġr ice
Ġhe ed
Ġchim ney
pon se
s ense
Ġres ign
ĠDep artment
Ġcur se
Ġvent ured
Ġlin en
Ġw ool
iz z
ke l
ĠCam bridge
Ġh olid
Ġinj ured
ci an
ab ited
Ġcorrespond ing
Ġwar ned
d ale
Ġfront ier
Ġpain ter
ATC AC
Ġspr ings
Ġfro st
Ġinc ons
AC H
Ġattract ive
ĠG ospel
Ġcomm end
Ġmon ument
Ġinqu ire
E m
Ġ7 9
y a
Ġmess enger
ie ves
Ġbreat hing
P oor
Ġinv al
ĠBur g
Ġrecoll ect
ip h
Ġf isher
Ġpre acher
br own
circumst ances
all ing
ĠX II
Ġband s
Ġs ou
ĠF am
Ġde emed
) :
Ġven geance
AAG CC
Ġk id
An y
h istory
ĠL am
comfort able
ĠR ight
al ty
Ġsuper st
vent h
T O
min ster
ĠIm perial
cast le
W as
Ġdiffe rences
Ġobtain ing
Ġ14 0
Ġa fore
Ġrepresent ative
Ġcertain ty
Ġcl am
Ġad apted
Ġwitness es
Ġ9 5
Ġbell s
Ġart istic
Ġcol onel
Ġs ink
ant on
Ġun l
h usband
uls ion
Ġk a
ult ural
âĢľ _
Ġnewsp apers
Ġup wards
Ġconce ive
Ġbo ast
gener ally
Ġ1 15
Ġac ute
Ġf ib
se par
le ans
Ġam used
Ġr ings
ĠB arn
ACC AC
Ġsun set
Ġve ins
Ġinter pre
act ions
Ġcalm ly
AG ATG
Ġar ist
cher s
TT CCC
Ġofficial s
Ġcommand ing
Ġconf essed
Ġpatter n
TT TAG
Ġhe els
P T
Ġno b
W est
ĠL uther
h al
ph ys
it ia
or um
ĠB all
Ġ8 1
IC AL
Ġcorrespond ence
Ġdeal ing
even ing
Ġsp here
Ġmeant ime
Î ³
um bling
ĠBo ard
H ar
d anger
AT AAAA
ĠR ail
Y e
Ġclim b
Ġsk ull
ed uc
ĠW ild
Ġm ines
Ġr ows
Ġt on
dist ance
Ġres ent
Ġto il
St ates
st ory
vers ed
Ġal armed
Ġremind ed
D es
Ġno bles
ĠServ ice
Ġst olen
Ġj oke
Ġmis fortune
á½ ·
n i
ĠArch ive
Ġxx x
> .</
iver ing
Ġprop osition
Ġdisapp ointment
ĠCom mon
Ġvol s
ĠR oy
Ġ8 3
Ġun just
Ġne phew
Ġir res
c amp
imp se
sh ot
Ġaccord ance
~ ,
Ġhe ir
GG GC
Ġgen us
Ġ8 4
st ream
Ġresembl ance
con cl
Ġsc reen
ĠCl are
ĠBet ty
Ġpress ing
Ġdisg ust
Ġown ed
Ġvic inity
Ġinvestig ation
em pl
bl ue
Ġrecogn ition
Ġ1 12
Ġt id
Ġspe cially
ou bled
ict ure
se em
Ġd ated
Ġh iding
Ġprof essor
sec ret
u zz
Brit ish
ol ated
Ġprinci p
ĠCh apter
Ġr am
Ġrece ipt
g all
ĠN ext
it us
ĠPro du
Ġdr ama
ĠWilliam s
ĠU p
Ġst able
Ġmur dered
ut or
ant y
Ġwh irl
az ing
m ic
Ġillustr ation
Ġabrupt ly
pher d
Ġw alks
Th ose
Ġn a
Ġflo ating
e es
ĠCÃ¦ sar
Ġf ox
Ġabund ance
Ġcirc ular
i astic
Ġancest ors
Ġof t
Ġdisp ute
ĠG RE
ad j
Ġch ronic
Ġ8 2
AAGG C
Ġassoci ation
rid ay
Ġwild erness
Ġsurpr ising
Ġobsc ure
Ġrepro ach
opp ort
G TC
boy s
return ed
Ġdescri bes
enn es
Ġman s
Ġadv ancing
Ġb ust
Ġinc ome
ĠC ra
Ġn om
Ġquant ities
Ġb arn
Ġ8 8
Ġknight s
consider able
Ġs que
od ge
el a
l ate
Ġtender ness
on et
Ġl ords
Ġam using
Ġtrave ller
gl as
ĠCap t
Ġem inent
s oul
Ġst ole
Ġrest ore
ĠH and
ĠP ictures
ĠH as
aw k
am ph
ĠFl or
f urther
Ġrec alled
I AL
Ġwra pped
ink led
ĠC f
Ġobey ed
ĠLaw rence
Ġvan ity
Ġlie utenant
Ġmar gin
ĠScot ch
gg y
ir g
Ġprodu cing
ĠR ow
Ġble w
ĠWhe ther
ark s
ul ent
Th ough
g ence
Ġar row
Ġres erved
Col onel
Ġlangu ages
Ġsus pended
Î¿ Î½
osp ital
Ġcol oured
B Y
udd y
Ġsignific ance
l aid
sp o
ĠG ran
Ġsmo king
ĠV ar
Ġc f
Ġem otions
E NN
Ġf ence
Ġor ange
cept ible
ill ings
Ġpre tended
Ġsad ly
Ġexerc ised
u en
cept ions
ĠJust ice
Ġproble ms
Ġcon verted
ĠS i
Ġt ap
ĠM E
le ave
Ġind isp
el se
Ġch airs
Ġg ig
ĠP op
Ġwand ered
c oh
[ _
Ġman agement
Ġcon sec
Ġt act
app re
Ġsecond s
ĠAnt on
ĠS n
Ġprofession al
TGG AG
H istory
Ġstat ements
Ġco in
Ġans wers
Ġprop ose
ĠDan iel
Ġyield ed
Ġpun ish
Ġcoll e
ĠT aylor
Ġextra vag
Ġcon greg
Ġro d
Ġsh ared
i pper
or r
ĠLibr ary
er ted
ĠCon n
Ġmiss ing
ĠT R
Ġpuzz led
Ġpup ils
Ġfl ies
Ġmir ror
Ġsa ving
Ġaw kward
unt ary
How ever
ke e
Ġsh irt
Ġ9 6
Ġple asures
cra ft
ĠM ars
c as
w are
F rance
Ġsh y
Ġgu ards
Ġm ourn
F ran
Ġvers ion
Ġdif fer
ĠH an
l iter
Ġinc or
ĠMiss issippi
ĠF if
d ish
com par
Ġg ames
Ġt iss
Ġjust ified
ĠPe ace
ĠM onday
Ġeld est
un ken
Ġt ie
Ġa ug
in ning
ĠV ill
Ġqu it
it ively
ĠThe od
ĠS pring
ĠWIL LIAM
Ġt rop
ret ion
ll or
inn ers
Ġcontin ent
Ġconvey ed
Ġbox es
ĠW AR
it o
id ly
Ġpo le
Ġtra ced
s n
Ġd ug
Ġar oused
Ġle aped
st at
ad ian
Ã© t
ĠAr n
ĠH ot
Ġcar ved
Ġ1 13
Ġh ay
ĠWe re
vell ous
Ġoff ers
Ġwh it
Ġexpl os
Ġg orge
Ġo mn
........ ........
min ist
Ġfav ourable
Å «
ĠG E
Ġsc rew
he nt
Ġag ents
Ġid ol
Ger man
mar ried
Ġgar ments
Ġf og
Ġbe e
at on
pro ve
Ġcrim son
ou ri
p ath
Ġbitter ly
ne arly
gr own
ĠAlex and
ĠS oon
Ġinter val
ĠOr der
Ġpri or
Ġmechan ical
Ġd ashed
Ġcar bon
Ġmon aster
ĠC as
Ġtrust ed
Ġch ase
Ġpap a
g ic
ĠAl b
abb ath
ac ross
ĠV ic
Ġkill ing
ĠF el
act ed
Ġkn ock
Ġeconom ic
Ġsevere ly
Ġe th
ĠG ordon
d i
ĠE nd
S C
Q ue
Ġli p
ĠJ ournal
Ġjealous y
ia lect
Ġtrave lled
ĠH omer
TTGG C
Ġrock y
Ġ1 17
Ġstrange ly
Ġsome one
Ġrep ose
Ġimper ial
dist ingu
ĠS id
R o
ren ches
Hen ry
ane ously
R ich
as ily
certain ly
Ġ1 16
b ran
Ġlover s
Ġgrave ly
Ġbread th
re ve
Ġincl ude
Ġeleg ant
Ġun pleasant
ĠBr ad
Ġd re
Ġse ize
br ance
> .]</
Ġneighb ours
Ġreve rence
ot ism
Ġen su
ll s
Ġy onder
Ġf oul
p aper
ĠS ic
Ġpray ed
Ġc ub
th ony
Ġso ci
Ġrel ating
TT TGC
Ġtran qu
T S
Ġwar n
Ġs om
ig ration
Ġdiv ide
Ġadm ired
Ġadvent ures
Ġ8 6
du c
ĠY OU
um erable
Ġmur de
A NN
Ġbr ut
Ġd welt
count ered
Ġasser t
Ġin fect
il ight
Ġ1 14
Ġan alog
Ġcons pir
Ġprom ises
ĠPal ace
ot al
Ġv ap
ĠAp ost
aw are
Ġsubsequ ently
Ġsub tle
Ġcontin uous
ur able
Ġann ounce
ic ates
Ġtal ent
Ġr oused
Ġbull et
Ġfold ed
ĠA D
ĠĠĠĠĠĠĠĠĠĠĠĠĠĠĠĠĠĠĠĠĠĠĠĠĠĠĠĠĠĠĠĠ ĠĠĠĠĠĠĠĠĠ
g utenberg
Ġest imate
ĠProv idence
Char les
Ġto day
Ġd angers
ĠPortug uese
ot a
ĠT ro
Ġra w
Ġrecommend ed
Ġwithdra w
Ġb ars
Ġwork ers
m ad
a unt
Ġfl av
ĠMass achusetts
l ost
Ġthir teen
oy s
ĠB R
ĠSh ould
Ġim ages
Ġsub mitted
Ġdep rived
AA AGC
Ġindif ference
Ġsu cc
re ign
Ġ9 2
Ġfac ed
Ġpract ised
ort ing
col oured
aught y
Ġridic ulous
Ġl az
Ġheart ily
Ġexperi ences
Ġwor ry
Ġsymp ath
Ġcont ented
Ġ ix
Ġwarm th
Ġquestion ed
Al though
Ġcr imes
Ġab oard
Ġn it
ĠSt one
Ġexha ust
int on
M ed
l ab
r ained
Ġbe nd
ĠT ill
por ation
ĠB our
Ġm ast
Ġl unch
Ġsol ic
Ġver d
ĠBl ue
ĠF aith
Ġappar atus
Ġlux ury
Ġmar vel
ĠConf eder
ung s
St ill
Ġ8 7
Ġfl owing
AT CCC
Ġleis ure
V ol
Ġavo ided
Î ´
Ġab ode
ĠM aur
Ġmeet ings
Ġsa iling
Ġhero ic
Ġacknow ledge
i j
Ġwor sh
ere r
TTG CC
Ġjust ly
Ġliqu or
Ġeste em
G reek
f aces
ĠMar quis
; [
Ġdra g
experi ence
ĠH ope
P age
D ear
Ġattribut ed
s uddenly
Ġbe er
ĠC OL
u ced
âĢĲ âĢĲ
Ġblood y
appe ars
Ġpist ol
Ġl antern
Ġfan cied
ĠP om
Ġstret ch
____ ____
Ġp ush
ĠX III
l ength
ra h
AT AAC
c ivil
Ġ8 9
el ed
_ .âĢĿ
Ġimp osed
c over
oll o
Ġj ury
Ġch uck
L ife
t i
Ġg am
Ġinvari ably
ĠL ang
sy stem
Ġprodu cts
Ġwe eping
Ġcorn ers
Ġform idable
interest ing
Ġgra vity
> .
ĠNever theless
Ġfa ire
Ġsick ness
Ġfun ctions
Ġbo iled
Ġw reck
Ġty ran
Ġde alt
arent ly
Ġch ances
Ġbel t
Ġearth ly
Ġw ont
âĶĢâĶĢâĶĢâĶĢ âĶĢâĶĢ
Y S
rem ember
Ġhe s
Ġneed le
Ġbest owed
Ġcare less
Ġc av
ĠR oss
Ġout line
Ġd ru
m agn
W he
Ġelabor ate
ĠTest ament
Ġbu ck
Ġfun ny
Ġend less
ol ence
Ġenc ouraged
the l
Ã °
ĠT ower
m und
up reme
Ġass urance
ĠK ate
u its
p a
AA ATC
Ġpup il
Ġpur sue
Ġpet ition
ĠSim on
Ġm ater
Ġthr ong
ab ri
ĠS P
ĠNe ither
Ġlat est
Ġpeop les
Ġinv isible
Ġch annel
ĠT en
ĠAn na
Ġwitness ed
in ety
Ġpar liament
Ġfur ious
il ful
Ġsim pl
f ine
Ġ9 7
AC TCC
an x
Ġf ile
d iction
Ġass isted
Ġdise ases
Ġresc ue
it ations
Ġp all
d ress
ĠCred its
Ġ9 9
ATION S
ĠAs sembly
ĠB L
Ġrespond ed
Ġse lection
re ached
AG AAC
Ġimp art
Th ree
Ġperpet ual
id ences
ke ys
Ġde ceived
ĠT ar
sh ad
f urn
Ġhero es
Ġvict ims
Ġmeas ured
Ġplun ged
l iving
Ġde arest
Ġapp le
c ry
Ġcar ries
" ;
it imate
Ġ1 19
qu es
Ġlong ing
Ġcommand s
ĠH ug
Î ¸
Ġdri ver
On ce
Ġ9 3
Ġcur tain
ex cl
Ġser ving
Ġ1 18
Ġdes erve
ĠD ur
Ġcruel ty
Ch urch
ĠAlf red
ĠIn n
OO T
ĠBab ylon
Ġd at
f ly
Ġ10 5
Ġcon ject
ft s
Ġwe pt
m atic
ĠRel ig
ĠC ond
int rodu
ĠAd ams
c ow
osop hy
ĠA ch
Ġf ug
Ġopen ly
Ġvar ieties
Ġbatter y
ĠRo ad
ĠBr idge
Ġtrembl ed
Ġw oe
cl oth
et ies
Ġdoc uments
en ch
Ġ9 4
ĠS ay
in ine
ent ered
ER N
Ġbut t
? _
ĠB ird
he tic
Ġpr ices
âĢĿ --
ck er
O ut
Ġcon grat
Ġ9 1
AA TTC
ĠS everal
Ġmon ks
Ġl ink
Ġpost s
h istor
Ġprec aut
add ed
Ġspeed ily
ĠSt and
Ġres ponse
Ġdream ed
ĠBar bar
olute ly
D R
ĠC ould
Ġ9 8
Ġvig or
Ġtra p
Ġhal ted
ĠWh it
Ġshould n
m iles
ĠĠĠĠĠĠĠĠĠĠĠĠĠĠĠĠĠĠĠĠĠĠĠĠĠĠĠĠĠĠĠĠ ĠĠĠĠĠĠĠĠ
ac cept
cons idered
Ġprob ability
Ġj e
h air
Ġgo in
Ġint ent
under stood
Ġw ander
n ine
Ġall eg
Ġspe ar
un ks
W ould
ĠAb raham
Ġscar let
m its
Ġpe ar
begin ning
_ {
li er
con vers
Ġdam age
ival ent
ell ed
Ġfortun es
un ted
ĠT reat
ac ent
Ġben ch
l atter
ĠB ig
un a
poss ession
Ġimmort al
Ġequip ment
our ney
Ġw ag
ĠM as
OM E
Ġconcl ude
Ġdoctr ines
f illed
Ġn ay
ĠW ork
TATT G
it ious
Ġev olution
ĠL ast
Ġf etch
Ġm orn
Ġjew els
Ġp iano
Ġpol ic
ĠH ist
Ġdisc ern
Ġad vers
Ġrepresent ing
ĠF inally
Ġasser ted
Ġsp ared
AC TGC
ĠNich olas
Ġv ow
ĠTex as
Ġch allen
ex pected
ke pt
see ing
in ently
it ating
ach t
ĠPl ato
ĠPenn sylvania
un less
c old
Ġe tern
Ġhope less
Ġfle e
ans as
Ġbetray ed
Ġcr is
ĠG rey
fe ar
Ġcomp are
âĢĿ âĢĶ
Ġso ot
Ġm ock
ĠP a
Ġappropri ate
t ro
Ġgod dess
Ġen light
g ra
Ġproc ure
ĠE lect
S ince
Ġm amma
Ġgl impse
ĠW ard
Ġland scape
Ġappro ved
imp ossible
Ġwh ist
Ġdis order
Ġfl ushed
b right
Ġwe ep
Ġr ushing
ĠSo cial
Ġsh o
Ġphilosop her
Ġpassion ate
Ġre ct
Ġsto pping
L ie
ĠS el
Ġinvent ed
ĠR et
pl an
et ry
ĠA y
Ġpr ime
Ġrequ is
ON G
Ġpart ial
AA AGG
ĠConstant inople
Ġsc andal
ĠF ederal
influ ence
Ġ il
h ig
Ġwh oles
Ġbatt les
Ġste al
last ing
c ord
u ate
Ġun s
ĠSt ar
n el
ink le
fashion ed
ĠP E
Th om
Ġg ospel
Ġpartic ulars
Ġmoon light
ĠO ffic
Ġwealth y
ĠV is
RE D
Ġdecl ined
cont ent
Ġsepar ation
TG AGG
Ġrepresent ation
Ġen lar
ĠF re
Ġreject ed
Ġca res
Ġcr ushed
he alth
ribut ion
s or
Ġlear nt
Ġprocess es
ĠĠĠĠĠĠĠĠĠĠĠĠĠĠĠĠĠĠĠĠĠĠĠĠĠĠĠĠĠĠĠĠ ĠĠĠĠĠĠĠĠĠĠ
ĠFrancis co
ud son
ĠP itt
Ġd un
Ġart ists
Ġpro se
Ġf aded
! âĢĶ
ay ne
pe ace
Ġst ages
Ġs i
Ġfill ing
Ġwit ch
ac re
le v
se ud
Nor th
pp ers
Ġjud ged
ver b
R em
om a
Ġto wers
Ġsu ng
im mer
oc ity
B el
Ġex pend
AT ATC
ĠL ane
ĠS anta
old s
Ġsa uce
op l
ĠB ol
ĠT al
st ones
Ġhapp ily
it ic
S ch
ĠL ind
Ġdesp ite
Ġp ulp
j e
Ġfac ing
Ġe h
Ġamid st
U nder
im er
Ġal as
ĠHer bert
Ġh aue
ony m
Ġc ash
Ġinher it
Ġheight s
ange l
Ġte am
Ġm axim
se ems
be yond
ĠL at
Ġche mical
st ock
ĠS em
ĠG ive
Ġ ×
gentle man
Ġsix th
Ġhum or
Ġold est
Ġrel ax
Ġse ctions
es ar
Ġins piration
on i
Ġw aved
Ġglo be
Ġsh rew
Ġrest less
Ġbe ef
Ġdish on
Ġappe aring
Ġglass es
Ġaccur ate
Ġgall ery
sh ow
Ġadop t
Ġw ilt
Aug ust
Ġback ward
Ġpl uck
Ġw oo
Ġsu ited
hel p
Ġpun ished
Ġshall ow
Ġguard ed
Ġun necessary
C ertainly
ann a
Ġvalley s
peri od
AM ES
Ġforb idden
M er
Ġinterfe re
Ġto m
ip ed
Ġaffect ions
ild a
ug s
Ġprivile ges
Ġbrief ly
Ġstrugg ling
h ole
Ġprodu ces
occup ied
âĢķâĢķ âĢķâĢķ
Ġlect ure
Ġinv asion
im o
dire ction
p un
u be
at um
Ġneighbor hood
ĠF RAN
AC ATT
Å ¿
Ġcontin ues
Ġplan et
Ġcoll ar
Ġall ies
g am
Ġc um
ne ither
AT AAG
Ġpur ity
re ll
------ -+
Ġantiqu ity
Ġwar rant
Ġin k
Ġst amp
ĠC AR
o il
ud s
B E
L ou
e cess
c re
Ġd umb
m ot
Ġaw akened
or ia
Ġb ind
ĠJer ry
ĠF ire
Ġw ret
pop ular
l am
ic ro
Ġaff irm
Ġju ice
Ġfort ress
exp ression
Ġf ant
ct ic
Ġfl ock
Ġbold ly
EN S
ps y
the w
ag s
ĠO liver
Ġd ies
M ENT
Ġtor ment
Ġpro dig
Ġemb race
th irty
ĠC ivil
an che
ol ves
ĠI ng
er on
oo ped
Ġbelie ving
Ġeconom y
Ġfund amental
ting u
Ġper ish
Ġpl anned
hes is
Ġanx iously
.= --
Ġsc ra
idel ity
Ġcompl iment
_ âĢĶ
Ġlod ge
st o
Ġ10 4
Ġflu id
con cer
Ã ī
z er
Ġcrown ed
jo ined
n est
Ġtribut e
Ġw olf
ig ent
Ġap olog
oc ation
RE E
Ġround ed
Ġpart ing
RO W
Ġperson ality
f at
F rank
Ġfinan cial
Ġevery one
ec il
P h
in ous
gu ish
Ġbe es
Ġhar bour
ĠCard inal
ĠL I
ĠB ad
Ġman ager
ĠH ER
ĠCount ess
Ġse qu
op ened
Ġcontro vers
ag ers
Ġwh ip
ĠM att
ĠIn stead
Ġlet ting
Ġar rows
Ġrebell ion
Ġ12 5
Ġregular ly
Ġtrans ferred
Ġw i
Ġc ert
L ike
Ġimpat ient
nor th
b ank
c ases
he ar
Ġri b
ĠJ uan
Ġglad ly
Ġall iance
Ġdoub ts
Ġpost ed
ĠN E
Ġto re
Ġp uff
Ġj uris
r Ã©
Par is
be c
Ġn ost
ĠCom mons
ple nd
d ream
AG AGC
Ġe man
a um
conc ern
ĠB ow
Ġc ars
s leep
C he
Ġrequire ments
ict ory
du ed
Ġaw oke
Ġemb ark
ĠL ar
ĠZ e
Ġhes itation
ĠP ress
Ġspeak er
Ġsuffer ings
Ġcur iously
Ġb ills
ubl in
estab lished
m aterial
á ¹
Ġter med
Ġoccur rence
Ġwe lf
TT T
oir s
success ful
ĠL anc
Ġbul k
Ġthe r
orig inal
âĢĶâĢĶ âĢĿ
Ġvis iting
ĠL ab
Ġun common
Ġtrave llers
Ġresembl ing
Ġvol can
Ġ10 1
ĠOr leans
Ġwelf are
Ġdisc ourse
TTGG G
Ġm ol
Ġany way
Ġins cription
ut t
Ġfount ain
ĠP H
li est
Ġsearch ing
ĠR ad
Ġexpress ions
Ġwith drew
Ġsmall est
Ġfier y
B er
Ġele vation
Ġcan vas
s light
Ġj ar
aw l
swe et
L ittle
Ġas ks
Ġh ol
ĠC rom
ATG GG
H el
d ie
l ived
ĠS oc
Ġhop ing
Ġm oss
ĠN ay
Ġdr owned
Ġproper ties
ro ck
ĠG R
TC G
AR K
Ġluck y
Ġg oss
ĠJ os
TC TCC
m ag
ĠL icense
b read
Ġback ground
Ġsh ops
Ġsw ords
Ġre leased
Ġproc ured
Ġhar vest
is le
= .
Ġd ates
Ġmother s
Ġdel icious
Ġintrodu ce
TT TAC
ĠS ing
are rs
oll en
Ġmer its
ĠĠĠĠĠĠĠĠĠĠĠĠĠĠĠĠĠĠĠĠĠĠĠĠĠĠĠĠĠĠĠĠ ĠĠĠĠĠĠĠĠĠĠĠĠ
Ġyouth ful
Ġte legraph
ĠDu chess
Ġv n
Ġtot ally
ĠScott ish
Ġde w
Ġsa ils
Ġcharacter istics
Ġarchitect ure
we et
Ġ10 2
great er
umber land
Ġsex ual
Ġacc us
ure au
ĠE li
umin ous
ĠBra h
t ry
Ġchar ms
Ġrevel ation
Ġrespect ive
Ġgl owing
Ġfra gr
Ġfac ulty
m ach
Ġdecl aration
Z o
fl ing
Ġen closed
ĠBr other
Ġcl er
Ġ10 3
ĠW at
_ ."
ist en
Ġad equ
udd ing
Ġh aul
Ġsust ained
. (
el ia
th ou
Ġn onsense
Ġv ag
Ġsuccess fully
Ġs inking
Ġendeav our
Ġneighb ouring
m ort
Ġa we
Ġpartic ip
ex istence
ĠColumb ia
J ames
Ġinflu ences
ĠT imes
Ġdra ught
Ġtro op
Ġ5 00
Ġqu aint
sl ow
Ġpo ckets
Ġstir ring
ar ched
ĠP il
ak a
Ġhy pot
# ,
Ġbreat hed
Ġscul pt
Ġcre ate
Ġli kes
ĠAssoci ation
ĠS cience
M eanwhile
ĠPet ers
ans wer
Ġtra ffic
Ġball s
Ġar ray
ett le
m ine
ĠCor ps
Ġmem ories
al i
Ġpart ner
in ian
ste in
Ġdepend ent
ide a
Ġar bit
Ġoper a
Ġbron ze
Ġbl own
Ġt urb
bun al
ey e
Ġe cclesiastical
Ġpossess es
c up
Ġsun light
Ġser pent
Ġrequ ested
Ġapp oint
Ġacqu ire
Ġappet ite
Ġhorn s
long er
Ġtri fle
Ġremo val
Ġf el
sk y
Ġperson ally
Ġmor ality
Ġcat hedral
part s
Ġrepl ace
Ġent ers
Ġhere after
Ġre action
Ġabst ract
Ġcris is
AGGG G
ĠC all
. :
Ġimpress ions
cle ar
ĠC ook
Ġl ent
Ġin ex
Ġgreat ness
Ġproceed s
Ġtort ure
Ġher d
Ġess entially
Ġm arsh
ĠMc C
ĠK n
Ġass ass
Ġup stairs
ON E
sk in
Ġins pect
Ġhy dro
Ġde af
ri pp
Ġsav ages
Ġprop osal
Ġtr im
Ġth ief
AG AAAA
ĠC are
H ist
\ '
ess ie
Ġtele phone
P eter
ĠW omen
Ġsub ord
ot le
ĠPro p
Ġbed room
Ġcar pet
vent ure
arm ing
os ph
Ġwind ing
Ġche ese
em oiselle
or ic
T e
Ġtw isted
S pan
Ġliter ally
Ġreason ing
Ġ10 7
M ac
st art
ĠF itz
Ġst er
var ious
Ġsens itive
wh atever
M ost
OC K
Ġbl owing
Ġjud ic
Ġb omb
ĠI ND
Ġag itation
Ġtax es
Ġveget able
m or
Ġobser ving
ough s
ĠE ss
m itting
Mad ame
pass ing
Ġfran cs
ĠMex ican
is se
streng th
ce iving
ne ath
Ġsc enery
.âĢĻ âĢĿ
Ġfor s
AG TAA
pie ces
F ort
Ġend ing
15 0
Ġcir cles
Ġopport unities
Ġan alysis
Ġent ry
Ġwish ing
M in
at en
ĠSt ud
Ġgreet ed
C ount
u art
um ble
ick et
Ġpor ch
Ġche cked
Ġsuccess ive
Ġ10 8
ken ess
exp ress
ĠP hys
ĠM A
Ġpur se
Ġunder take
Ġ2 50
IN S
Ġm m
Ġviol ently
Ġ10 6
Ġlow ered
Ġb ishops
v ision
Ġdisci ples
is en
Ġgas ped
TC TTC
Ġenc ounter
Ġtheir s
ĠĠĠĠĠĠĠĠĠĠĠĠĠĠĠĠĠĠĠĠĠĠĠĠĠĠĠĠĠĠĠĠ ĠĠĠĠĠĠĠĠĠĠĠĠĠ
IT ED
Se pt
Ġst ately
h orses
estab lish
Ġinterpret ation
em ark
Ġrel atives
ĠD ire
Ġmean while
Ġch ains
Ġl ace
Ġj ail
Ġsur geon
Ġev ils
Ġn avy
think ing
Ġfr own
ig an
Ġve h
re pe
head s
r usted
Ġmon ot
Ġgu essed
ĠCh ance
Wh ich
C ont
pass ion
do ing
Ġcontribut ed
resh old
Ġd uly
Ġtre asures
omet er
le e
Ġr att
Ġtum ult
Ġexpect ing
Ġincap able
Ġprim ary
ut ies
Ġcompl ain
Ġstrong est
er ior
Ġsecret ly
ri v
Ġfro zen
Ġspect acle
R U
AG AGG
fortun ately
G L
Ġwarri or
H ad
ĠPr ice
Ġmar vellous
fin ished
Ġmir acle
ens ible
Ġdes erved
obser ved
Ġ19 14
Ġdec ree
ĠSar ah
Ġfe eding
ĠH IS
Ġvary ing
ĠP el
TAT CC
ĠMoh ammed
i h
Ġto ps
h ours
Ġmotion less
of fin
Ġwas ted
Ġtyp ical
ĠP O
r ish
ins ula
ĠK now
Ġbow l
famil iar
Ġen vy
el son
Ġd iet
interest ed
Ġtrad itions
ĠW oman
ĠCh ap
Ġextrem ity
in ement
Ġle nd
od ox
Ġshout ing
Ġcorrect ed
ĠTh ird
Ġinn umerable
Ġmurm ur
ĠN ote
ĠC atherine
Ġt ing
Ġob viously
Ġamaz ement
Ġprot ested
Ġvel vet
A y
c rit
ĠB ey
pers ons
ĠW ord
Ġthreat ening
Ġtempt ation
Ġprejud ice
ĠPier re
ĠC ow
Ġen countered
Ġall ied
B esides
er ving
ave ment
Ġla wn
Ġsol itude
agg age
Ġto ols
Ġendeav oured
i age
Ġbar ren
Ġtrad emark
Ġ 00
Ġr ational
u f
Ġl ots
Ġcountry men
wind ow
n amed
Ġrel ate
Ġdis may
ĠVi enna
ĠU pper
Ġsh aken
Ġ4 00
Ġk in
Ġrel ieve
Ġf anc
Ġright ly
ĠHow ard
Ġident ical
rem ained
Ġillustr ations
Ġ10 9
Ġdef ined
w ide
Ġser mon
Ġmad am
ĠLie ut
Ġpun ct
ĠR ou
ĠR am
Ġc ove
Ġdest iny
Î¿ ÏĤ
K e
Ġt ast
Ġst am
ci le
Ġfulf il
se ver
oun cing
ĠF riday
Ġprov iding
Ġt renches
Ġow ed
bl est
orn s
á½ ¶
ĠAn gel
Ġdischar ged
Acc ording
Ġrecoll ection
Ġsh ine
ir ie
Ġemb ro
Ġin conven
ist ered
Ġdec ent
ATT TG
Ġ1 11
Ġmel ted
ĠP ower
Ġneighb ors
ĠĠĠĠĠĠĠĠĠĠĠĠĠĠĠĠĠĠĠĠĠĠĠĠĠĠĠĠĠĠĠĠ ĠĠĠĠĠĠĠĠĠĠĠ
Ġshe ets
Ar t
ĠKing dom
ject ed
Ġfort night
ĠAustral ia
Ġt ents
ĠD al
Ġpack ed
Ġfatig ue
Ġsolemn ly
Ġwar fare
bel ong
Ġorn aments
Ġric hes
ĠBr un
Ġcourt esy
EN E
ra ised
Ġlad s
d og
Ġheart y
Ġpre ached
p ay
Ġbod ily
Ġcal am
Ġen qu
l augh
Ġbreat he
y d
ĠDou glas
f al
ĠC ru
Ġtal ents
Ġe c
Ġdismiss ed
Ġdec ay
Ġsa ith
Ġheat hen
Ġpl ague
Ġreal m
Ġp int
Ġmon k
ĠM ack
Ġde fic
v ial
ring ton
ic hel
ro ve
bo ats
i hil
it ably
Ġappreci ate
ĠM oore
ĠBern ard
ĠMiss ion
ĠSqu are
AT AGC
Ġcost ume
Ġle ap
ol er
Ġspread ing
prep ared
Ġess ence
ber ts
Ġp enny
Ġrese arch
P aul
Ġsn ake
Ġer a
Ġru ff
Ġst y
Ġtor rent
ĠA st
Ġwh ither
Ġbo ards
d ers
Ġelev ated
br ing
ĠLord s
arch y
ĠFran ces
Ġcook ing
din and
sp ir
OR GE
Ġcultiv ation
Ġtempt ed
ĠAll en
Ġspo il
ĠS ultan
ĠDor othy
Ġim itation
ĠR and
P ort
Ġloud ly
in ois
ĠP ed
ĠF al
Ġrejo ined
Ġst icks
as much
Ġcaut ion
Ġres ort
ĠSol omon
ĠN avy
Ġpro ves
alog ue
ĠJ on
Ind ian
ĠSav iour
y ers
Ġtw ilight
16 0
Ġceremon ies
Ġl ur
Ġmon ster
Ġadm ission
Ġsub stances
Ġclot hed
S ay
p ine
is ive
Ġb ury
Ġbene f
Ġpeas ants
Ġinc idents
Ġle agues
field s
Ġsevent h
Ġpull ing
TCC TG
ĠBr and
Ġhoriz ont
ĠCOM P
are n
Ġhon ourable
Ġre lease
Ġsuccess or
ke eping
Ġf itting
Ġen cl
ove l
Ġprint ing
V er
Ġfault s
ĠAn thony
ol ed
ile y
ĠN one
ell o
tern ational
iter ranean
ĠÎº Î±
m ates
U pon
g race
Ġc reed
Ġfl ank
in als
st ruct
Ġmar ching
ble m
Ġpol ished
od a
Ġbr isk
ĠL amb
Ġfoot steps
isher s
Ġpot atoes
al ted
Ġw aving
Ġpersu ade
Ġs its
C oll
Ġm es
Ġback s
Ġcompl aint
Ġper for
Ġnob ility
W or
ri ers
ĠC irc
Ġsk ins
h ire
Ï ĩ
Ġcas ual
ĠGil bert
b ig
= '
Ġ---- ,
Ġpl um
ĠHor ace
Ġn our
am mar
disc overed
ple ased
ĠGu y
ĠF ull
Ġad joining
Ġpre ach
pe ction
j oice
Ġbe nding
Ġrepresent atives
Ġt une
ĠCh amber
Ġqu ot
Ġinnoc ence
Ġd anced
sp read
Ġexhib it
Ġind ustrial
---- +
Ġc ake
up iter
coh ol
stra ight
Ġaffection ate
Ġdom ain
Ġexc iting
ge red
he nded
Ġsecret s
Pro f
Ġwid th
fall en
Ġal ien
Ġbro od
Ġpossess ions
ĠSt ory
dra wn
got ten
á ¸
Ġed itions
p in
Ġevent ually
Ġun willing
ans wered
Ġto oth
Ġ19 15
itz er
ĠĠĠĠĠĠĠĠĠĠĠĠĠĠĠĠĠĠĠĠĠĠĠĠĠĠĠĠĠĠĠĠ ĠĠĠĠĠĠĠĠĠĠĠĠĠĠĠ
I bid
Ġgig antic
ic us
Ġb onds
Ġest ates
Ġcontem porary
l an
Ġá¼ Ĳ
E X
Ġneg ative
b orne
act ly
Ġrece ives
T w
Ġ13 5
Ġmission ary
Ġcup s
Ġfert ile
Un ited
inst ead
ĠN ile
Ġmad ness
ĠIllustr ated
R ev
Ġfavor able
un ter
Ġref und
Ġdest ro
Ġcivil ized
ĠNap les
Ġto w
AM P
pro ved
unt arily
ĠA G
ON S
IN T
ĠC ass
Ġbare ly
S am
Ġdoub ted
r in
ĠIsa ac
w alk
tem per
Ġborrow ed
sp n
Ġnegro es
Ġreg iments
Ï Ĩ
ĠF in
h ung
Ġwork men
Ġdis hes
get ting
Ġdis aster
N ay
mun ition
ION S
Ġrul ed
ĠMon te
B ur
g al
S outh
Ġcomm od
v ia
ar ant
Ġc ows
ĠA li
ut tered
ĠChe ster
em en
Ġd ialect
char ge
ĠF ra
ĠSat an
Ġsh illings
ĠScript ure
ru ly
âĢĻ .
Ġan guish
ĠU r
N ext
Ġfest ival
b en
ĠM ethod
R uss
aff ord
ĠMiss ouri
------ +
ĠH ur
ĠM ade
ers ed
ick er
y ellow
Ġhun ter
Ġcomp ly
s outh
O SE
spe aking
Bl ack
cc a
ĠF ive
Ġard ent
su cceed
bird s
ĠArch bishop
Ġ á½
ĠH U
bur st
ĠC reek
gg s
IN C
Ġs am
ha ired
Ġseem ing
Ġengine er
say ing
entire ly
com ed
Gover nment
ie nd
nat ured
Ġexpect ation
Ġl ined
Ġdirect or
ĠTr ue
com pre
Ġgl ac
ĠB apt
ĠR en
ro lled
Ġb its
Ġdecl ine
Ġwhere by
relig ious
Ġes p
ĠDav is
aver n
Ġfab ric
s um
Ġcons ented
cl oud
ĠXV I
Ġre aches
Ġshrew d
Ġhistor ian
ĠCamp bell
ĠW alk
it is
ven ue
m aker
ĠL ater
ĠF ree
ic ide
Ġab use
Ġdis agreeable
P al
bro ke
che on
in cial
======== ========
ĠP oly
tow ard
if ting
T Y
ul ch
p ill
inc erity
Ġsevent een
Ġwill ingly
ir y
Ġcirc um
Ġdepos ited
Ġschol ar
Ġhide ous
Ġl ime
ĠCl ark
12 0
Ġinquir ies
ĠRus sell
Ġs oup
ĠAt t
D av
l anguage
TT ER
ĠP or
ĠD ave
ĠBe au
Ġl akes
IF E
R ed
rem ain
p ole
ĠS U
Ġstri p
ĠÎ ´
Ġdoll ar
Ġang les
Ġsignific ant
ven ant
Ġst ub
âĶĢ âĶ¼
mean ing
Ġincl udes
ĠU l
ĠJ un
P P
ĠAc ademy
ĠFrank lin
ĠRe view
Ġinv est
ĠAra bs
az ar
Ġ ,
Ġsy ll
Ġsubject ed
G ive
ĠM id
Ġra b
ol itan
Ġcl asped
Ġch ill
TT TGG
Ġre de
Ġsuperior ity
ĠW is
ink ling
Ġlord ship
ra il
Ġl icense
Ġins ist
isc op
out side
ĠS oph
Ġequ ivalent
Ġex h
v ice
ict s
ĠS uddenly
_ ,âĢĿ
Ġshe er
Ġwh ites
TG AAG
Ġadorn ed
ex pect
Ġbeaut ifully
pres ence
ĠHor se
ĠI mp
En ter
Ġd azz
Ġad ult
Ġlad der
ap arte
Ġcorp se
th odox
AA ACC
u pt
Ġt read
aw a
Ġgrand mother
ĠO p
app ointed
p ence
s at
. ~
b one
Ġ12 3
ribut ed
Ġcon ference
Ġadv ise
offic ers
Ġland lord
ol o
s ound
urs day
Ġg y
Ġthem e
Ġsp orts
pro p
AG CCC
Ġune asy
au de
Ġpe pper
.' "
t ail
all e
ĠWest minster
Ã© n
Ġcommun icated
ĠG entle
hold ing
Ġcl ung
li ber
Ġwas hing
ou st
Ġeloqu ence
ĠWh atever
u ing
ĠH alf
Ġjust ify
st ar
Ġexpl o
Ġmo ves
W ar
ĠB alt
Ġun worthy
Ġincl ination
fl owers
Ġhelp ing
Ġcor rid
ĠMur ray
be aring
Ġlong ed
en joy
Ġse mi
Ġpro gram
ign ific
P at
ch i
Ġcliff s
des p
Ġpreced ed
ight s
Ġl ane
ĠH udson
Ġbl ade
sh op
Ġrest s
hand ed
ĠS abbath
ĠB attle
Ġspe eches
happ iness
fact ory
ĠCount ry
ĠWor ks
Ġret orted
ĠH o
ob ed
ĠW ords
Ġf oes
Ġyour selves
Ġcon form
ĠN ick
ĠP olly
au g
Ġre verse
Ġexcl usively
Ġ12 1
Ġ12 2
ĠG ib
Ġprocl aimed
ING S
ac compl
ĠMil ton
Ġm os
Ġgle am
Ġinstruct ed
b as
E nd
ens er
on ial
S im
TG TAG
Ġpre aching
ol ics
Ġcig ar
ĠBra z
Ġreven ue
ann ah
ĠR a
t in
Ġdr um
TC ATT
ĠL uke
AG ATT
ĠSh ort
ar g
Ġco inc
ĠH istor
Ġs ession
Ġpen cil
C ons
Ġex changed
Ġast ron
oura ging
Ġcomp ound
ĠE arly
Ġhe red
stit uted
ĠRich mond
Ġinh abited
ĠY ear
opport unity
ut able
Ġx i
ĠH AR
Ġfact ory
Ġenjoy ing
or ph
sy mp
ĠBe aut
under standing
ĠEll en
ĠM u
Ġstri fe
Ġqu ote
add y
ĠG ene
Ġbene vol
Ġhast y
Ġin justice
S uddenly
Ġmag azine
Ġ12 4
Pres ident
ine a
H y
Ġham mer
ern al
ues day
Ġrub bed
w ine
b attle
particular ly
Ġbl ast
sequ ently
Ġcou ch
Ġcompass ion
et he
ver n
ĠC ub
Ġvolunte ers
ch amber
Ġsh orter
Ġo v
Ġfarm ers
y ards
sa fe
ĠBe at
An n
ĠD oes
s pr
Ġult imate
war f
Ġor ch
Ġ12 9
Ġsk et
ĠLet ter
Ġcirc uit
Ġdesir ous
Ġsm iles
c rowd
ĠVen us
Ġse asons
enem y
ĠM erc
Ġse ct
convers ation
es ley
Ġascend ed
Ġen l
ĠAr men
Ġlim b
Ġc os
Ġreve al
if ice
Ġdet ailed
Ġbar gain
Pr ince
OU ND
Ġc rop
ĠWith in
IR ST
te nder
ĠHen ri
AT A
hens ive
Ġin cess
Ġde leg
wor king
Ġoffe nded
de g
ĠGold en
Ġsus p
Ġo mitted
Ġmod ified
Ġse q
ie ving
Ġ12 8
Ġext ension
Ġri pe
g ency
Ġbur ial
ĠR ue
Ġcustom ary
Ġreb els
Ġsw ore
atter y
ĠAb bey
Ġschol ars
o ons
Ġep och
ĠI d
Ch apter
Ġst ove
Ġbr ains
Ġca using
vel ope
Ġattend ing
ed nes
Ġnow here
ig o
Ġ14 5
ĠST ART
Ġsurround ings
ĠM un
Ġrob bed
ĠD ublin
ĠS ab
Ġstud ying
Ġdo ctors
L ong
o at
pe culiar
iv a
Ġbas in
ill er
ĠTur key
Ġo ven
Ġmach ines
d ing
Ġsp y
Ġsystem s
Ġ12 6
S ax
r ising
Ġ13 3
Ġb orders
ĠMount ains
col ored
ĠL ion
Ġcover s
en z
oper ation
ĠMount ain
l ies
H ouse
un ciation
Ġ :
ĠE duc
ĠJe h
Ġhe ated
Ġdefe nded
NOT ES
Ġsand y
ĠS TAT
Ġn iece
Ġo z
Ġthe ories
C r
J er
ret t
AG TTC
qu est
Ġb ows
some what
Ġl oos
Ġill ustrious
Ġbes ie
Ġam iable
ig ible
Ġam munition
Ġant agon
TT TATT
Ġatt ent
Ġ186 2
ĠPl ate
Ġex ile
cul es
ĠĠĠĠĠĠĠĠĠĠĠĠĠĠĠĠĠĠĠĠĠĠĠĠĠĠĠĠĠĠĠĠ ĠĠĠĠĠĠĠĠĠĠĠĠĠĠ
Ġrul er
Ġall owing
Ġ| |
Ġconstit ute
ang s
ol and
M other
ĠC oo
Ġhead ed
Ġdis like
Ġter race
Ġf iction
ch us
S al
AC ATG
Ġloyal ty
Ġremem brance
ĠK enn
k h
Ġpil ot
ĠInd ies
AA TAG
M art
T ur
Ġpart ially
Ġunfortun ately
Ġint entions
ĠPers ia
Ġtr am
op inion
fig ure
relig ion
Ġthick ness
m oved
Ġproport ions
Ġ12 7
it le
Ġpath s
Ġop ens
á½ ³
le aves
Ġup set
wit ness
ĠB os
ous ers
ens able
M arch
ĠPortug al
Ġg i
Ġfol iage
C O
dest roy
Ġj olly
Ġlif ting
Ġsub dued
Ġmans ion
Ġfe ud
ĠMess rs
g od
Ġch a
ĠA z
cor respond
Ġis olated
ĠE t
. +
Ġappro x
_ !
Ġcomp rom
or ce
pro of
Ġappro val
stru ck
reg arded
ĠB ah
se nd
ĠMor gan
Que en
at hed
est one
Ġdro pping
Ġb unch
Ġpos itively
I nt
Ġhar bor
av ia
de ar
Ġlamp s
est ial
AA A
Ġn inety
ĠW ol
Ġingen ious
Ġcatch ing
ĠSh ak
j a
Ġspl it
Ġgover ned
en cer
Ġwest ward
AA TAC
ruct ive
Ġrig id
ĠCl ar
atic ally
Ġans wering
Ġpred ecess
str ous
Ġst ations
Ġpil grim
elf th
dist inct
ic ity
S il
ĠC our
ped ition
Ġpet ty
Ġascertain ed
p ra
ul ously
ag u
Ġgu ided
ĠGreg ory
ĠS oul
ĠP le
Ġimp uls
Ġdr unken
ĠD ie
Ġbl ocks
Ġshe w
Ġbitter ness
Ġb ounds
Ġst ake
Ġproof s
let ters
Ġb ri
ĠVen et
ĠL ad
Ġex empt
ĠPruss ia
au cer
Ġper ished
Ġprincip ally
TG CCC
aret te
pl ied
o z
ob ile
? âĢĶ
Ġenlar ged
nt il
Ġcomp act
Ġbe am
Ġsan ction
I EL
Ġsh rill
Ġtoss ed
Ġsl opes
Ġch orus
Y ork
c ro
ĠGu ard
u is
happ ened
R oman
Ġappre hension
av an
b ted
Ġcost s
ĠS alt
d al
ĠArn old
ign ant
Ġd irt
ĠD et
Ġsucceed ing
Ġinde bted
Ġthan ked
ĠPart y
Ġr ash
ĠK en
Ġexcess ive
p arent
Ġpat ent
Ġsubl ime
ext ra
Ġnot ions
ĠO cean
Ġ13 6
Ġm icro
ĠA B
Ġro be
ĠS urely
Ġsend s
ĠRo berts
Ġsk ies
Ġgr asped
Ġstay ing
ĠM ist
Americ a
Ġbro ok
min utes
ĠS uff
Ġdecor ated
ĠSc ots
Ġqu ad
ĠSu per
il ation
d ain
supp ose
ĠReg iment
Ġaw aken
F our
an cient
Ġspr ung
Ġfrank ly
n ic
13 0
determ ined
Ġcompl ained
s ick
Ġsecond ary
IC T
Ġr ay
A H
Ġdecided ly
j amin
Ġ186 4
Ġbreak s
Ġsole ly
c ru
TG TGG
Wh ite
Ġalle ged
Ġsc ent
diffic ult
Ġcra zy
Ġr asc
Ġ14 4
ou x
ri ls
Ġbound ary
it ory
Ġel bow
ĠRuss ians
Ġprof its
Ġdescend ants
reed om
ab y
Ġsuspic ious
AL D
ĠM eanwhile
Ġp ipes
Ġhesit ate
Ġce iling
Ġtr ades
IT E
pro duced
R es
^ {
Ġl eng
Ġlab ours
F OOT
Ġpeculiar ly
Ġveget ables
Ġeight eenth
Ġchap ters
Ġh ired
Ġport s
ĠB ath
n one
Ġ13 7
us ky
Ġfac ulties
Ġguard ian
ym ph
ĠCar ter
Ġd ine
ĠÂ ½
sh ore
OR N
ĠA ge
Ġdepend ed
Ġaddress ing
and o
Ġestim ated
Ġrevol t
-------------------------------- --------------------------------
Ġfulf illed
Ġu mb
Ġprolong ed
Ġfaint ly
Ġacc ent
ĠMor ris
Ġg it
is ement
A pp
Ġtre ason
Ġcirc ulation
Ġident ity
Ġopp ress
Ġam bit
Ġm athemat
Ġfem ales
Ġdistribut ing
h r
Ġbr ute
S w
Ġsulph ur
O E
Ġl emon
Ġoff ensive
Ġprop ag
Ġthought ful
Ġeleph ant
ĠGeorg ia
N at
Ġawa iting
Ġdev ote
ĠWel sh
g ers
ĠCl ay
Ġ15 5
fortun es
ĠBrig ade
intend ent
Ġ13 2
ĠH ans
ĠVictor ia
ĠC ecil
Ġ13 9
Ġasser tion
ĠFrench man
in j
Ġorgan ic
reason able
ĠS ER
Ġeng ines
Ġbut ton
ĠG arden
on ian
Ġsw orn
Ġf ut
Ġunder taking
Ġmet ap
de fe
Ġass ign
ĠBet ween
J es
ĠL ORD
oy d
ch a
Ġatt achment
Ġmin istry
Ġhosp itality
an us
l it
AAGG G
ĠA ges
Ġb ol
w on
n ant
ev il
Ġg n
Ġcook ed
Sec ond
Ġassist ant
d oll
Ġre ferences
Ġpat ients
Ġcon ve
Ġbre ach
Ġinser ted
ĠSax on
se ct
Ġcl ad
Ġb aggage
Ġ13 1
Ġclergy man
l ings
iz ens
me red
ed ged
ĠP resently
ol ve
ad le
ĠMed ic
Ġchild ish
ĠC ic
Ġextend s
or ney
Ġcons umed
m ethod
Ġl imp
Ġc ited
on ge
Ġre li
ĠA ri
Ġinter national
ag en
W ARD
Ġlight er
Ġshe riff
Ġdetect ive
ock et
Ġ13 8
ĠG et
import ance
A lex
OU SE
ĠEvery thing
Ġtong ues
Ġstri kes
ĠSm all
17 0
Ġlay er
Ġworld ly
Ġp omp
Ġbrig ade
Ġd ial
ĠN O
g ings
Ġth reshold
pret ty
Ġrese mble
Ġentertain ment
Ġdeliber ately
Ġfashion able
Ġhor rid
t te
ĠNot es
J une
H am
Ġf uel
en cing
ĠO cc
olog ist
Ġf ring
ĠB road
conn ected
Ġcur tains
ĠSt uart
Ġw ider
Ġhear th
c apt
ex cell
Ġaccur acy
Ġin du
B UR
ĠRob in
TC TTG
Ġpres ume
Ġcheer fully
Ġcop ied
az a
Ġv ir
Ġind irect
sim ilar
ĠM oon
Ġholid ay
Ġthe at
ĠH erm
Ġwhat soever
Ġa while
Ġconcl usions
Ġst ag
em ale
ednes day
Ġsu llen
Ġpre f
asp ing
Ġfore most
Ġhead quarters
Ġphys i
P et
Ġlat itude
Ġv ale
ĠG host
sold iers
Ġw rest
AN G
ĠL is
Ġc reek
r ating
Ġl ob
Ġesc ort
Ġch lor
Ġarri ving
t rem
Ġdiam ond
Ġill umin
Ġdre ary
Ġse lling
oon er
iver pool
Ġ13 4
Thom as
Ġsuperst ition
Ġs ack
Ġsent ences
Ġd ata
Ġtr amp
Ġembra ced
iron ment
Ġpre lim
Ġsp ake
Ġrespect ed
Ġdiss olved
d im
Ġir re
Ġcro ps
d ue
y gen
ex ec
Ġfund s
Ġter ribly
Ġsubstant ial
Ġfright ful
ĠIllustr ations
Ġli b
Ġbehav iour
g us
Ġcur ve
Ġb ite
Ġany how
ĠĠĠĠĠĠĠĠĠĠĠĠĠĠĠĠĠĠĠĠĠĠĠĠĠĠĠĠĠĠĠĠ ĠĠĠĠĠĠĠĠĠĠĠĠĠĠĠĠĠ
Ġview ed
Ġf aster
Ġvill ain
Ġbar rel
ung le
ĠFore st
le arned
arr is
unn el
HE N
Ġm aj
alt ies
Ġexper t
ĠAn ge
I ER
pre vent
AC AGC
Ġg ale
Ġso fa
r iment
TG TGC
Ġmouth s
Ġwh istle
TC AGG
uc le
Ġsett lers
Ġult imately
ĠAustri an
Ġmass ive
did n
Ġc oc
rem em
O ther
st ation
on str
S y
Ġread iness
Ġbre ed
Ġtrans fer
Ġstrugg led
res pons
Ġdown ward
Ġgl or
ĠLa ura
Ġad apt
author ity
Ġ16 5
uff s
ag a
ition al
cond itions
Ġref ers
Ġp iety
Ġve x
am eless
thr own
Ġambit ious
Ġecho ed
s d
ch t
Ġbund le
Ġun ite
ĠÂ ·
Ġ14 1
Ġpo pe
ĠH ospital
ĠR est
ĠMaur ice
Ġre duce
TT AAAA
Ġwond ers
M en
Ġj aw
ĠDe an
Ġimp et
B oth
s ort
Ġke ys
Ġ15 3
ĠF L
Ġoccasion ed
ove reign
in formation
ĠOther s
á½ ±
Ġimpat ience
ĠĠĠĠĠĠĠĠĠĠĠĠĠĠĠĠĠĠĠĠĠĠĠĠĠĠĠĠĠĠĠĠ ĠĠĠĠĠĠĠĠĠĠĠĠĠĠĠĠ
pe ls
ten ance
G et
ĠJul ia
Ġoblig ation
A IR
Ġl ungs
Ġpill ow
ĠMay or
Ġlegisl ation
Ġ14 2
unic ip
Ġ14 3
M ont
Ġt enth
Ġare n
Ġbl iss
Ġinse ct
ĠSomet hing
Ġf ir
AA TGC
g oes
Ġwithdra wn
ĠL ib
vill age
Ġdo st
C o
Ġf oss
Ġach ieved
Ġgr ains
Ġhard er
Ġcorrupt ion
Ġsh ades
ĠCan adian
TG ATT
Ġwe ighed
rop olis
TC TGC
Ġdes olate
l og
Ã¦ us
iss ance
Ġ14 8
ĠA ld
poss ess
tr ouble
Ġappreci ation
Ġsacrific es
AA CCC
Ġt rench
s ister
Ġsw allowed
Ġe agle
ut ton
Ġconsult ed
ĠS um
Ġin tegr
ĠG irl
Ġstat ues
-- '
s ummer
stru gg
Ġmyster ies
sing le
AC TTC
Ġth rill
Ġ14 7
p aid
ĠD uc
Ġ14 6
Ġbapt ism
S S
Ġhigh way
TCCC AGC
ĠF ord
Ġa er
Ġear l
Ġbelie ves
mon ths
Ġtra cks
ĠHar old
Ġcle aring
Ġattempt ing
clot hes
Ġdev ice
Ġfra gment
ig nt
M Y
Ġtruth s
Ġwild ly
Ġx ii
OND ON
s an
Ġtra gic
Ġreck oned
Ġcont rived
h om
Ġcord ial
ĠHer od
Ġopp ose
Ġdef ense
ĠJeff erson
Ġtim id
ĠS ant
J uly
Ġpen alty
Ġirres ist
w estern
Ġexcl aim
ĠMat thew
ĠJohn ny
Ġpl under
Ġp amph
w anted
Ġdign ified
Ġh alt
ĠSt ra
Ġn igh
fl ower
P re
Ġjuris diction
ĠDire ctor
est e
f requently
st able
Ġan ci
D ick
ĠG aul
Ġcommence ment
Ġt ab
Ġw are
Ġre cess
ĠFore ign
Ġn ic
ĠM ason
spe cies
ĠS upreme
Ġexc urs
ult iv
Ġli keness
Ġvirt uous
Ġpr udent
Ġcast ing
ĠM uch
Ġd ash
Ġp atch
M em
ar range
Ġunder taken
i ol
Sh all
T E
Ġm ask
Ġanim ated
Ġdisp osal
Ġb lend
Ġho arse
Ġm orrow
ĠB OOK
Ġ14 9
ĠL oc
Ġexpress ing
ĠJo an
ĠC re
mar riage
Ġdis appear
Ġins pection
Ġdece ased
Ġsu ms
Ġex tingu
Ġexam ining
Ġexerc ises
ĠDev il
your self
Ġmanif ested
ow ered
ĠCrom well
Ġar ches
ĠIll inois
ĠB eth
Ġmour ning
th ick
Ġtri fling
R IST
ĠC ad
Ġpr ow
ec d
ĠE th
Ġexceed ing
ash a
ĠM ake
Ġ15 6
ent ric
Ġnot able
S er
ĠOri ental
ĠA ir
Ġsix teenth
spe cial
in ia
Ġimag in
Ġar ising
sh oot
Ġd y
Ġex alted
Ġpl ent
it ches
Ġresult ed
ĠO t
al ter
Ġ15 2
Ġr ites
ĠWe b
Ġappe aled
mar ine
P lease
Ġ16 1
AT ACC
a o
Ġser geant
Ġhe ars
ass y
Ġant i
ĠSp art
Ġphenomen on
p ublished
ĠMill er
ĠChar lot
osop h
Ġexcell ence
Ġtechn ical
Ġtight ly
ĠM oor
ĠE ight
Ġfl owed
ĠArist otle
Ġhas n
co very
Ġg ird
M c
ĠLet ters
ans ion
Ġtit les
Ġincred ible
ĠP ont
Ġexc ite
sur face
ang ular
ĠM inn
Ġp ony
fl oor
á½ ¹
Ġsun ny
Ġst amped
Ġh ats
p iring
Ġser ves
g arden
TT AAG
ĠAng lo
Ġdefin ition
Ġneut ral
Ġcr ust
Ġmonaster y
inter rupt
T R
Ġarm our
Ġadv is
affect ion
Ġref ined
Ġint ensity
ĠThe e
Ġp ouring
pol itical
Ġdr ain
ĠD omin
Ġsw ing
Ġloc ality
Ġcon ver
intell ect
A ng
g ow
Ġsupp osing
L aw
Ġex ult
TC AGC
id ance
Ġall uded
Ġharm less
ri ft
AG TGG
w arm
Ġv ind
Ġcour te
ci us
Ġgoss ip
Ġh anged
AL E
Ġmon uments
ĠL ower
obl ig
ĠChild ren
ĠW olf
Ġre joice
ant ine
Ġappl icable
d ied
Ġfine ly
c ad
Ġtr icks
ĠS yl
Ġshout s
ĠGoth ic
Ġse p
O F
iv able
ww w
Ġdeb ate
Ġf ath
Ġdom inion
Ġclim bing
by ter
Ġcapt ive
ĠH EN
Ġp ump
Ġ15 4
ĠJim my
if er
Ġsweet ness
ĠFer dinand
diffic ulty
Ġconstit uted
rit ory
t alk
Ġfier cely
Ġwin ning
St ate
Ġpersec ution
ĠeBook s
Ġc aps
Ġp ushing
Ġ Ã¦
ĠV in
TG TTC
Ġdeser ves
TG ATG
Ġremark ably
Ġloss es
Ġexpl ore
ĠE ug
Ġawa ited
Ġsugg ests
b red
Î± Î¹
conscious ness
ĠC reat
Ġf ul
Ġsh oe
_. ]
G R
proper ty
Ġadequ ate
Ġl av
P o
Ġtemp est
Ġlod ging
Ġcompl icated
t est
u ble
sw ald
Ġvener able
mount ain
Ġde gr
Ġm ule
Ġrighteous ness
Ġconsider ations
Ġpo ly
sur r
ir ch
serv ant
Ġ15 1
ĠS om
s oft
ĠH orn
ĠChar lie
ĠM is
Ġa pe
Ġfact or
Ġphilosop hers
Ġread s
Ġdet ached
Ġglit tering
Ġrapid ity
le ments
Ġ17 5
Ġre els
Ġg ilt
Ġmagist rate
Ġenthus iastic
Ġencourage ment
Ġexp ensive
D an
ĠW inter
Ġsymp athetic
R el
ar ches
Ġvo id
qu in
Ġrel ates
14 0
Ġres igned
Ġfor ci
Ġinflu enced
Ġdescend ing
s in
um a
Ġt ack
ron ted
Ġre bel
ĠH ast
TT TAT
With out
c op
ri val
Ġdelic acy
ĠT u
und ered
ĠHot el
Ġgrand eur
mans hip
c ustom
ĠT ob
Ġp ow
Ġp est
Ġgro ve
vere nd
Ġar ises
Ġswe eping
Ġref res
Ġthank ful
i antly
B ot
op her
Ġdecl aring
st retched
Ġconv uls
Ġeager ness
Ġdiam onds
l on
Ġsh ower
Ġc ush
disc uss
Ġm and
Ġinfinite ly
cont rol
Ġattend ant
employ ed
Ġend owed
Ġsc ales
Ġeffic ient
ur t
ĠG ulf
Ġch at
Ġexcl usive
ind epend
Ġc ode
act ive
spo ken
Ġperple x
M or
Ġse aled
ag us
ed e
co al
Ġv irgin
Ġdeb ts
Ġh ue
ond e
AP H
pend icular
ĠM aid
Ġprom ising
O b
c ock
ĠS au
supp osed
Ġrec overy
c oun
ater n
Ġdisgu ise
es p
us c
ra pid
AB LE
Ġinter ven
spe c
ĠJ upiter
ĠR oche
Ġpier ced
Ġtri als
Ġcomplex ion
Ġapart ments
en ne
Ġw its
Ġse arched
ĠN ancy
itzer land
Ġcongreg ation
Ġth umb
ly mp
Ġg ild
k ers
Ġrhy th
nd e
ocr ates
Ġsec uring
Ġte asp
Ġstart ling
ĠN elson
Ġcur ved
P S
Ġdiscover ies
Ġhed ge
Ġbr u
g ery
ade qu
i ating
Ġd usk
Ġhorse back
Ġforeign ers
ĠB ry
w atch
Ġp airs
' .
ar ter
imp ly
Ġ15 7
Ġdeep est
no x
Ġcompre hend
Ġn omin
ĠA v
Ġpoet ic
ĠCa esar
Ġp seud
es se
thought s
Ġf ist
ĠSto ck
Q k
Ġsw amp
Th rough
k Q
ĠF urther
Ġflo ated
Ġcontin ual
Ġdec isive
ced ed
ĠTom my
Ġm entions
Su pp
Ġobser ver
incl uding
n orm
Ġ18 70
Ġint rig
Ġpan ic
Ġan te
Ġr ud
IT ION
ĠMed iterranean
Ġmurde rer
G en
Ġec st
Ġfl ows
ĠT able
Ġbr ows
UL L
ens is
Ġident ified
Ġcost ly
Ġg al
ignt y
d iss
p icture
Ġm onsieur
Ġrep aired
S ection
T ATGC
rag on
ĠE xt
pl ate
Ġconc ert
Ġanticip ated
ĠAugust us
Ġ186 3
Ġfool s
Ġcons olation
ĠAss y
Ġper ception
ĠJ oy
Ġyoung est
Ġgri p
f ac
TT AAC
ĠSil ver
ĠF oot
g i
ol erable
it ative
ĠB acon
TG AGC
Ġconv ince
T ATGG
Ġal ert
Ġdread ed
Ġcl ut
ar io
rodu ction
Ġperform ing
Ġlog ical
great est
Ġ15 8
Ġever lasting
Somet imes
AA TCC
ci o
em er
Ġme ek
old ing
Ġsl aughter
Ġm ak
olog ists
all ic
Ġch ast
Ġn ails
it ute
Ġsub stitute
bel ief
Ġcar go
Ġlaw ful
Ġpro str
ic ut
Ġstair case
im ore
Ġag itated
Ġrevol ver
Ġde ceive
ill ustr
cri ber
beaut y
des cribed
bel ow
ĠWell ington
Ġmead ow
it ud
ĠH app
Ġmart yr
perfect ly
ĠCharlot te
u ph
ĠHigh ness
ĠGra ham
Ġ16 3
ar on
ĠBarbar a
M E
Ġ2 20
Ġgran ite
" ,
Ġrep et
ask a
we ed
Ġinherit ance
Ġdistribut e
Ġpar l
Ġatt raction
D U
sett led
Ġen umer
Ġtiss ue
Ġener get
ĠTr uth
ĠV e
Ġarbit r
Ġw re
ar my
Ġded icated
R eg
Ġagric ultural
ĠM it
Ġsh udder
Ġp oo
D is
Ġ16 2
fore ign
Ġkn elt
Ġá¼ Ģ
Ġh oof
Ġm irth
Ġdecl ares
Ġmor als
wh is
os o
Ġ186 5
Ġemer ged
Ġpear ls
Ġhe n
Ġ19 17
ĠF anny
Ġetern ity
Ġsupp ressed
ruct ed
er ic
Ġc iv
Ġ15 9
ain ty
TT ATG
Ġrough ly
Ġs cept
ĠG ent
Ã± or
Ġ2 10
AT AGG
Ġfem inine
mere ly
m ate
Ġdet ected
Ġpast e
? /
Ġang rily
ber ries
Ġeste emed
Ġ24 0
Ġh ire
Ġobject ed
ĠEd ith
Ġkn ot
ann ers
Ġfin er
ĠN umber
Ġcab inet
Î¿ Ïħ
y an
ĠL og
not iced
Ġ Ã©
Ġhurried ly
Ġsever ity
so ciety
Ġmem orial
m ary
Ġch oo
Ġjoy ous
ĠJer sey
Ġact or
iqu ity
Ġappl ause
ĠBy ron
ĠJ acqu
Ġthy self
ĠS IR
Ġ16 8
Ġoun ces
A f
t was
ĠA ud
Ġch ival
Ġdim ensions
ĠAg nes
Ġb ot
Ġrich ly
Ġun anim
Ġhand ful
s ol
ĠPr inci
Ġattend ance
R om
Ġpe ep
Ġfaith fully
Ġ16 7
iction ary
law s
Ġvac ant
AN S
Ġman ly
ĠT art
Ġcommun icate
Ġsn apped
m oon
Ġl ance
ĠLa ure
ve red
Ġver b
IL D
sim ple
Ġprev ail
quis ition
Ġch ambers
ant es
urd y
ĠSc ar
ĠT W
prov ided
ĠCommand er
ĠHim self
ul um
Ġreg ulations
opy right
Ġe j
Ġkind red
Ġref usal
Ġa th
wa iting
D oes
Ġconstitution al
AN Y
Ġring ing
ĠD ry
ĠTh ink
AA TTTT
Ġre el
s is
c art
Ġo live
Ġ16 9
des cend
ĠIn st
---- -
Ro bert
Ġd Ã©
Ġdesp ised
f resh
an z
Ġfound er
ĠNat ural
ĠE ver
after noon
Ġwel comed
Ġprof essed
Ġleg itimate
ran ch
Ġ186 1
Ġre ass
Ġrest oration
o ks
ĠPat rick
ra ged
el come
ic ia
ĠIn ter
Ġun ique
ĠGE ORGE
he avy
ĠFam ily
AG ACC
Ġimprison ment
Ġs add
á½ ¸
Ġamaz ed
mark ed
Ġprosper ous
Ġh are
de pend
dis p
Ġc ust
ĠAb ove
Ġher ald
l ower
Ġobject ions
Ġag g
Ġ16 4
ĠCat hedral
Ġcontrovers y
IS E
st orm
TAG GC
Ġo pt
Ġpol es
Ġhonor able
cc entric
Y N
ell ing
Ġresembl es
conf idence
ot y
Ġspect ators
ĠB ou
TAG CC
he res
c ost
ot te
ap a
Ġreal ised
ri um
eng aged
ĠD R
Ġact ivities
ĠMS S
AS H
Ġbl aze
Ġc ant
ĠO d
Ġse l
m m
distingu ished
Ġeloqu ent
Ġgrad ual
ĠSte ven
Ġv ile
ĠMad emoiselle
ĠRep ort
Ġsc hem
Ġsacrific ed
Ġrem ed
Ġcrit ics
Ġdraw s
Ġun seen
Ġstat us
Ġtid ings
Ġcreat ing
ĠA le
Ġhorizont al
ĠMag azine
Ġo ars
Ġh arp
ĠA cts
Ġver tical
Ġli ver
s per
Ġsu nd
Ġve ter
Ġref resh
Ġcur sed
Ġsc out
ĠThom pson
Ġwarm ly
Ġbless ings
Ġ18 5
person al
XX X
ord in
lim ited
Ġa ux
ap se
ER Y
Ġchallen ge
Ġcl ust
Ġblank et
ĠA MER
affect ed
Ġdescri bing
Lou is
ĠJ oh
TC AAG
TG TTG
Ġcand les
ore n
ou ching
acc ur
att ack
Ġbatt alion
Ġdisc retion
ĠAnton io
ĠCath olics
const ruction
ĠG abri
Ġf ishes
AN CE
C am
Ġtyran ny
Ġstr ings
om ing
ĠN i
Ġpill ars
des ire
ĠMad rid
C ast
Ġpre ference
ĠFlor ida
s i
Ġter rified
O B
ĠAMER IC
ĠAl mighty
Ġf ret
Ġg ard
Ġpres ervation
Ġc ate
Ġdec re
Ġclass ical
Ġdress es
t el
ĠLou ise
am y
ĠDist rict
Ġl ocks
Ġapp les
Ġcrowd s
TC TAA
t one
ĠKent ucky
Ġphr ases
Ġv it
ĠP AR
ar rived
Ġcell ar
Ġp oll
ĠE nt
Ġrul ers
Ġpropriet or
Ġdr own
Sc ot
ĠInf antry
Ġ17 7
Ġwret ch
Ġc age
Ġexhib ition
w inter
Ġdimin ished
or ie
Ġsupport ing
Ġbe ams
V EN
Ġ17 6
Ġbr andy
h u
Ġro bes
Ġiv ory
Ġcompet ition
Ġb red
onym ous
scar cely
Ġr amp
Ġcompar ative
Ġcar riages
ĠDe ar
ĠSus an
Ġass ent
ĠCon vention
Ġ, ,
Ġtr ousers
Ġin land
M S
Ġbatter ies
Ġimpat iently
Ġsh apes
Ġend ured
Ġpl ough
Ġsplend our
ĠLeg isl
ect ions
r unning
Ġaut om
Ġconcern s
rop he
del ight
Ġme ets
Ġ" '
_, "
Ġunivers ity
Ġd uration
Ġwonder fully
minist ration
Ġan terior
Ġ17 4
AG A
Ġbewild ered
ll ey
ĠU se
Ġme als
Ġdream ing
ĠAl as
Ġindign ant
ĠB an
li ked
Ġrel ics
r ament
I O
Ġ16 6
OU GH
ĠCHAR LES
ay a
f uture
ĠB at
Ġprophe ts
quar ter
Ġprocl aim
m ess
pro portion
in tended
Ġallow ance
Ġdeg ener
he im
Ġvig il
Ġt ed
Ġcont racted
Ġpre tt
ri b
al ia
Ġvict orious
Ġaccount ed
Ġal cohol
ĠGod s
Ġtr ains
f ood
Ġc ad
Ġgener als
ĠB less
ev idence
ĠSqu ire
l ated
Ġsub mission
ĠGer ald
AA TGG
AA TTG
ĠY an
ĠG ard
Ind ians
Ġhistor ic
Ġremo ving
Ġmot ions
Ġsc ru
il ies
ĠXV III
yr us
ĠE thel
Ġinflict ed
F ar
ro it
Ġst u
ĠBo hem
Ġcompet ent
ann els
meet ing
Ġill um
Ġmon strous
Ġtender ly
ĠE ls
le aving
ett a
Ġ19 16
Ġbr and
Ġcompl iance
ĠSt at
col our
U p
Ġcan e
Ġ17 1
Ġarg ued
ren ched
Ġconfer red
Ġgo al
ex erc
Ġalong side
th orough
Ġman hood
Ġsw inging
b ull
Ġgl ancing
Ġwh ale
rel ation
Ġen velop
Ġover fl
Ġwe b
M AR
dra wing
p owder
Ġdef iance
w orn
h ol
Ġfound ations
Ġri ot
d ressed
ĠSt ation
Ġsim ult
Â »
c ils
al ian
S tr
p ite
ĠÎ ¼
AV E
Ġbott les
gr ims
Ġh ail
pro cess
j ourney
ĠS ign
ĠW ay
Ġeye b
AG TGC
Ġag ency
Ġri bs
Ġall usion
we ight
Ġcon vert
ish ly
Rich ard
b ation
Ġsquad ron
Ġless er
ĠPro bably
Ġveget ation
erv ative
Ġp iled
Ġattend ants
ĠC her
ĠC ut
Ġf oll
Ġprophe cy
l ives
Ġout rage
Ġimpl ied
ĠK at
Ġpers isted
ut tering
Ġbest ow
Ġhusband s
3 00
ph an
supp ort
ĠP ra
tr ade
Ġlect ures
w ish
V E
ĠPh ill
TG AAC
ĠBl ake
ĠEx cell
pro gress
E gypt
Ġbeg gar
l ace
gr ate
z ar
bel ieved
ĠBen jamin
Ġj er
ext reme
Ġ2 30
ĠJ AMES
ĠRelig ion
Ġtreat ise
AG ATC
Ġtast es
Ġra gged
Ġstr ained
uff alo
mem bers
Ġswim ming
Ġl amb
Ġinto x
Ġab dom
Ġsl umber
Ġli bert
Ġ17 3
Ġsuspic ions
ad mir
ĠF R
if fe
s ens
ĠQ U
Ġru gged
Ġre igned
Ġro sy
se ason
Ġy o
Ġsw allow
ĠĠĠĠĠĠĠĠĠĠĠĠĠĠĠĠĠĠĠĠĠĠĠĠĠĠĠĠĠĠĠĠ ĠĠĠĠĠĠĠĠĠĠĠĠĠĠĠĠĠĠ
Ġjew el
Ġsh aped
Ġprint s
Ġbre eding
Ġrepeated ly
Ġlad en
Ġcaut iously
ced ure
v irt
un ivers
Ġsuff ice
? ;
! )
Ġ18 7
ĠPal mer
Ġax e
ĠS a
p ictures
Ġgu arant
Ġaff ords
kn ife
Ġjoy s
Ġso ap
Ġrequis ite
_ ?
mount ains
we ar
Ġtemper ament
ĠEnglish men
he ro
et e
Ġ19 00
Ġ18 2
i atic
ac ies
Ġcomr ade
ter bury
ĠP ER
TTTT CC
Ġprof itable
ĠGl ad
Ġ18 1
fl ies
ul i
Ġfant astic
W ashington
Ġp ige
ĠS ou
Ġan ecd
Ġtriumph ant
ĠB right
Ġerr and
pr im
c ong
Ġas cribed
Ġdo om
OR TH
Ġfail s
ĠSy ria
ĠXV II
G old
Ġw oke
Ġro ared
ĠO wen
ac cess
av ens
girl s
Ġhapp ier
ĠBe ar
Ġsevent eenth
Ġ19 5
ĠA F
re plied
0 5
Ġ17 8
Ġaut hent
ĠProp het
Ġ17 2
Ġrender ing
pent er
Ġglo ves
le ading
Ġoff spring
Ap ril
Ġshe pherd
ĠL im
about s
L ove
Ġto ken
Ġ19 3
ĠSe ven
ĠE aster
stit ious
Ġconcent rated
ĠStan ley
Ġsal ary
Ġgrie v
Ġrecogn ise
M onsieur
al is
Ġimp osing
ĠAccording ly
Ġab ide
ant om
ĠW E
pl ant
Ġfl ocks
Ġl bs
Ġ18 4
TT ATC
un ately
Ġder iv
ĠSwed en
ograp her
Ġpr udence
al us
H AM
ĠMar tha
n is
gr ass
Ġfor fe
Ġle ague
Ġphilosoph ical
ĠJ osh
Ġt ank
re ceive
Ġcryst al
t im
Ġpl us
Ġst are
Ġstation ed
Ġdefect ive
] ;
Ġhur rying
w yn
Ġess ay
Ġco ats
Ġ2 25
Ġs incerity
Ġfail ing
W E
m akes
Ġvig our
ser y
Ġimprison ed
Ġdom in
Ġroof s
ab et
ĠCent ury
form ing
Ġ2 12
on na
che t
f ool
Ġlast ing
Ġpre val
ĠJ ove
Ġut il
Ġa ided
Ġg erm
Ġbu b
ĠEd gar
ĠX L
Ġsugg estions
ort on
Ġgreet ing
Ġschem es
ĠZ eal
Ġinter ference
Ġfold s
mod ern
Ġ18 3
Ġfra ud
ĠRh ine
Ġv iv
Ġd itch
Ġh uts
Ġm ales
ĠCar th
ĠPol and
Ġdraw ings
Ġbl ush
k o
Ġ18 50
Ġpre cept
ru its
um pt
Ġsum mons
i per
Ġcyl inder
ĠRob inson
P ol
Ã¢ te
ĠFle et
iz a
Ġpar as
ĠMad am
Ġple aded
Ġ20 5
Ġm it
Ġsp aces
Ġpra ised
Ġ19 2
com pet
sh aw
ov ah
Ġ --------
en ched
J ew
an throp
Ġp ione
ĠA M
ĠA ust
t us
v ii
It s
Ġpray ing
Ġinqu is
he aven
Ġmus cular
Ã ¾
Ġsa g
four th
nat urally
Ġbur d
Ġwh ar
ĠP erson
EN ER
Ġon ward
ĠM ind
Ġgar ment
ĠLe ague
Ġen ch
S ure
TC ATC
AGTG GC
ow a
ĠHer r
app arently
ĠRe ich
Ġover head
Ġmus cle
Ġmir acles
Ġrespect ively
nex ion
OM AS
ĠCorn wall
ĠL ud
Ġspark ling
Ġsouth ward
Ġindisp ensable
pe cial
Ġstret ching
Ġen velope
Ġdelay ed
E r
ĠV irg
Ġch oir
ignific ant
qu ant
Ġsuper natural
t ried
ĠPhil ipp
Ġpossess ing
Ġc ured
the ast
Ġwhere of
Ġfil m
ĠV ers
ĠEd mund
Ġexc av
Ġhum il
Ġo u
sit uation
Ġc row
Ġdeath s
urn ing
fore st
Ġsh ots
C K
Ġexp osure
Ġinv ested
e asily
ick ens
ĠW right
Ġtra itor
h abit
Ġb idding
hard ly
Ġc offin
Ġp avement
Ġear ned
Ġport raits
ch ie
ĠMil an
Ġtrave ls
Ġcons istent
Ġc akes
Ġpl edge
Ġopp ressed
k illed
ull ed
bl i
FOOT NOTES
C le
p b
in str
ĠI ce
ĠL iverpool
Ġep is
mark et
Ġnorth ward
Ġ/ >
Ġsp ont
ĠBook s
Ġsp ur
Ġcan oes
ĠY ORK
ot us
p ng
Ġph ase
Ġ2 15
ab by
Ġvar iations
b road
Ġresent ment
AC TAA
Ġtrem ble
ennes see
Ġannoy ed
Ġm ules
... ."
Ġple ad
Ġrep uls
Ġro pes
represent ed
Ġb other
ent ertain
ĠC lement
und y
ĠĠĠĠĠĠĠĠĠĠĠĠĠĠĠĠĠĠĠĠĠĠĠĠĠĠĠĠĠĠĠĠ ĠĠĠĠĠĠĠĠĠĠĠĠĠĠĠĠĠĠĠ
Ġunivers ally
Ġb ount
ĠB ri
Ġtrop ical
Ġsettle ments
O Y
Pro v
ard y
Ġhaz ard
ĠAnn ie
Ġve in
Ġpart ners
ĠScript ures
Prof essor
Ġtreacher y
AN E
ĠCl ara
sil ver
Ġinv ite
Ġk ins
AM E
Ġstor ms
Ġval ued
ale nd
ĠTw enty
Ġshr ine
oth s
p ound
er oy
Ġa y
Ġbrut al
f right
on ne
Ã± a
Ġc ran
HE S
Ġsoci eties
le ad
ĠChance llor
r ants
Ġcig arette
Ġl b
Ġl inks
Ġgo at
Ġdisturb ance
ĠM RS
Ġse rene
g room
ĠH amp
Ġlack ing
d inner
re nder
Ġmult ipl
M us
Ġsc ram
Ġnum bered
Ġmin eral
Ġ19 18
Ġax is
ĠM ach
Ġox en
Ġg au
Ġpresent ing
D el
Ġw ist
Ġadj acent
N ote
ĠB ert
C ath
Ġhypot hesis
ĠS et
m iddle
ĠR io
Ġpor ter
it to
Ġa le
ĠAnd erson
sus pic
s ides
ĠSer geant
Ġcav ity
Ġassoci ations
Ġhom age
ra ble
0 6
Ġc ul
Ġpartic les
igr ants
C f
Ġrev ived
Ġind icates
ĠNew ton
Ġpro verb
Ġbl azing
R ight
Ġdes criptions
Ġhon oured
W il
sh arp
E v
Ġmant le
poss essed
r us
for gotten
ĠPom pe
Ġher ds
ĠS weet
H as
ĠB ald
ĠP ubl
ATT TTC
ĠK irk
Ġprelim inary
ĠTh ursday
ĠB or
Ġla un
fav our
Ġa ught
h an
ac com
âĢĿ ,
wood s
Ġ19 1
v iii
Ġ20 1
ĠO rigin
Ġcorrid or
c ab
val ue
Ġun it
Ġf idelity
Ġc ob
ĠR oll
Ġgra ves
Ġhun ted
Ġhon ours
ĠB us
Ġbeaut ies
ot ent
dif ference
Ġmem orable
s itting
Ġcons ul
Ġwor ried
ĠA ut
ĠIs le
ĠAlexand ria
Ġcru c
Ġ2 13
se mble
Ġequ ality
ĠO swald
Ġdist ances
Ġaston ishing
Ġo y
Ġhaun ted
C ES
Ġur ge
Ã¨ s
-- -
ent on
Ġsk ilful
s ail
ĠJul ian
ĠBelg ium
our selves
ĠBatt alion
u ber
mil itary
Ġd warf
Ġox ygen
Ġ186 0
ĠCl ass
un to
Ġp ic
th ro
sil ence
Ġeast ward
Ġpopular ity
C ong
Ġr ates
Ġ20 2
Ġvis ions
Ġtele gram
con stitution
Ġd ans
n ames
Ġsurre ndered
im al
AA ATAA
Ġfor bid
Ġhun ters
Ġcons umption
ĠK itty
Ġd ined
Ġcr ash
Ġ2 16
ĠPR ES
Ġqu est
u cy
Ġrelation ship
Ġstrengthen ed
Ġsh ocked
Ġcom edy
Ġnovel s
Ġj aws
Ġp aces
ATT GG
AC TAC
ĠN ev
Ġunder took
Ġ20 3
ra c
Ġ19 6
Ġwhere upon
Ġri fles
comp osed
ĠO per
Ġhar ness
offic er
ern on
ĠH az
Ġfl ush
Ġeduc ational
ĠSen ator
th reat
e arn
ĠPar adise
Gr and
M al
." --
requ ired
father s
ĠYe ars
âĤ Ĥ
Ġt el
Ġwholes ome
Ġs ire
s hed
ĠJ ENN
ĠA k
ĠM ust
Ġdepos it
ĠBru ce
se arch
Ġpick ing
su it
w alls
Ġst if
ob tained
ft ed
Ġreck less
Ġ19 7
ĠMin or
Ġamb assador
Ġinher ited
Ġresol ve
Î¿ á¿
s che
Ġf res
M aster
Ġto es
Ġ20 8
ĠL IFE
Ġ20 4
Ġhorse men
Ġhon esty
Ġlab ou
Ġty rant
Ġlaz y
Ġ19 4
b ag
g ies
ĠO range
y outh
Ġworld s
Ġwise ly
Ġst ew
Ġdefinite ly
Ġinde finite
Ġus ur
Ġm ent
ĠS ection
ĠI ron
Ġsc rap
P ut
Ġpl aint
Ġrad iant
Ġv otes
Ġban quet
Ġlod ged
at ical
ind e
Ġass umption
Ġswe at
Ġmoist ure
Ġst oop
anim als
Ġdec oration
Ġs arc
ĠT uesday
oc ent
Ġun comfortable
des ign
p red
Ġa qu
Ġposs ibilities
M il
Ġpleas antly
Ġwr ist
Ġdesp atched
Ġaw ait
ace ous
Ġ2 14
Ġp as
ik es
Î¿ Î¹
Ġpropri ety
Ġ2 17
Ġfe es
ĠGe off
p os
Ġb inding
AG TAG
Ġgr inned
ass ed
ĠAb b
ĠLeon ard
Ġ2 18
Ġimprove ments
ĠRep resent
ord e
te br
turn ing
R ome
st arted
com mission
Ġep it
Ġsc ared
Ġrepe ating
Ġagric ulture
ft en
acc ustomed
pri vate
H a
ĠColumb us
Ġgu idance
Ġmission aries
ĠH arris
Ġr ural
B LE
ĠI T
ĠFour th
accom panied
Ġre ef
Ġbuff alo
Ġv ot
O ST
ill on
Ġblank ets
E ach
Ġlab ors
A F
ĠPer cy
Ġbig ger
the e
Ġche mist
im um
ĠT roy
ad ays
ĠHEN RY
Ġro aring
ab ilities
as gow
ĠMar ion
p ointed
Ġbar rier
Ġcr ude
em et
Ġgener osity
ly mouth
sp oke
or ters
Ġgl ances
ĠR ap
pre c
point s
ĠP sal
Ġtrad ing
Ġmaintain ing
ĠD ion
op hy
ut er
Ġinfl amm
Ġc ats
ĠW ag
Ġsurv ive
Ġare as
Ġmust n
AR E
Ġdeliber ate
Ġsc ope
ID ENT
ĠS PE
ar ine
Ġcour ses
Ġann ually
end eav
Ġste ward
Ġtr unks
â Ļ
Ġoun ce
Ġg aining
Ġattribut es
le tt
develop ment
Ġgl are
it i
al together
Ġas cent
Ġexcl amation
Ġpen it
ĠJan et
ĠW r
; âĢĶ
Ġco ins
ĠUnivers al
Ġt ough
ĠW rit
TG AGGC
P resently
Ġor che
O TT
an or
Ġconven ience
Ġbloss oms
ER E
Ġtransp arent
Ġr ider
ter min
Ġw uz
Ġo st
TC ACC
Ġth ieves
l au
we ek
Ġimag inary
s av
B en
ATT TAA
ĠM me
Ġsorrow s
Ġmal ice
Ġk ick
Ġforget ting
as ters
_ [
Ġdiff ers
Ġh airs
Ġcross es
er als
Ġpenet rated
Ġhur led
Ġinh abit
Ġaccompany ing
id ious
Ġsad ness
ĠH unt
TC ATG
Ġmagn et
F red
ist les
Ġst ress
ot o
Ġdepos its
Ġ2 24
id y
Ġt un
iv als
ĠW ORK
Ġdep ression
su bs
Ġcor on
Ġmagist rates
ĠTH AT
---------------------------------------------------------------- --------
Ïĥ ÏĦ
Ġdisplay ing
vis it
Ġtou ches
Ġthought fully
Ġp enn
Ġshru gged
dra w
1 10
ĠM Y
not es
ĠPed ro
ater nal
ĠCo ast
Ġunder neath
TC AGCC
ĠSh aw
Ġwe ars
Ġprocl amation
Ġlog s
Ġearth qu
Ġlog ic
Ġm uff
Ġaw fully
Ġcold ly
Ġwis er
Â ©
Ġel apsed
Ġill eg
E p
Ġwor m
ĠAp ollo
Ġemb od
mon th
Ġpe nd
Ġconf ounded
Ġpat hetic
f il
iz ations
pend ing
Ġn od
V al
Ġact ors
ĠA ff
ĠEgypt ians
v oc
giv eness
Ġreflect ions
sur pr
Sept ember
Ġh inder
concern ed
Ġgorge ous
through out
u ction
Ġhered itary
ĠGu ards
Ġoppon ents
Ġ20 9
ĠC ousin
Ġm are
ĠB un
ĠJ r
ĠTr ade
Ġappreci ated
Ġeight h
Ġninet eenth
Ġ26 0
ĠM ain
T ACCC
Ġfif teenth
Ġsex es
Ġpy ram
Ġexcept ions
Ã¼ r
other wise
Ġban ished
ind ers
a ust
ons on
Ġmon op
Ã ¹
do zen
Ġcontinu ing
Ġst ored
pl us
ĠL ONDON
.âĢĶ _
Ġconspir acy
Ġse cl
Ġnois y
Ġvar iation
AC AAC
Ġplay ers
Ġbo red
ask ets
TG TCC
inst ance
ĠKh an
P art
Ġaccom pan
M ur
Ġchar ter
ĠP owers
Ġadminist ered
wr ong
Îµ Î¹
A g
ex per
ĠPark er
Ġin asmuch
AA AGAA
Ġa kin
co ast
Phil ip
Ġar isen
Ġfig ured
V en
ĠN ell
et ime
Ġbrave ly
Ġa us
ĠD og
Ġstro ve
Ġs ciences
ĠO lymp
Ġexpress ly
Ġmead ows
ic ans
Ġsee ks
ĠG OD
over ing
ĠA U
ĠN an
Ġ19 9
Ġelectric ity
ĠMarsh al
Ġcount ies
c ou
opp osite
ĠB od
G CCC
Ġt ame
Ġp ulse
Ġthro b
Ġpublic ly
el ine
Ġutter ance
ed ar
Ġd ainty
AT ER
Ġnavig ation
Ġcompl aints
á º
Ġrefer ring
ere rs
power ful
Ġproud ly
Ġbull ets
ĠC ob
Ġb ounded
ĠG a
Ġmain tenance
ĠSic ily
D iv
Ġur gent
ĠTr inity
Ġan k
ĠEm ily
Ġplay er
ĠP rom
Ġ2 11
Ġexplos ion
Ġexagger ated
consider ation
Ġsupp lement
Ġ20 6
Ġat ro
Ġjoint s
ast rous
M ajor
l orn
Ġtrump et
s ave
Ġ20 7
h ist
Ġke eper
Ġaven ue
Ġind icating
Ġh aughty
-- +
H igh
Ġ19 8
Ã¶ l
Ġhold er
Ġg oose
ur se
l ined
Ġcl inging
ol ks
on ous
Ġy awn
4 00
E P
Ġconvention al
Ġn aught
ĠA my
Ġfl ashing
ĠAL L
Ġp arson
Ġfre ight
AD Y
Ġqu itted
ĠTh ames
ĠCom mun
ĠSw itzerland
ĠP ast
ĠR ound
ine as
Ġde pl
I Z
t ong
Ġsqu ire
ord an
car ry
Ġmel ody
ĠT am
Ġhe res
Ġdark er
Ġste aling
Ġj ungle
AC AAG
Ġdipl om
g ives
i ens
Ġble eding
ĠMod ern
ren cy
so cial
Ġsc anty
Ġw iped
Ġhe el
Ġemph asis
ĠS ep
ĠA venue
OR S
Ġatt orney
ĠS aints
ĠC os
ĠB AR
Ġl ays
Ġn ests
play ed
Ġdev out
ĠBro ok
im us
exam ple
Ġcree ping
Ġimport ed
Ġpolic eman
Dav id
me ant
w ond
Ġp ays
Ġb ou
Ġjo ining
Ġconvers ion
1 15
ĠPl an
em per
ple ase
Ġconf eder
Ġl iv
Ġalter ation
Ã© l
Ġimp ass
IG N
Ġdam ned
at ches
Ġsust ain
UB L
ĠCont in
Ġm ars
ment ed
ĠSp encer
Never theless
Ġthr ows
Ġjack et
ĠY ellow
ĠK ansas
Ġillustr ate
ar ning
quick ly
care fully
v re
we ak
Ġconc rete
act s
anim al
Ġ18 80
ĠCic ero
Ġfe aring
ĠK il
Ġling ered
ĠH uman
Ġenter pr
Ġeven ings
Ġaffl icted
Ġmar ine
You ng
Ġmad ame
u ent
Ġsens ations
M ark
S an
Ġ18 48
en ic
Ġapp rent
Ġsu ck
Ġref using
Ġaccept ance
_ âĢĿ
ĠC ertainly
Ġt iger
OUN T
R ob
Ġemph as
-----+-----+ -----+-----+
M ag
ĠB aker
Ġy acht
Ġsu its
ĠFor m
gl ad
bour ne
Ġmel od
j an
Ġensu ed
f ixed
Ġstri pped
Ġpoet ical
ab ul
move ment
Ġthe ology
ĠL l
TT AGC
Ġfalse hood
v ile
Ġl am
pend ix
ann on
Ġpit ched
Ġsl ack
ĠD IS
Ġappro ve
ĠN ear
Ġdra gon
Ġmod es
he ment
ĠCarol ine
Ġbarbar ous
M P
Ġcher ished
Ġpred omin
ĠĠĠĠĠĠĠĠĠĠĠĠĠĠĠĠĠĠĠĠĠĠĠĠĠĠĠĠĠĠĠĠ ĠĠĠĠĠĠĠĠĠĠĠĠĠĠĠĠĠĠĠĠ
rist ol
Ġted ious
Ġwar like
AC ATC
r ative
Ġburst ing
Ġd ome
AS E
ri al
Ġ2 29
Ġdown stairs
am on
Ġmir ac
F N
b ish
Ġcontro lled
pass age
Ġmet als
y ss
y ll
Ġcut s
Ġsa ge
Ġpursu ing
R ec
al ions
ĠWalk er
ĠG ener
Ġ2 19
inh abitants
I US
ĠRepublic an
Ġ2 27
ve lled
Ġfurn ace
Ġsu pers
ĠDar win
ĠO tt
Ġc able
ab e
Ġan aly
Ġdo omed
ĠC air
Ġri p
TT LE
Ġ2 26
Ġ2 23
ĠBut ler
Ġseem ingly
H all
man if
Ġengra ved
am el
Ġspecul ation
Ġbag s
me as
Ġyield ing
Ġv oy
Ġrem orse
Ġy oke
Ġdestro ying
c aught
man ces
Ġsc or
mist ak
Ġmay or
Ġdest ination
Ġch anced
cur rent
Ġper cent
ĠPal estine
Ġspe lling
Ġo val
AA TAT
ĠAll ah
Ġo re
ĠL iving
C at
Ġpres cribed
Ġspe nding
ĠT oo
M at
st ro
Ġhand led
b age
tr ust
dec ided
ĠB ene
ĠM ot
gr ic
ĠRail way
ce remon
ĠL i
ne ck
Ġl uc
Ġst ab
AC AGG
Ġweek ly
satis fied
Ġsurv ived
Ġbrid ges
ĠPl ut
N ap
ĠSE C
m ie
se ction
Ġres ident
wonder ful
0 7
serv ants
Ġcel estial
Ġg alley
Ġo ra
Ġw aking
ĠNor way
Ġobject ive
ING TON
ĠWh ose
ĠT ow
Ġappe nd
ĠZeal and
ave l
Ã© r
1 12
h orn
Ġdest itute
Ġre nders
fort y
bes ides
Ġb aff
ĠEng ine
L es
Ġgro aned
Ġrec ur
complete ly
Ġamount ed
Ġm ole
_. --
Ġe cl
U ND
e asy
Ġpat iently
Ġirresist ible
rup ulous
Ġex terior
ag reement
for get
ĠAnd y
Ġ23 5
l oss
Ġm ac
ĠM aced
W ait
d ia
Ġun natural
cl ed
Ġinf irm
Ġfort ified
ĠBu ild
Ġmaxim um
ect icut
Ġ22 1
ĠM es
ro st
Ġphys icians
Ġcount ing
g le
Ġey el
AG TTG
elect ronic
Ġrepet ition
remark able
AD E
Ġj un
ĠAr k
Ġpot ent
fif ty
ĠSte wart
ib al
Ġsingular ly
d well
st ery
ĠJENN ER
it ter
Ġvn to
ĠIs abel
consequ ence
Ġcon cept
Ġ27 0
ĠInd epend
Ġaim ed
Ġatt ach
Ġprov incial
otes que
Ġrejo iced
all ied
Ġter rific
Ġstill ness
Ġprodu ctions
ĠHe nd
Ġexert ions
Ġbu ying
h anging
Ġdev ils
Ġgr ammar
Ġro ast
gh an
Ġstor my
ĠMarsh all
a ic
ĠS ister
Ġflo at
Ġenv ironment
Jes us
Ġimpl ies
Ġ189 8
Ġcollect ing
Ġh ood
Ïī Î½
Ġfav oured
Ġpe arl
yl um
Ġred dish
Ġswell ing
ĠProdu ctions
grow ing
Ġ2 22
Ġpar lor
ĠSw iss
A UL
Ġgrow led
M RS
Ġcandid ate
it ar
Ġpe er
Ġremember ing
Ġm oor
Ġforth with
Ġtrans formed
m otion
Ġske leton
Ġrab bit
Ġwh ir
Ġreward ed
Ġun usually
Ġgrave l
1 18
t akes
ĠL A
ĠCh al
over s
E AR
ĠE ar
ist a
Ġle v
p ron
Ġch icken
T was
ual ity
Ġv oted
ĠSer ies
ĠAr tic
y ne
pre ced
Ġor ator
Ġcaut ious
z an
ag ged
ĠO pp
Ġinstinct s
Ġdrift ed
Ġwag ons
ul u
1 17
Ġsn atched
ans om
de ck
ĠSid ney
Ġor thodox
no ble
remem bered
ĠC ort
AC ACC
Ġdom inions
M a
S ub
c our
l at
n arrow
ĠN ether
d uty
ri et
ĠBur ke
f inger
ĠCh apel
Ġl umber
ch al
mus ic
Ġsol icit
Ġsincere ly
Ġenlight ened
Ġf its
oo ps
Ġide als
Ġspring ing
um bers
Ġthick ly
Ġoblig ations
Ġdet achment
ĠCol or
sac rifice
Somet hing
Ġgovern ments
Ġcon verse
e h
i at
J im
Ġ2 28
ty ard
Ġdiscuss ing
satis faction
D or
Ġverd ict
road s
g ian
ctr ine
commun ication
Ġcorrect ly
dark ness
Ġm unicip
ĠBraz il
Ġcomfort ably
Ġrub bing
Ġcard inal
ous ing
do ors
Ġinval id
p ocket
Ġes pecial
ĠEm ma
Ġvague ly
qu estions
d ust
Ġthread s
Ġcommun ion
ĠDen mark
u gh
Ġaccept ing
ri ans
present ed
1 19
ou cester
y on
of fer
ĠMar ian
s af
Ġbe ads
Ġstub born
id Ã¦
Ġorder ly
Ġri pp
ab ol
ĠB ened
Sm ith
Ġprev ailing
ĠO ak
m ult
1 14
as iness
1 13
ĠN av
Ġen force
ir ies
Ġm ound
Ġgen ial
Ġprejud ices
Ġtend ed
Ġadop tion
Ġr ains
Ġcop ying
il ated
Ġli king
me asure
sto pped
Ġcare lessly
Ġpatri otism
Ġveh icle
Ġc ogn
Ġ189 0
ter rible
Ġsec re
g re
Ġhand ling
ĠS M
ĠB ack
Ġ28 0
Ġaffect ing
bour g
Ġexert ion
Ġdis dain
Ġmil itia
Ġan at
f ruit
corn er
ĠW ednesday
mer ce
Ġb race
Ġback wards
ĠP ic
Ġrub ber
Ġprom ote
Ġb ud
as ks
Ġfoot ing
Ġproject ing
b at
ĠT ib
Ġadv ances
Ġbell y
ĠCor inth
ak i
Ġneat ly
ate ur
slow ly
che ll
acqu aint
A c
s le
ĠRem ember
ow ell
Ġsovere ignty
ĠEmp ress
Ġder ive
ĠC raw
ĠP ick
Ġappear ances
Ġp agan
ser ve
Ġfar ms
Ġextravag ant
ous ins
ran ces
n ell
m ass
Ġsen ate
ĠO LD
Ġ24 5
1 16
Ġw olves
Ġsl ay
Ġshel tered
TC H
Ġsch ooner
Ġtreat ing
Ġwe e
Ġenerget ic
âĢ ¦
Ġimpress ive
Ġspo iled
ĠWall ace
ĠH op
ID E
cor rect
Ġsl im
um bs
Ġadmir ably
Ġresult ing
Ġtables p
Ġvic ar
J oseph
c and
c ried
ass ad
TC TGG
Ġse amen
Sax on
C y
e rest
it ous
There fore
ĠG ate
extra ordinary
or ily
re a
Ġass uming
Ġf ren
Ġhast en
Ġcl ause
offe red
Ġjudic ial
v ict
Ġinterpre ted
Ġmon key
Ġanci ents
ĠD aw
s plend
Ġa str
Ġdesp ise
RI D
Ġg ulf
! ...
TAA GC
ĠM aj
Ġattribut e
ĠF IRST
Ġscream ed
excell ent
ar is
ĠI bid
Ġresembl ed
ĠE mb
Ġ( âĢľ
S oon
we ather
Ġgr in
I LE
Ġwho ever
c ence
v able
ol ia
Ġdisp ersed
Ġindul ge
ĠC e
Ġt ies
V irgin
x ter
ĠC elt
Ġtick et
Ġissu es
Ġbar on
le af
Ġsand s
: _
f ing
... .âĢĿ
Ġpra irie
Ġkne eling
Ġtor ch
decl ared
m oral
Ġal oft
Ġdis mal
Ġfasc inating
c red
Ġlegend s
Ġr ou
Ġv ices
Ġaddress es
ab ella
et c
Ġsh attered
Ġpay ments
Ġpers ist
TTGG CC
ĠRe c
Ġl ame
vis ible
Ġpass enger
Ġkeen ly
ĠWar ren
sh owed
Ġcivil isation
m ers
Ġvol untary
sp ace
Ġqu oth
TAA GG
Ġeffic iency
ess es
she ll
Ġn ucle
cap ital
Ġsubord inate
ess ions
in isc
Ġgr ade
Ġ188 1
eng ine
por aries
Ġ186 6
pl ing
Ġg hast
b uck
F er
Ġfr amed
Ġb oss
Ġpal aces
ĠCH RIST
Ġpret ence
hold ers
Ġfore going
Ġamaz ing
oot s
t ically
Ġod or
f irm
is land
ĠWell s
Ġfam ine
Ġpat ches
Ġfeud al
J ud
Ġfew er
ur st
Ġfanc ies
w ixt
Ġst ained
prof ession
at tend
Ġstates man
car riage
Ġrib bon
ĠN obody
C ONT
ĠG i
Ġda res
ĠâĢĺ _
Ġdist rust
Ġeffect ually
ool s
ra cks
Ġtur f
Ġw ires
ĠEx ec
e ffic
ĠBur ton
Ġm amm
ĠĠĠĠĠĠĠĠĠĠĠĠĠĠĠĠĠĠĠĠĠĠĠĠĠĠĠĠĠĠĠĠ ĠĠĠĠĠĠĠĠĠĠĠĠĠĠĠĠĠĠĠĠĠ
Ġsp acious
Ġornament ed
Ġsh ift
grate ful
Ġhy ster
Ġprospect s
Ġw reath
not ice
l oved
Ġcan on
Tr ue
Ġcro oked
Ġtem por
comp osition
Ġsepar ately
M A
con y
Ġ23 1
Ġbeh aved
atter s
Ġneed n
Ġ189 9
ĠTurn er
Ġth igh
g ie
Ġtub es
Ġpal ms
Ġ23 7
Ġvel ocity
Ch ief
Ġopp ression
Ġannounce ment
l ia
ik h
Ġe ccentric
Ġass ail
br id
ĠP ad
Ġmagn itude
UR N
an ity
Ġexped ient
ĠS ally
Ġus age
v t
Ġafore said
ĠM end
b reed
ĠC ant
l ic
Ġhum bly
Ãª te
h ills
o king
Ġlaw yers
Ġreg istered
---+ ---+
Span ish
Ġre cl
ĠNor folk
Ġloc ation
Ġmoment ary
Ġlun cheon
fortun ate
Ġ23 6
ĠV ice
ĠD oc
. *
Ġstri ving
Ġmist akes
Ġclub s
Ġ23 3
Ġmin ing
Ġcon tend
Un cle
ĠC ord
Ġform ula
H on
Ġd ances
ĠV on
Ġpro cedure
Ġg um
Ġtomb s
ĠEx hib
Ġsp in
asso ci
Ġme nd
Ġ23 4
Ġpatri otic
Ġre ared
ĠDon ald
Ġunconscious ly
Ġel astic
Oct ober
ĠBey ond
Ġ24 1
b ows
Ġobst inate
Ġre nd
ĠGl en
Äģ n
ĠC ase
ĠDe ad
ĠPruss ian
dist rict
Ġbright ness
ch anging
Ġext inct
repe ated
Ġdiss ip
Ġso da
ĠRO BERT
Ġcam els
Ġt unnel
acqu ainted
Ġre ver
Ġcamp s
AG TCC
Ġ23 2
Ġtemp oral
tro ops
ur ous
Ġarg ue
Ġres isted
Ġprecaut ion
su perior
ĠAn cient
Ġej ac
ens ively
Ġre ins
Ġhonest ly
ĠU t
Ġtrave ling
Ġoppon ent
Ġh ounds
adequ ate
Ġun question
Ġorigin ated
Ġtrad ers
ĠS CH
Ġv icious
ĠTH IS
Ġaccur ately
Ġlou der
Ġdiv orce
Ġmod esty
or ms
Ġconject ure
ĠH IST
ip ing
Ġl oses
Ġgl oss
Ġresign ation
Ġth o
princi ples
ey s
ack now
Ġtr ot
ĠWor cester
th ood
d read
ĠPeters burg
IR D
Ġtal ks
princi ple
Ġpig s
ĠD a
ĠLe v
Ġhum ility
Ġh aw
iÃ¦ val
ĠMan chester
Ġrein force
e ze
A ss
ro ar
Al as
Ġworsh ipped
ĠEx cept
bl ind
Ġsoft ened
el ope
Ġmult ip
Ġscr ut
wr ote
Ġninet een
Ġlater al
TG TTTT
fl ag
ĠMar j
ĠT ennessee
Ġdemonstr ation
satis factory
Ġslee ve
R IC
Ġredu ction
Ġrest rain
Ġpost erior
othe red
ind a
Ġreal ise
Ġnegot iations
Ġn un
squ are
Ġdo ings
ĠJ ob
Ġn ail
ĠHe art
S l
Ġcoast s
Ġsuper flu
Ġexec utive
S ur
á¿ ¶
ĠG os
af raid
ru le
d ry
Ġparagraph s
Ġincre ases
Ġascend ing
Ġper t
at io
Ġpenet rate
Ġran ch
Ġcon nexion
Ġdear ly
Ġfo am
Ġl oft
av oid
Ġexpress es
ĠVal ent
wor ship
Ġhor rors
ath a
int ention
b ill
Ġp add
ĠF ern
m ile
Ġrestr aint
ĠCh in
A IL
ru ce
Ġneighb oring
emet ery
Ġref rain
Ġb olt
ul k
Ġwicked ness
Ġto ol
Ġst ain
ĠH ipp
Ġmis er
em n
ĠBr id
Ġclass ic
v ig
ĠM olly
Ġcomp ensation
Ġover throw
min ute
Ġe ve
TG ATC
man ufact
cr im
Ġprem ises
Ġst ooped
Ed ward
y rs
Ġsupp osition
pract ice
Ġbeg ging
Ġtend s
urs ed
Ġintense ly
ĠSupp ose
Ġexception al
Ġdyn asty
tr ad
E arly
ol ine
Ġindul ged
Ġexcept ing
TAG GG
Ġst ems
ĠK ING
og y
Ġdist ressed
Ġenc ouraging
/ /
T er
ĠCl oth
om bs
v ard
ĠJeh ovah
ĠP resent
Ġre ly
Ġint olerable
ĠX IX
se vere
empt ion
alt ar
Ġbreath less
ĠIn stitute
Ġ25 6
ann es
ĠH arrison
Ġhost ility
bott om
Ġcaptain s
Ġhel m
Ġexpl ains
Ġsp ed
Ġobst acles
th in
Ġsett ling
Ġ ib
Ġ25 7
Ġsupre m
Ġcontempl ation
ser ious
Ġcr ush
Ġstrugg les
ĠCr us
whe el
air d
Ġpulp it
Ġdust y
Ġbe ck
Ġve xed
Ġm aps
Ġg ains
Ã ²
sc ope
i ature
Ġl os
ie g
Ġ23 8
Ġlux ur
mark s
re sembl
ac a
Ġobst acle
ri ving
un ion
AC TTG
Ġimper t
ĠR aj
ent ious
st aff
Ġs es
Ġconsec rated
necess arily
l oo
writ er
ĠF ront
Ġghast ly
Ġbenef its
Ġchar iot
ot est
m art
Ġse izing
play ing
Ġf ern
Ġg er
AC AAAA
ct ive
Ġcryst all
Ġap ology
Ġingen uity
c ourage
norm al
Ġtel esc
Ġp au
cy cl
Ġequ ipped
ject ion
in formed
Ġpast or
ĠHU BERT
old ed
Ġqual ified
Ġstern ly
d ise
Ġroll s
Ġd art
Ġdest ructive
se at
ĠM R
iz en
tr ain
Ġn ap
p ipe
ub b
Ġpast ure
Ġpract ices
grow th
Ġre ci
Ġde em
ĠB ud
Ġ24 3
ĠG az
o an
El izabeth
Ġplant ation
n ance
Ġtri vial
ĠM all
ĠCab inet
tw elve
ĠBapt ist
ign ity
b reath
Ġf ow
Ġind ication
educ ation
ĠL yn
Ġemer gency
bene ath
ĠI van
ic ke
arr anged
ĠA ber
qu it
Ġ26 5
em ic
Ġappro aches
int ing
um sy
Ġc ough
Ġ24 9
Ġbl unt
Ã© d
ĠS andy
Ġresc ued
Ġplun ge
ta ire
oc olate
Ġdist ur
Ġregret ted
Ġ188 2
Ġacc idents
rid ges
Ġh ob
deg ree
if erous
Ġ24 2
Ġ24 8
M ount
Ġlight ing
ĠFor ce
Ġ3 50
TC AAC
w ig
R et
ĠKe ep
+ ,
y th
Ġperson age
ĠSy d
Ġeyeb rows
Ġhost ess
Ġ18 51
Ġdev ices
Ġ25 5
ĠHar vey
Ġd arted
ĠArab ic
c ook
Ġde ity
ĠD y
Ġyear ly
Ġfortun ately
Ġno blest
bit ter
am er
P RO
c ultiv
am pton
Ġpe aks
ĠIn formation
Ġann ihil
AT ATAA
st ick
Ġaltern ative
ter m
matter s
ĠU ntil
ĠIn to
Ġbene fic
Ġeman cip
ien ne
ĠK er
ĠH ob
ier re
Ġ24 7
in ters
Ġexpl aining
Ġf ederal
ĠLiber ty
Ġ24 6
ev idently
Ġcommun ities
Ġgle aming
Ġvi olet
ĠS ound
Ġind isc
TG AAAA
id ian
all as
Ġ23 9
Ġhe aps
wor ked
Ġelder ly
Ġ24 4
TER S
j ah
ĠC ole
ĠH OW
TG ACC
Ġp ars
Ġexp ose
Ġres ided
b ie
ĠSw ift
ĠS ig
Ġindul gence
Ġcurrent s
Ġbes ee
light s
ad op
Ġtri es
S urely
an za
Ġfer vent
ĠPer u
Ġadd itions
Î± Î½
Ġ18 76
Ġcrown s
Ġric hest
g om
v alley
Ġn uts
ĠP ART
ĠCl iff
Ġval ues
Ġgro an
ĠS pr
sm ile
TT A
b irth
ĠCh ronic
suff ering
ĠS now
ĠB enn
Ġcalam ity
ract s
OU T
Ġtroubles ome
ĠSy stem
ik a
ĠW m
Ġhapp ening
F r
Ġqu ivering
ang ling
Ġhence forth
_ "
Ġsk irt
is ans
Ġsh ares
Ġmar rying
ĠF arm
requ ent
Ġj unction
ĠRich ards
ĠAl ps
Ġdisc rim
to fore
ĠTh an
g ins
Ġadmir al
Ġsen ior
alend ar
Ġins ane
i ences
dep art
Ġm un
ĠB ag
ĠCh aucer
ĠFif th
S yn
com ot
O THER
Ġinde x
Ġdid st
Ġsp ray
Ġra gs
Ġc ement
ĠL ily
Ġ18 71
Ġspec ified
Ġhel met
B o
Ġdig est
ous se
ĠP lymouth
rel ief
Ġl ass
C ON
ell er
Ġwond rous
Ġchamp ion
Ġgu ides
O ver
Ġt avern
Ġ188 4
Ġhistor ians
Br own
Ġdesper ately
Ġent rusted
Ġ19 13
f un
.) ]
Ġkingdom s
Ġflag s
ĠFriend s
Ġsentiment al
Ġtre asury
Ġar c
av ian
ĠChrist opher
C ent
Ġl ions
ĠL ess
ĠG y
Lie utenant
Ġst ating
ĠM axim
s and
ĠC art
ĠE z
ann i
Ġs inner
Ġpro x
Ġord ained
Ġdefect s
enth us
cit izens
IEL D
ĠPe ggy
Ġembark ed
M R
w right
num erous
ĠBas il
ĠJ en
M ass
P ers
equ al
Ġproduct ive
ra ces
succeed ed
Ġinter mediate
ling ton
Ġsc al
Ġm ute
ĠF ate
Ġover looked
ĠQue bec
Ġrot ten
Ġbirth day
compan ion
ĠEurope ans
Ġlo af
hig her
Ġch alk
Ġro g
Ġplan ets
n am
Ġannoy ance
Ġobed ient
Ġr im
Ġsle w
Ġsuper stitious
Ġuncertain ty
TA IN
et ing
ink ed
Ġun kind
Ġim itate
P ri
Ġp ension
ĠCOMP ANY
ribut ing
des cription
Ġsh rub
it ives
ast rophe
Ġexcl uded
at ra
Ġan ew
Ġc alf
UST R
Ġattack ing
C orn
ll o
Ġp inn
Ġcontribut e
ĠD isc
s imply
fin ally
ĠB RE
ric ate
Ġsu icide
Ġcount less
Ġnost rils
iscop al
W ood
ĠJ u
ĠG as
ĠCreat or
h ab
k ne
Ġendeav or
Ġsuprem acy
Ġp el
TG TAC
M el
ĠD ark
Ġdifferent ly
Ġen forced
ĠU S
ĠI l
eff ort
Ġst urdy
Ġwe ird
Ġx iv
Ġexec ute
ip se
Ġcr adle
Ġs ales
ĠJosh ua
ce lebr
Ġghost s
re lla
l ips
Ġt asted
ĠC AP
Ġcomm iss
Ġdra gging
Ġoverwhel med
Ġx iii
Ġch art
str icken
Sh ak
Ġ190 5
Ġstock ings
Ġsuper ficial
Ġa ims
ĠCl aud
ĠTH OMAS
Ã© g
Ġins ight
Ġcontempl ated
ather s
char ged
ĠC el
esc ape
N one
m ajor
ves sels
ĠFort une
Qu ite
ĠMus ic
Ġrepent ance
t ur
EM ENT
Ġm uc
ra ced
ia e
w an
ĠRay mond
Ġkn ives
ph in
Ġsec ular
Ġmis fortunes
Ġ25 9
Ġ188 5
Ġpir ates
un ned
tr am
ĠL an
Ġ190 6
ur ated
Ġill usion
: //
Ġsub t
Ġvar ies
Ġarbitr ary
Ġf uss
N ovember
sc ene
ices ter
Ġdev ised
Ġo ct
Ġaf ar
cl ad
Ġlo an
spirit ual
Ġlif etime
p ox
Ã¢te au
ĠM iles
Ġlab ore
Ġfragr ant
um en
sy n
Ġla ure
Ġ186 7
Ġc aval
Ġcom pel
Ġconfirm ation
und ers
Ġte aring
r h
Ġ25 3
Ġban ner
Ġstand ards
ow e
Ġcontribut ions
Ġsl ide
Ġhang s
ĠF ab
Ġsur faces
reg on
pri est
Ġto e
TT ACC
nd on
Ġw agg
ĠT it
he at
Ġb k
Ġwe eds
Ġdig ging
ĠExcell ency
Ġins ignificant
ĠTre asury
Ġrav ine
Ġad mon
Ġmyst ic
Ġcondem n
Ġcam el
Ġch oked
princi pal
Ġ29 0
S unday
c un
Ġtw elfth
hens ible
Ġpe b
like ly
idd y
interrupt ed
Ġoccup ying
Ġ186 9
Ġrequ iring
le igh
Ġintim acy
ĠP ain
May be
Ġz one
l ifted
he ars
Ġper pendicular
Ġch rist
end ed
le vel
Ġsuper b
j u
Ġretreat ed
Ġdo e
Ġpaint ings
ĠG ir
ĠK ath
Ġen large
Ġra bb
Ġ25 4
ĠÎºÎ± á½¶
Ġlod gings
Ġpost erity
Ġcomprom ise
Ġsleep y
Ġoverwhel ming
AY S
Ġdet ained
Ġ25 1
Ġ25 2
pe lling
ab und
Ġdem ocracy
Ġviol in
cl ing
pre par
Ġsmo ked
Ġ6 00
Ġthreat s
es ch
Ġtra versed
OL L
Ġm ature
Ġp ots
Ġcons umm
Ġjud ging
occ o
ĠChar ley
ĠCh amp
Ġco venant
om ical
Ġdark ened
iss a
incre ased
es cend
Ġcl aws
De cember
Ġ186 8
Ġstr ata
Ġfle x
ĠPh Åĵ
Ġdo ck
ile t
ill o
Ġsuccess ors
Ġhost s
R APH
ex ceed
concer ning
Ġqu od
ĠB av
Ġres urrection
Ġp ines
ĠR achel
Ġdim ly
Ġun broken
AN K
suffic iently
Ġper sever
assad ors
TAA CC
Ġdis claim
ov a
Ġfor ts
ĠPres byter
w aters
Ġh ier
ĠLaw s
ĠS old
the st
Ġcolon ists
stud y
im ity
ĠBl ood
Ġ25 8
cap tain
ĠCan al
Ġparl our
oss ibility
ĠB ul
se vent
Ġconduct or
app ropri
b are
ad ier
Ġa h
Ġterrit ories
ATT ATT
Ġ18 72
Ġex empl
Ġca vern
Ġtrans mitted
Ġemb ry
ĠN az
Ġheav ier
Ġ26 8
Ġbon net
ĠFil m
Ġl ump
Ġk icked
ĠHol mes
experi enced
Ġper taining
Ġ18 78
ĠM aine
ĠF landers
ex hib
ge ons
Ġ27 5
Ġshe lf
C ur
.= âĢĶ
ĠR ud
Ġhall s
Ġmourn ful
AA TATT
6 00
ĠMc K
us sels
rec ord
Ġw ig
Ġm ason
Ġener gies
B L
ĠĠĠĠĠĠĠĠĠĠĠĠĠĠĠĠĠĠĠĠĠĠĠĠĠĠĠĠĠĠĠĠ ĠĠĠĠĠĠĠĠĠĠĠĠĠĠĠĠĠĠĠĠĠĠ
Ġsal ute
gu er
ĠP AGE
Ġchar itable
ĠEduc ation
n us
Ġbe ans
em p
appro ach
Ġcert ific
Ġ18 46
Ġst ren
n uts
Ġsub marine
f rey
ĠVin cent
Ġple a
Ġcree p
onel iness
ĠLe o
dis ci
ĠEr nest
Ġw ed
Ġon to
Ġbe et
ro of
TC TTTT
Ġbright er
Ġexpend iture
ĠTreat y
Ġdisc ord
it ual
ĠNew s
Ġf oc
Ġb oughs
F ORD
T hy
Ġg ap
ĠCont inent
Ġrul ing
i op
ENER AL
Ġâ Ļ
Ġstri ve
OV E
b ast
Ġcur t
o ise
ĠH amm
Ġgo ats
2 50
am ous
R ose
Ġbr im
Ġback ed
ĠAugust ine
ab and
B i
b rill
Ġperil ous
exp ressed
Ġ18 40
o ire
TT AGG
I mp
ĠCoo per
ud ic
ĠHon or
cl im
Ġs angu
and ing
to le
TAA TTTT
al tern
ĠTheod ore
n ings
Ġprom oted
Ġprom otion
ĠEx am
expl an
Ġfor cing
ĠF ish
Ġar rog
Ġinter posed
Con f
ĠW AL
ĠMary land
or o
id al
ĠP apers
ours es
P ray
Ġobser ves
Ġworth less
O OL
RI B
self ish
Ġapost les
Ġsc ound
Ġdeli very
Ġex asper
R oyal
inv estig
or i
Whe ther
Ġfor k
Ġkiss es
E ast
Ġalleg iance
Ġlay ers
v ain
Ġquar re
ipp ers
Ġout break
s now
OS S
ĠB eng
and in
Ġk il
Ġun its
ĠÎ ±
Ġass ented
G ER
ĠAustral ian
Ġc u
Ġst ing
ĠB ox
Ġbut cher
Ġdis astrous
friend ly
N either
Wh atever
Ġ190 7
Ġaltern ate
ĠFel ix
C ourt
ack ing
Ġ18 54
ĠC row
Ġmaid ens
imp ression
Ġdep ressed
Ġestablish ing
Ġbesie ged
ĠF all
Ġed ifice
Ġ18 77
ific ent
ĠAcc ount
Ġbloss om
if ferent
col or
C ould
G entle
Ġper v
Ġ18 30
Ġ190 1
Ġmetap hys
Ġintegr ity
Ġ189 5
Ġle aping
ĠS OU
Ġfur iously
iment ary
w alked
Ġembarrass ed
ĠRe ason
Ġmemb rane
Ġbra very
Ġ26 6
Ġacquaint ances
Ġvain ly
Ġhyp oc
on ing
ch anges
il ess
Ġentertain ing
Ġnur sery
È Ŀ
Ġd in
ĠA th
ĠK al
ĠK ore
Ġt ests
in vol
r and
ra ck
ĠD iana
ĠT ree
Ġsun rise
est im
Ġpract ise
car rying
h art
div ision
gentle men
ĠConstant ine
ĠBeaut y
r ul
ĠRe f
ĠCal vin
Ġassoci ates
Ġwrong s
ĠB ot
Ġpron ounce
Ġd agger
ĠIn ternational
Ġrad ical
Ġ27 7
Ġne gl
kn ows
Ġdesign ated
Ġed ited
Ġ18 12
f ra
ĠBalt imore
e ager
ĠGl asgow
Ġappl ies
Ġsk irm
Ġnoble man
ĠWeb ster
ĠJ am
Ġdepart ments
know ing
an se
Ġval iant
Ġcapt ivity
ĠP vt
Ġ26 7
Ġshadow y
Ġ190 4
Ġcons cient
Ġsc our
div ided
conc iled
Ġexpress ive
Ġaut omatic
Ġve hement
Ġ26 1
ĠSyd ney
contin ue
Ġr anges
Ġdisp ose
ĠItal ians
ĠC ock
Ġmot to
Ġyou ths
Ġal ph
Ġconnect ing
m ut
ĠSh ip
ĠTr ust
Ġdwell ings
should er
Jan uary
Ġmod els
Ġpar ade
aff airs
Ġcont ing
k u
in cing
pl ays
Ġadvoc ate
Ġpubl ish
prom ise
Ġto morrow
sh own
Ġnovel ty
Ġfra il
M ah
TC TAC
ĠRog ers
Ġvigor ously
Ġvine gar
Ġinv aded
Ġ26 4
G TGG
Ġrob bers
li hood
ĠÎ µ
. âĢķâĢķ
Ġh ailed
lo ving
ĠLes lie
Ġple ases
F inally
d le
Ġmet e
c ers
F OR
IS ON
Ġwere n
Ġgrim ly
out e
âĢĿ .
Ġpe ak
Ġsk illed
cr own
r ings
Ġ26 3
ĠAl most
âĢĲâĢĲ âĢĲâĢĲ
Ġgrand son
ĠS ah
Ġmonarch y
Ġ18 75
be ck
Ġ26 2
ĠL ine
Ġrestrict ions
P ass
ill ity
B ob
h oles
D ie
ĠMil itary
Ġmechan ism
Ġch annels
ĠV OL
Ġacqu ies
ĠPl ant
Ġaspect s
ĠDan ish
B R
ĠPr ay
á½ °
tell ing
ĠThe atre
Ġ27 3
che er
ĠP RE
g uns
appe aring
ĠConfeder ate
ĠVenet ian
Ger many
fight ing
Ġra ven
Ġweak er
Ġrestr ained
feel ings
ĠJul ius
Ġcoo lly
Ġpier cing
ĠW it
pt ic
cont ented
Ġbright ly
bes ide
ĠPol ice
ĠMist ress
Ġf ills
ĠG U
Ġmaid s
Ġdiss atis
ĠD irect
spe ech
Ġur ging
Ġm ouse
Ġst ature
Ġstart s
my ster
Ġquar rels
Ġpamph let
n ative
Ġas pir
Ġres ume
âĶĢ âĶ
Ġobl ong
Ġsn uff
Ġb ald
oss ibly
Ġtr uck
ĠPL ATE
s burg
ar ius
m akers
Ġro ds
s ir
S ix
Ġs q
N ature
Ġc yn
Ġauthor ized
ne um
b ones
d ism
Ġpra ises
act ually
N ER
Ġm i
Ġp ard
Ġmess ages
Ġhard y
J ournal
Ġc ripp
Ġd ow
Ġdesp atch
A tt
iter ated
Ġs ings
Ġcon ceptions
Ġd oubled
W r
Ġ18 57
Ġsom bre
ĠR on
be e
great ly
Ġsoot hing
udd led
B ill
ĠCan terbury
S everal
ĠFran Ã§
Ġemploy er
Ġid iot
ĠJ ordan
Ġcommon place
pp y
ĠG RI
spect or
Ġbapt ized
S P
st ates
app ointment
Ġbrid le
Ġesc aping
ĠAs iatic
ĠP ole
ĠG un
Ġamount s
Ġ188 3
ĠNor mand
Ġb ug
Ġfor lorn
ĠMont real
Ġstruct ures
st age
Ġbu zz
## ##
s udden
ort ion
ĠC arr
Ġ18 47
Ġridic ule
Ġinev itably
S W
ĠLad ies
Ġpar ap
act ing
IN A
ither to
br and
Ġbound aries
Ġher mit
op ening
edd y
z ig
m arch
ĠâĢľ âĢĺ
Ġpain fully
ĠLouis iana
Ġ190 3
ĠHung ary
Ġpl aster
ĠB ristol
ĠC op
Ġab hor
Ġcommun ications
Ġend urance
Ġobst in
re ach
sp ot
ĠP ract
ĠH og
omer set
Ġrevolution ary
Ġinf ancy
ing ale
ors al
air y
Ġcour tyard
sur prise
ĠN athan
Ġrid ges
Ġgrat ified
Ġconsequ ent
would n
ĠBon aparte
Ġerr one
Ġab omin
Ġag gress
ch in
ograph ic
ĠMos cow
ĠMc G
Ġrejo icing
AN C
Ī Ĵ
Ġcons iders
ĠF ri
Ġpatri arch
ĠW esley
Ġ27 1
Ġv ines
ATT TTG
Ġins criptions
imag ination
ĠH OUSE
D own
ĠS in
Ġrest aur
Ġrec ourse
oun ces
Ġsal uted
conn ection
Ġb ast
could n
i ator
ĠD O
Ġvolcan ic
Ġcourte ous
Ġod ds
name ly
Ġb ail
acher s
Ġeld ers
ĠH ector
Ġpro ving
Ġappe als
Ġ28 5
Ġtop ic
Ġdazz ling
TG TATT
Ġdiv inity
Ġsimpl est
p urch
Ġembarrass ment
w ait
Ã¨ res
T ime
Ġ189 3
Ġsh an
intellect ual
Ġ27 4
Ġat om
Ġjoy ful
Ġ188 9
val ier
d ouble
ĠA bs
Ġ26 9
b ach
rem ains
Ġ27 2
Ġw oven
earn est
Ar thur
abs olutely
ĠVirg il
Ġf erv
RE ET
ĠH undred
Ġfix ing
serv ations
achel or
v ic
exam ination
and ise
ĠGabri el
st ay
ass istance
Ġassoci ate
Ġd ub
on to
ĠS ue
s ong
ĠWin chester
Ġbl asp
Ġspect acles
I NN
Ġaccommod ation
ha ust
Ġev ac
Ġfug itive
ĠRE V
Ġunt r
Ġ3 20
10 8
subject s
Ġsanct uary
Ġplent iful
zz a
ĠP oll
Ġfor giveness
Ġs cient
Ġ18 79
Ġdam n
t an
Ġgener a
fam ous
Ġsk ipper
Ġune qual
Ġbab ies
Ġdelight s
Ġapp lying
ild e
ĠD ame
Ġac re
ĠConn ecticut
Ġto ast
Ġsqu ir
inst inct
ĠEs sex
Ġb isc
ar o
ag ram
incre asing
ing le
Ġun b
Ġimp lements
Ġcollect ions
ac o
} ,
Ġcomp r
Ġins cribed
ĠB U
foot ed
c od
st ir
G al
s ize
ier ra
Ġmaj estic
Ġ189 6
Ġlast ly
ll is
to ps
Ġex erted
ĠM ong
Ġinf all
necess ity
ĠRe formation
Ġnot orious
Ġl ists
Ġsight s
AP P
ca used
Ġint u
t u
Ġoccup ies
W ater
Ġst ip
Ġtradition al
Ġl ac
ĠPri est
Ġ190 8
Ġcler ks
kins on
Ġdemonstr ated
k iss
Ġfer ment
she l
Ġ189 2
Ġperf ume
Ġd ye
Ġhon ored
Ġthr ice
ara oh
uzz le
dist ant
Ġkn ots
king dom
Ġl ugg
Ġgr otesque
iqu es
ĠBe hind
are l
introdu ced
ĠG ren
min ent
y ield
Ġpill ar
Ġher bs
Ġ188 6
Ġn inth
irl ing
av il
G reen
Ġpers istent
Ġun fit
anc ers
Ġo ri
Ġw ww
Ġw an
Ġown s
ant i
are th
creat ure
ĠTh ings
be coming
Ġreg ister
Ġde y
jud gment
o i
Ġimp ly
Ġmet allic
Ġad ul
Ġra ging
Ġye a
Ġsk irts
all a
ard e
ri x
I rish
Ġ189 7
Ġmel ting
c os
ll i
Ġsal oon
cil iation
Ġ18 58
spe ed
Ġl id
let cher
ATH ER
is bury
Ġph osph
Ġabol ition
Ġweigh ing
Ġy arn
AC TGG
Ġpre text
Ġhymn s
ĠL arry
ĠC ave
Ġ18 59
Ġrob bery
A ct
Ġout fit
Ġde xter
Ġ28 9
Ġap ron
b ore
ĠĠĠĠĠĠĠĠĠĠĠĠĠĠĠĠĠĠĠĠĠĠĠĠĠĠĠĠĠĠĠĠ ĠĠĠĠĠĠĠĠĠĠĠĠĠĠĠĠĠĠĠĠĠĠĠ
ĠHast ings
Ã© es
pract ical
ud dered
ĠGeoff rey
Ġ188 7
Ġwa iter
Ġb rew
ist urbed
ĠM ans
ACC ATG
ĠMed ical
leg s
Ġgrie ved
if ts
Ġing red
ro be
Ġga ily
Ġst ops
Ġd uel
De ath
Ġtransport ation
n ay
arn ish
Ġam mon
ĠT ed
Ġind ications
Ġdra ft
er idge
y ng
Ġun mistak
Ġaccident al
s wer
Ġ18 73
c ities
Ġric her
Ġthir teenth
Ġsh ipping
Ġadm its
me al
Ġsplend or
Ġse wing
con qu
w ounded
Ġste pping
Ġs ly
ĠPl at
Ġgif ted
aw ed
Ġant ique
A unt
Ġar ter
ex actly
hon our
Ġacc ession
Ġcor poration
á½ Ĳ
un ts
Ġunexpected ly
Ġopp osing
enz ie
Ġstri ps
Ġ28 8
ĠD ante
Ġlegisl ature
Ġ( -
Ġgood ly
f ur
g as
ĠB RO
Ġacqu is
Ġpeculiar ities
Ġaltern ately
lad ies
L ast
P ART
ich t
vent ures
che l
Ġloc alities
10 5
Ġeleph ants
Ġorgan ism
cle an
con tained
ĠGene va
i oc
eth oven
B oston
t ar
ud ley
pop ulation
n ets
Ġem inence
Ġconquer or
M ON
f ail
poss ibly
Ġ189 1
ĠEv ans
Ġdri ll
Ġenc amped
ĠStr ong
Ġsl id
ĠEd ited
Ġinterrupt ion
b is
ĠH um
min ister
F L
ĠAN Y
cal cul
ul ace
Ġsign ifies
b old
ign y
ĠS ad
g ro
Ġso d
Ġbeh ave
Ġpar adise
ĠNor wich
ĠPl ay
Ġfire place
Ġyell ed
ĠR ub
Ġwood ed
Ġa z
Ġw al
Ġs ine
ir am
Ġcomple tion
develop ed
Ġ190 9
Ġsymb ols
Ġexp ansion
Ġ28 1
ĠHistor ical
Ġsw ollen
Ġrese arches
ĠF ew
Ġimpro bable
ce tic
are well
our ce
Ġpre gn
ribut e
ig ger
Ġev ap
it ime
m ixed
Ġprec ision
Ġh av
a illes
ar re
Ġcolon ial
ĠB elle
Ġsign ature
Ġ28 3
ĠÎ ¿
Ġt ang
Ġth orn
Ġ18 74
L and
Ġbl ot
mach ine
Ġste ed
Ġ27 6
ĠAp pendix
Ġshaft s
ab ama
adv ance
L isten
ly ph
Ġcl umsy
Ġres olute
Ġ188 8
Ġow es
T imes
Ġl oop
ĠSt range
Ġg ust
m ast
Ġg em
Ġpit iful
Ġhon ors
ĠTr ave
Ġ28 6
ĠCON T
Ġm uddy
Ġag greg
Ġspe ars
Af ric
ĠBird s
Ġqu er
le en
Ġinj urious
t rying
Ġdece it
gr ay
Ġ28 4
O ff
he um
Ġstro de
Ġten ants
) --
Ġd usky
Ġal k
Ġad herent
Ġkind led
Ġtail or
Ġfour teenth
Ġdrink s
ĠV it
Ġrel atively
io v
liter ature
ĠC and
Ġrob ber
| |
v ary
il ia
l ation
t ics
Ġstud io
Ġlibert ies
M et
Ġsket ches
Ġcor al
Ġgra pes
should ers
danger ous
Ġver ge
contr ary
Ġt ak
h oly
Ġcorrespond ent
ĠBoy s
od ed
ern ation
Ġshr ink
Ġk ettle
Ġbefore hand
gr ounds
Ġst umbled
it ie
ĠG riff
Ġ27 9
wr ite
Ġb ob
rel ations
Ġconf ronted
mer cial
Ġretire ment
Ġfor given
Ġp ork
pro c
Ġt ex
Ġcommission ers
Ġmed iÃ¦val
c ery
re ndered
ĠG iles
im per
ĠP is
ra re
mas ters
AT ED
AL S
stit utions
Ġ27 8
ĠT otal
og a
Ã¦ a
Ġ28 7
ĠS yn
Ġ190 2
AG TAC
ĠWat son
Ġcomb ine
Ġaccess ible
ĠJes uits
Ġconc ur
Ġval ve
Ġincor por
Ġlim itation
art on
Ġremind s
Ġl uminous
ĠS ummer
ĠB omb
mo ving
Ġapost le
p enny
iff s
ĠL en
k ill
ĠN ation
com men
Ġhouse keeper
Ġresol utions
Ġperfor mances
Ġb amb
t alking
Â ¼
Ġstag gered
G AC
Ġtreacher ous
AA T
neighb our
Ġdipl omatic
Ġcom ic
> ;
Ġcast les
ĠGRE AT
wind ows
hur st
Ġv ib
pro pri
Ġun p
IV ER
Ġc ousins
Ġt uck
Ġt a
Ġra p
ith met
Ġnow adays
Ġdam aged
Ġ28 2
ĠGl oucester
" .
ĠDer by
Ġdo d
Ġ18 52
Ġearnest ness
ĠC rit
Ġdis regard
de b
Ġhel ps
Ġconstit utes
ĠPol ish
Ġconf inement
Ġsusp ense
Ġunf av
ĠB ody
Ġl ain
Ġmonot onous
fall s
Ġ18 14
Ġcl an
Ġpass ive
ĠN ame
C OM
Ġresour ce
id an
Ġtoler ably
m ail
ĠW a
Ġarch bishop
Ġwh ipped
Ġune asiness
Îµ Î½
ĠB EL
Ġt ips
im mediate
Ġgall op
ĠB es
ĠD ol
Mar g
Gover nor
Ġsimult aneously
att ract
ĠPers ians
ĠR un
pr ay
ĠTh ought
Ġcar n
aun ted
ĠJacqu es
Ġp iles
Ġfl or
Ġfirm ness
Ġwit hered
ig en
Ġ18 56
creat ures
op ter
ile e
H or
chie vous
Ġpoison ed
au ld
ĠL L
ĠM oll
Ġ18 55
p ure
p i
ĠL ay
He aven
Ġel im
s cience
Ġstro kes
l od
Ġbet wixt
Ġaccum ulated
be it
ĠH ook
s ized
B on
Ġimmort ality
Ġe pic
ĠMay be
Com pany
se ed
ist ant
Ġhe aling
res cent
it Ã©
AGAA GG
se ts
---------------- --------
ĠH ood
per ors
res a
Ġle ver
Ġmerc iful
Ġcl ue
ĠUn less
th ank
che st
Ġh ides
stit utes
Ġneed ful
Ġpres erving
Ġfr antic
ĠB ALL
Ġhard ened
Ġtr ay
Ġpursu its
Ġfl att
Ġ3 10
ĠMort on
p owered
ĠS ong
Ġe ll
TAA TAA
Ġtrans verse
ett es
ens on
ell es
Ġdown wards
ull s
occasion ally
ĠCub a
Ġrestrict ed
ais y
Ġb ould
Ġmass acre
tri umph
T en
ĠSpe cial
prot ected
Ġman ual
Ġtransp orted
Ġthe ore
ĠWag ner
Ġshr oud
end om
J ean
Ġsa p
Ġhabit ual
Ġins urrection
Ġzeal ous
prot ection
ĠInt roduction
tt es
TER N
Ġfor bear
ark er
act ivity
Ġdes olation
Ġprompt ed
Ġsur ve
Ġfav ored
ĠK or
Ġwhisper ing
rew s
u ating
Ġemotion al
Ġext racted
expl ained
b ri
Ġtend encies
cel ain
w ished
Ġind ustrious
Ġachieve ment
treat ment
ĠEn ter
st an
Ġin fin
.âĢĿ âĢĶ
Ġadvers ary
Ġkiss ing
Ġobl iv
u pper
rest ed
Ġreason ably
Ġtar get
T ri
om ination
an ning
phys ical
pp ery
Ġplate au
Ġcompre hensive
Ġo le
ib i
ĠR oland
per form
ĠÃ¾ e
look s
Ġsh awl
grad ation
Ġcor por
Ġheres y
h unting
Ġpar cel
Ġhosp itals
suff er
pect ive
Ġsym met
Ġge omet
Ġling ering
ĠD in
Ġdyn am
exc itement
Ġforci bly
Ġs ow
10 6
ath s
Ġpow dered
compan ions
o bey
ĠF oster
sugg ested
Ġto y
Un ivers
á½ »
z i
ĠHer cules
Ġsent in
ĠP orter
ĠM Ã¼
sh r
Ġcrim inals
qu ire
Ġmount ing
break fast
in stant
ĠH ouses
f emale
ĠPH IL
ĠEle anor
cur ious
Ġfact ors
te es
Ġrad io
ĠM ON
ĠI LL
Ġ29 5
Ġfac ility
Ġshru bs
stre ets
Feb ruary
Ġproject ed
Fran cis
surr ounded
ap art
Ġboil er
ĠC od
Ġimpro per
advant ages
Ġall ows
rem oved
id o
Ġtrave led
ĠV iew
Ġadm iring
Ġstat ute
Ġtu ber
b reat
Ġf ract
Ġcra cked
M ich
v iz
t aste
direct ed
M ess
on so
was hed
H arry
Ġsat in
Ġlong est
ĠE agle
produ ction
Ġsh aded
Ġirrit ation
Ġscul pture
Ġprosec ution
Î¿á¿ ¦
Ġh awk
in ers
be comes
Ġrepl ies
-+ --------
Ġv ibr
b anks
Ġb acon
Ġphotograph s
ell i
Ġped est
Ġman or
Ġrespect ful
c am
Ġsitu ations
Ġser mons
ad venture
M ake
Ġkn ocking
Ġp anting
Ġall y
Ġber ries
ĠM abel
bre aking
Ġjump ing
ib ald
ĠMin isters
ro gen
Ġen acted
Ġcat alogue
az ines
Ġo l
âģ Ħ
mem ory
Ġc aves
Ġident ify
Ġquot ation
ath am
Ġ18 49
ped o
Ġimp ost
Ġcomp ressed
Ġlegisl ative
ĠFl ora
Ġboard ing
intell igence
sold ier
o ves
Ġwhere fore
F e
Ġmirac ulous
pl ane
fal se
Ġoccup ations
ay ette
re pro
Ġa ft
Ġstr ate
Ġdru g
Ġmor bid
Ġdel ir
Ġdiscover ing
Ġmanuscript s
Ġ18 45
ĠBy z
Ġd ip
og ene
ĠPo et
Ġ âĢķâĢķâĢķâĢķ
Ġanalog y
Ġt int
ĠRe yn
Ġchuck led
ĠPhil osophy
ell s
We re
Ġcraw led
Ġsol ar
w id
Ġvict ories
ĠPri vate
D em
ĠE sk
ĠWar wick
Ġdiv iding
ĠHar riet
ĠH old
10 9
Ġextingu ished
t ight
Ġpot tery
keep ers
Ġstr icken
do ctor
Ġyellow ish
Ġcur led
obed ience
i Ã¨re
ĠEve lyn
ĠP ear
pol it
ĠS und
Ġstra gg
ĠCommission ers
ons hire
bro ok
Ġdis k
Ġout lines
Ġepis ode
Âł Âł
Ġex pelled
Ġbr icks
is ers
Ġle e
Ġsuggest ive
ĠS ene
g rey
Ġthe ological
Ġret iring
Ġwear iness
dis appeared
Ġste er
Ġste alth
Ġlaun ched
Ġ30 5
ĠM aud
Ġarist ocracy
Ġins pire
Ġ3 30
Ġstr ay
Ġinj ure
ul ates
Ġmeas uring
ena issance
grad ually
ĠHigh land
Ġfl aming
Ġhome ward
Ġpl ung
Ġins in
ĠDe cl
Ġoffer ings
ĠPr inces
Ġtum bled
liber ty
im ps
ĠSt re
fact or
AAG AC
direct ly
c ill
Ġ29 1
re aching
Every thing
Ġabol ished
hand some
Ġtw ist
Ġv ows
Ġprecaut ions
ar ians
ĠG ay
ney s
ĠL omb
Ġmod ification
ar um
Ġdirect ing
ĠA aron
Ġ29 2
Ġco als
Ġcap it
Ġhoof s
Ġornament al
ad m
M uch
word forms
Ġbl uff
Ġreve rent
Ġtranqu il
t ax
sl ave
qu ality
AG TTTT
er d
Ġconf ine
Ġe ch
Ġtr out
Mart in
ĠC umberland
Ġn ave
Ġign ored
Ġint ently
ĠA gric
Ġdra wer
if ix
ĠP lease
con stant
12 5
Th anks
ĠAl ready
Ġ19 10
ĠCair o
Ġpredecess ors
G AR
ĠXX I
ĠDe f
Ġexhib its
Ġnice ly
ater pill
Ġfast en
Ġcapt ives
Ġmort ar
âĢ ł
Ġ29 3
IL Y
ik i
NE Y
Ġre pt
er os
ad der
Ġsimilar ly
H ard
Ġpassion ately
Ġgl ist
Ġgot ten
Ġr het
Ġsal mon
happ ily
Ġgro ves
agg ard
ĠCom te
Ġres erv
follow s
ĠYork shire
Ġdef ensive
Ġfl int
Ġpen insula
Ġround s
ble ms
Ġt ails
ĠD ale
N ESS
Ġdeliver ance
Ġpoison ous
ĠMo ors
atur ity
Ġcontribut ion
Ġt ire
Ġsub stituted
Ġr attle
UC K
ty pe
j ug
ul c
cul ine
S at
ves sel
f an
ĠBudd ha
Ġ18 00
Ġrepresent ations
Ġd io
Ġpe ered
Ġthri lling
ĠEd win
CONT ENTS
S k
t al
ĠR ivers
Ġenl isted
Ġk m
Ġte aches
OL OG
on gh
Ch arl
p owers
sk i
third s
D uke
ĠL iv
Ġreg ulated
ĠH unter
Ġencl osure
ot to
Ġcomfort s
Ġrout ine
Ġo be
Ġpr inter
f ounded
Ġspeed y
ĠClar ke
ĠE ph
_. )
ĠRe al
Ġval our
% ,
d ate
B re
Ġh ints
Ġsw am
24 0
Ġneck s
Ġindirect ly
H alf
ro ot
Ġjud gments
ĠCelt ic
S en
Ġdo ve
IL LE
ruct ions
ĠO g
Ġcur ls
Ġe pid
Ġbur g
Ġstra it
Ġc ot
ĠC ustom
m are
Ġsol ve
Ġtex ts
Ġintellig ible
Ġb askets
ĠR ain
C amp
adv anced
Ġr ushes
Ġgl ob
Ġproject s
ĠC ost
ĠCh annel
Ġsn akes
Ġmess engers
M ex
ĠD um
' ;
Ġincess ant
Ġfac il
Ġvan qu
Ġhead ing
Ġcompl iments
Ã¡ r
Ġair s
ĠW att
Ġextract s
umb ent
B EL
Ġobsc urity
ĠO ften
Ġappl aud
ĠL abor
Ġsound ing
re th
ut ors
Ġdem ocratic
ro e
AGAA GC
Ġsh rank
ÏĦ Î±
L y
he ight
occ ur
D ep
ul g
Ġab yss
Ġdis content
ĠE AR
Ġ189 4
Ġcustom ers
n ia
ĠM ISS
Ġsc ant
Ġfr iction
Ġpack et
c ounter
Ġmark ets
ĠP rest
Ġv ass
Ġ19 12
Ġform at
Ġfin ishing
TC TAG
Ġf owl
Ġe ther
Ïĥ Î¹
US S
Ġwork man
ĠU P
ĠBurn s
S ar
Ġdeterm ining
ĠM am
ocr at
ĠB ureau
Ġmem or
Ġprodig ious
ĠL oren
Ġclose t
Ġsum mary
ced e
Ġsweet ly
character istic
Ġsnow y
st ained
O x
Ġsub ter
ar ck
Ġlux urious
cript ive
F ore
pers u
ĠĠĠĠĠĠĠĠĠĠĠĠĠĠĠĠĠĠĠĠĠĠĠĠĠĠĠĠĠĠĠĠ ĠĠĠĠĠĠĠĠĠĠĠĠĠĠĠĠĠĠĠĠĠĠĠĠĠĠĠĠĠ
Ġinvol ve
B S
go ons
Ġmin iature
Ġconv incing
ĠS iber
sh ape
Ġembro idered
le arn
Ġburd ens
ĠShe lley
Ġattent ive
Ġtri bunal
Ġsli pping
Ġsqu ares
Ġendeav ored
Ġreg ulation
ĠL ost
Ġtermin ated
Ġcomb inations
acc ident
Ġorche stra
Ġr itual
in ches
Ġ3 15
Ġaccus ation
Ġinter rog
I TT
Ġrelax ed
l is
Ġprotect ing
u pp
8 00
V ENT
ĠS it
Ġs izes
TH OR
Ġelement ary
Ġform ally
Ġrec re
Ġguarant ee
en et
en burg
ĠH ills
Ġinvestig ations
Ġcar penter
Ġs ab
oy le
Ġslee ves
Ġcast e
Ġled ge
Ġbatt alions
treat ed
th rew
part ies
ĠOr gan
thorough ly
Ġar sen
Ġded uct
ĠNegro es
ĠP as
mon y
Ġ18 37
ump ing
ens ington
ian cy
Ġch ron
ĠMar ine
Ġdet est
idd les
ul ity
Ġr ats
ĠP asha
Ġterm ination
Ġ29 6
Par liament
Ġexplan ations
Ġsteam ers
Ġcontinu ance
ĠAr ms
F ive
Ġadmin ister
ĠPet e
Ġd ing
Ġassured ly
Ġg ems
sw ord
w and
fing ers
Ġ29 7
Ġinj uries
og ues
spir its
ĠM oney
Ġeleg ance
Ġgu ineas
Ġprop os
prison ers
Ġge ographical
igne ur
ĠH om
ĠC ly
ple te
Ġx vi
Ġpre l
ĠBl anche
Ġrasc al
ĠJ enn
ĠLegisl ature
# |
Ġs ate
Ġthere upon
ĠBrown ing
enny son
j ar
ing en
il fully
Ġestim ation
Ġcho pped
Ġ< ?/
Ġadvis able
ĠR ICH
Ġbride groom
Ġin ve
Ġsh illing
Ġ( "
Ġexped itions
ĠEls ie
ĠRand olph
Ġd ashing
ĠT op
ĠB ret
Ġinstinct ively
Ġinstit uted
ĠT rist
ĠF f
Ġaccept able
Ġinv iting
Ġcens ure
Ġorch ard
ĠE M
Ġperiod ical
g own
Ġappe ll
Ġgild ed
Ġwork er
Ġnecess ities
ĠL ock
Ġvill a
ut us
âĢĶ "
Ġfact ories
d iam
Ġb aked
to e
ĠColor ado
sole te
Ġsal ts
at ism
nes se
v id
ĠAr ctic
Ġpatter ns
W ELL
ĠV ernon
Ġ29 8
Ġex pended
Ġsp oon
ĠD U
Ġbu oy
Ġplan ning
Ġo min
Ġgre ed
pher ds
ĠB ess
D u
Ġab ound
Ġexpect ations
m ud
fif th
ĠProtest ants
D ER
Ġconj unction
Ġimpuls es
Ġcomp ens
cal m
Ġengine ers
offic ial
Ġillumin ated
Ġ icy
ĠDE AR
ĠCons ul
te ars
ĠPr im
Ġw age
Ġmagnific ence
Ġper ceiving
Ġ18 41
Ġ3 60
Ġ29 4
ĠReg ent
Ġpest il
iz ard
lest on
parent s
g athered
g ame
bod ies
de cor
Ġsp inning
Ġsuperflu ous
12 9
R ead
Ġsc rub
ro pe
Ġtrans action
Ġstam mered
r ase
ap le
Ġ30 4
ev ident
im prove
Ġsp urs
Ġconf isc
dest ruction
Ġappro bation
Ġd rying
ĠSl av
st op
Ġbl ushed
Ġve iled
ĠL t
Ġhum orous
Ke ep
p oses
ĠN a
TTC AC
ĠL och
Ġ18 53
Ġbal cony
ĠW ife
Ġv b
Ġdri ves
fell ows
ĠGre cian
ĠM ol
Ġchar med
Ġ30 6
Sec ret
Ġin tending
ĠLiter ature
Ġwear ied
j ack
nt on
Ġdis appearance
w is
ru g
ĠBr ussels
ĠR ab
Ġpre face
Ġ18 32
Ġbeg g
orr aine
Ġobl ique
Â ¾
Ġatt ire
#### #|
ext ent
Ġfl atter
Ġoath s
rit z
ĠS aid
ĠRo om
Ġdem ons
it age
Ġrain y
Ġgard ener
m os
Ġ30 1
ĠAb bot
id ency
Ġ1 000
ĠPl iny
Ġhol iness
Ġra pt
Ġtablesp oonful
par allel
AAAA GC
on st
ac it
ĠIndian a
ĠLar ge
F ER
ĠVi olet
ĠF ruit
Ġbl amed
H old
j i
Ġbutt ons
ant ime
Ġcur rency
Ġpatron age
S aint
ĠLe icester
Ġlim estone
Ġcolour ing
e a
ĠXX II
oss al
at ine
Ġ3 25
Ġfisher men
Ġbene ficial
Ġnot hin
enn is
Ġprogress ive
ĠF alls
Ġ29 9
ĠNormand y
Pl ate
Ġin mates
Ġsh uddered
r ays
Ġendeav ouring
Ġfoss il
Ġnat ures
pre v
c ard
as ide
ĠC old
br ush
Ġwat ches
ĠLanc aster
ĠR y
B ra
Ġadjust ed
) .]
Ġs inners
Ġtreat ies
Ġsympath ies
prom ised
Ġcomment ed
ĠWind sor
Ġinit ial
Ġs own
Ġrep orter
ĠCon ference
Ġbar rels
Ġga unt
establish ment
ru nd
ĠAthen ian
Ġamend ment
anx ious
Ġ3 40
Ġcontrad iction
Ġt ense
Ġso j
ĠN on
ĠE lder
Ġrev ival
cri bes
ousse au
ĠS ull
Ġfe at
oul try
end ing
Ġdis pleasure
Ġdial ogue
Ġut ility
ĠShak spe
Ġpract icable
Ġpil grims
Ġperman ently
appl ied
J apan
th ia
Ġcat astrophe
Ġev idences
accompl ished
ing e
Ġrust ic
ĠST REET
TG A
Ġbelief s
eless ly
ian ces
Ġcomm em
Ġwe bs
ĠGlad stone
Ġdet ach
Ġcontem poraries
Ġbat hing
ĠSt aff
ĠAl ban
Ġ18 42
Ġwar med
ĠN ations
ĠH umph
ĠK ar
Ġsm ugg
Ġche ered
S top
ĠTh ank
ĠLl oyd
Ä Ń
gg er
Ġpain ters
Ġweak ened
Ġpret ensions
iar ies
supp ly
ss es
it arian
Ġclass ification
Ġpist ols
Ġperple xed
ĠS HE
Ġfruit ful
ĠC arm
es cri
Ġp sal
ve land
Ġcr us
ĠAl an
Ġpreval ent
ĠSher man
ĠĠĠĠĠĠĠĠĠĠĠĠĠĠĠĠĠĠĠĠĠĠĠĠĠĠĠĠĠĠĠĠ ĠĠĠĠĠĠĠĠĠĠĠĠĠĠĠĠĠĠĠĠĠĠĠĠ
b out
L IN
Ġlit ter
Ġm ul
cl ay
ce ls
T y
Ġhe irs
dr ink
Ġin ference
ĠS had
Ġwor ms
count ries
Alex ander
i ard
ĠB ac
Ġbar red
ĠM au
o oth
Ġstead fast
ĠG ill
o cious
Ġsh ifted
Ġball ad
._ âĢĿ
Ġsm oot
Ġl oneliness
abul ary
Ġtrans cend
heart s
Ġlust re
ĠL odge
ĠF en
ĠCh am
ou bles
Ġmel t
est a
ĠS ocrates
10 7
p olic
post s
ĠD AV
ĠD ays
sh ut
B less
ray ed
Ġhydro gen
own ess
v ie
er ie
equ ally
b eth
Ġt am
ĠG L
Ġbes et
12 6
st yle
Ġde mean
Ġh inted
Ġ30 7
UR ES
Ġtort ured
ĠH ale
ĠR ice
Ġordin arily
Ġlack ed
pass es
Ġexcurs ion
ĠT iber
Ġdisg usted
acquaint ance
ure r
Ġtrans ition
Ġpolite ly
ter ms
Ġsp an
Ġplum age
Ã¡ re
Ġprofound ly
or as
Ġout come
st ore
Ġhope ful
or f
ĠArab ian
Ġsm ote
ĠPr ison
Ġ30 3
Ġpolit eness
UR CH
ĠWords worth
TG TCTC
ĠB uch
ĠE ff
ĠBeat rice
Ġres orted
ch amp
Ġtw ent
u um
= --
Ġdev oid
Ġ3 12
Ġrem nant
Ġsweet est
Ġt utor
ser ies
P RE
f ier
Ġbr ushed
AAAA CC
Ġhard ships
ĠT ol
Ġdo se
Ġnerv ously
Ġcon gen
ĠBet ter
Ġst ony
` `
× Ļ
Ġr ue
It alian
ĠAr g
proceed ed
fat ig
Supp ose
hon est
histor ic
ĠSTAT ES
br is
ĠL inn
Ġdisc reet
Ġrub bish
Ġprohib ition
Ġearthqu ake
Ġday break
fig ures
Ġbehav ior
p ents
Ġh ir
ĠBurg undy
ĠD ES
Ġsp ies
g ently
ar ity
ĠMin istry
Ġra ck
ĠComp are
ĠA NN
12 8
ĠAb d
Ġ18 36
Ġsund ry
Ġabund antly
Ġass umes
Ġmunicip al
Ġalph abet
Ġb owing
Ġcharacter ized
then ed
Ġsystem atic
áº »
TG T
ĠHIST ORY
Ġspot ted
sil ent
Ġd ame
ĠBar ry
AGGC TGG
Ġlap se
organ ization
Ġflour ished
Ġsh ines
ĠF isher
ĠJer ome
ĠH it
Ġpenet rating
Ch inese
hig hest
Ġabdom en
Ġsing er
Ġdi pped
Ġdistinct ive
Ġcle arer
u il
ĠBless ed
w y
ĠK it
Ġbre asts
Ġra g
Ġprevent ing
Ġsin ister
s orrow
Ġpr Ã¦
Ġdep rive
âĢĻ ;
Ġra ils
att ached
Ġg lands
interest s
Ġlabor atory
em ing
TCAC TGC
build ings
ref used
Ġpilgrim age
Ġon line
at ics
Ġwant on
Ġmanufact ured
Ġst ocks
ĠAr ts
Ġv s
ĠDun can
occ urred
Ġdevelop ing
bran ches
Îµ Ïģ
Ġa pert
Ġremed ies
ĠO regon
a que
Ġgra ces
I l
Ġt ires
Ġsc ores
ĠT rent
More over
ĠS aul
Ġr anged
ĠTh irty
as sembl
Ġkn it
Ġarri ves
!_ âĢĿ
at em
Ġstates men
Ã¡ h
St reet
Ġinconven ience
Ġinterpre ter
me chan
Ġover board
pr inted
ĠCommission er
~ ~
Ġn ought
:-- "
Ġrhyth m
Ġwre cked
is an
Ġla unch
Ġrep r
Ġoper ate
ĠT ab
Ġenc ir
Ġb ake
el ius
Ġme ll
Ġbenevol ent
ĠSh ah
Ġ30 2
Ġnurs es
ĠSpani ard
fles h
Ġthere after
Ġrep ay
cut ta
Ġbank er
Ġ3 14
col m
e vent
Ġfro ck
our ces
ĠD ix
Ġal b
out ing
Ġ18 15
Ġprohib ited
m ity
const antly
Ġsob bed
ĠS che
Ġch ickens
Ġjust ification
Ġsecre cy
ut ant
ĠC R
Ġflour ishing
ex ception
Ġv itality
D en
um my
ment ion
right eous
des ired
ĠN ar
Ġcond escend
Ġbl under
fav or
Ġ19 11
L in
Ġpack ing
Ġ3 13
every where
Ġutter ing
Pe ople
re commend
Ġimpart ial
10 3
Ġbat hed
Ġsorrow ful
Ġmill s
ĠT a
Ġop ium
âĢĶâĢĶâĢĶâĢĶ âĢĶâĢĶâĢĶâĢĶ
Ġneed less
V i
ĠE ric
Ġunl ucky
Ġcar avan
Ġcirc us
me at
destroy ed
vel ation
ĠW ILL
er ate
Ġprom oting
Marg aret
Ġhaul ed
ĠI de
Ġconcent ration
Ġscri pt
Ġv ous
ĠRe gin
ĠCon stance
ĠM eg
ĠHel ena
Ġt ension
cross ed
ĠL ect
num bers
ĠH ann
Ġunder ground
ĠL AW
ĠK N
Ġcont riv
ĠR ing
Ġsecure ly
E st
AGG AGG
ĠM OR
ĠD ig
Ġre conciled
Ġrail ways
Ġann als
ĠM and
Ġcr ushing
Ġgle e
Ġprov oked
ĠApost les
am orph
Ch ild
Ġdra per
suff ered
Ġecst asy
ĠBened ict
AAC AC
Ġent ity
ĠAll an
ĠNether lands
ĠIr ving
ĠP UBL
end s
Ä ĥ
Ġfr owned
ĠM ER
Ġsol ved
Ġrecover ing
ĠB ast
ser ved
ĠLord ship
pur su
Ġdis in
diffic ulties
ist on
Ġpeculiar ity
Ġod ious
Ġautom obile
n igh
Ġcultiv ate
ĠOffic er
Ġra cing
Ġp ad
inn y
roy al
doll ars
Â ¶
Ġmater ially
Ġreluct antly
S ol
Ġhome ly
Ġbar ley
Ġoccur ring
RAN T
ĠS ed
low ly
Ġr idden
Ġinvent or
Ġtext ure
Ġthere to
ob tain
Ġ30 9
ĠP ent
re vol
Ġse als
def ence
Ġc ulp
ĠH av
ĠEvery body
ĠS ons
ĠV a
Ġtop ics
ĠS ans
im ble
ist an
Ġviol ation
Ġarist ocratic
f arm
Ġt ested
ect ive
Ġfl attered
ah a
pro duce
Ġroyal ty
Ġgra pe
V ar
fe ld
Ġm aker
A rab
shad ow
ĠR ic
Ġstr ang
Ġhesit ating
div ine
ce ler
." ]
g ather
fe e
ĠAnt io
Ġch ina
gr oup
Sh ould
Ġmet ropolis
Ã¶ n
ĠEll is
Ġcent res
est ry
cent re
Ġout set
Ġun reasonable
g ical
ĠCons ider
Ġsore ly
Ġunder go
ĠT our
ry s
irm ingham
t ouch
ĠC otton
Ġin sufficient
Ġmagn etic
Ġ18 44
am us
Do ctor
orig in
ĠM ichel
Ġin herent
S us
H ence
Ġgest ures
Ġlink ed
E ss
po et
Ġe rection
tr ude
Ġref inement
ack er
Ġh ap
Ġc emetery
Ġempt ied
i ors
TC T
Sc ott
ĠH aven
ig ently
Ġr ouse
ĠMag gie
ĠAgain st
Ġsep ulch
ĠRepresent atives
rim ony
ĠB uffalo
Ġbut ler
FF IN
ĠN ine
ĠIn quisition
r one
Ex it
per formed
ĠMer ri
f itting
ust ry
A then
à ¤
ĠEst her
av o
ĠFrench men
Ġarr anging
ĠN early
Ġsign ify
ĠT ony
Ġcl ing
Ã ¬
Ġdisp uted
Ġun successful
IL ITY
ĠRu pert
be h
Ġ18 39
p apers
Ġin complete
i ots
vol ume
Ġduck s
Ġindust ries
Ġincons istent
H oly
Ġdisapp oint
Ġcalcul ation
ob i
disc over
m ol
oblig ed
á¿¶ Î½
ĠEd itor
Ġ3 11
TG TAT
ROW N
ĠO il
Ġfl attering
27 0
Ġreflect ing
l ied
Ġflour ish
Ġg ait
comm od
ide as
ĠC ause
ĠMah omet
r ations
Ġa ward
un known
Ġpl aus
ĠFather s
ĠExec utive
for ces
ĠAl abama
Ġdis cl
Ġdr ums
m ph
Ġ3 18
Ġforeign er
Ġwhar f
á¿ ĸ
Ġh ush
am ations
Ġgam bling
Ġmut ton
li us
br inging
per ation
Ġcomp ose
Â £
Ġx l
find ing
ĠRe form
ĠMad ison
Ġthreat en
ress ions
Ġend uring
Ġcl uster
Ġcott ages
Ġbe ak
Ġquestion ing
Ġun rest
Ġpl ank
Ġco il
ĠS omerset
28 0
ur us
á½ ²
fl oat
Ġas ylum
con taining
Ġsh ifting
Ġcru elly
Ġup roar
ĠEd wards
ĠDel aware
Ġ30 8
Ġrespect fully
ĠMag dal
bre ast
asion ally
an ter
ama ica
ĠM ull
Ġelect ions
il is
ĠP te
ĠED WARD
Ġpal p
enem ies
dri ven
P AR
at ry
I ll
Ġhere tofore
ACAC ACAC
ĠS W
ĠHind u
Ġcool ness
gom ery
ĠJ a
v or
ĠAmb assador
ret ty
Ġcate g
b ul
Ġsc aff
but ter
ĠBe ck
ĠK ir
Ġflav or
par able
Ġplant ing
K now
fig ured
AG AGAA
Ġorder ing
oubt less
Ġfri vol
Ġtheat rical
recogn ized
ru ff
Ġrel inqu
mil k
Ġear then
rav ings
it ans
Ġh amm
bl ess
e conom
T oo
cont empt
Ġdisapp ro
Ġdis comfort
p ale
Ġbe re
Ġb in
Ġdi ary
orr h
ren n
ĠDra ke
Ġm useum
ha el
C a
Ġl ava
p orts
ĠF letcher
Ġwhir led
ĠW OR
Ġple ading
ĠAnt ony
Ġ3 16
Zo Ã¶l
Ġwell s
Ġdrift ing
Ġdisc ouraged
ie re
Ġgl immer
26 0
sign ific
strugg le
Ġsh am
Ġaff irmed
Ġass ailed
H im
Ġab ilities
Ġsur m
Ġflo ors
Ġlo comot
Ġalarm ing
Ġd uc
Ġhead long
Ġenc amp
un cle
Ġinf ernal
ĠInt ell
ag as
IS M
an ia
Ġn oun
Ġg ear
13 9
_ âĢĻ
ĠCl ose
arr ant
fact s
Ġg room
supp orted
Ġnurs ing
ĠVol taire
Ġam ph
h n
ness es
ĠLy ons
Ġgrasp ing
Ġint imately
Ġm oust
ĠS aw
Ġbar ons
or ate
Ġsuper intendent
Ġconfident ial
Ġpriv ately
Ġv om
ĠL ey
surpr ised
Ġst ables
Ġri vals
Ġmin imum
10 4
ĠCap it
ĠAR T
ĠF on
ĠBr itt
ĠHe ath
Europe an
Ġv ase
Ġ3 17
L ER
Ġsh abby
mist ress
D ay
ĠK arl
Ġball oon
per ate
Ġst ool
ist inct
Ind ia
Ġlibr aries
m op
Ġpri zes
th o
Ġgra b
Ġtest ify
Sh ort
pl ants
ĠCar ly
ĠSal isbury
Ġdisgu ised
Ġa ye
.âĢĿ âĢĶ_
Ġfath oms
ag re
Ġsolemn ity
H ur
burn ing
Ġsc outs
Ġumb rella
ou re
Ġb a
ĠA men
Ġdis advantage
um ably
Ġdep uty
circ le
ĠI owa
AC A
OM AN
ĠYan kee
Sp ain
ind ul
Ġfever ish
Ġmultipl ied
Ġstream ing
Ġv ases
Ġhumil iation
F if
Ġchival ry
ĠM alt
Ġsupp orts
ĠC arn
Ġarm or
c arp
Ġdist racted
ĠCl inton
J OHN
m ember
il ib
Ġprofess ors
Ġ19 19
Ġmar riages
Ġfac ilities
Ġdefend ant
Ġj elly
ĠV as
ATT TCC
ad i
the ning
Ġcan st
Ġwill ow
Ġconst able
O p
Ġtract s
d ict
ĠJ enny
Ġche ering
ĠH at
ĠSe bast
Ġdisp utes
Ġg rop
ent e
Be ing
arn ished
Ġde als
ĠApost le
ĠVol ume
Ġso ph
Ġ3 21
Ġrepublic an
Ġche ers
âĶĢâĶĢâĶĢâĶĢâĶĢâĶĢ âĶ¼
Ġpre tending
Ġce re
Ġreprodu ced
Ġdeal er
ĠT E
ĠP ub
it ched
Ġdri pping
il ted
Y R
Ġv oll
Ġinvestig ate
Ġsl ices
Ġpl edged
Ġbow els
Ġsecond ly
Ġexc used
13 8
Ġtempor arily
Ġconf ided
Ġmer rily
ent rance
ir o
Ġph ases
W al
Ġwing ed
Ġleis urely
Ġy on
ĠW id
ĠAthen ians
n ations
Ġdro oping
Ġclear ness
Ġexp ort
Ġ3 19
Ġlady ship
bur ied
Ġen h
Ġhot els
jud ge
Ġtranqu illity
ĠRe ad
ĠD ora
out ed
ĠArab ia
com be
Ġtr uce
Ġ3 24
F E
ĠA u
ick le
ĠF ear
AGG AAG
TTCC CC
Ġhe aped
ĠFort unately
Ġp ite
Ġgrat ification
Ġsil very
f reedom
se ek
ĠT ry
on ius
ĠGo ethe
ĠG ardens
Ġstar ving
appre ci
Ġsob bing
Ġlugg age
Ġimp ossibility
ĠLI TTLE
ĠTh ur
ĠPr ayer
Ġp inch
ĠTe ut
g ates
er ation
bb ons
Ġmat ches
Ġnot ices
' --
ĠC lem
Ġatt entions
ĠBed ford
Ġn ull
ig ation
ĠE den
Ġpict ured
ĠEN G
Ġtelesc ope
ĠST ORY
ig uous
Ġcondem nation
at ist
AT ATTC
Ġconf idently
Ġfut ile
Ġtend ing
Nap oleon
le gged
ook s
i ards
fif teen
at tended
ĠCl aude
f us
re volution
G TGC
asc us
ĠMar cus
ĠCl oud
ret s
Ġrhy me
Ġmanufact uring
ĠSte p
ĠBeng al
E s
p ires
Ġm ax
Ġchap lain
ĠHow e
ĠSPE C
pri vile
Ġboy hood
Î ²
Â´ -
ĠP ep
Ġ q
ra ft
ĠGaz ette
Ġstro lled
ĠCam eron
Ġad ject
Ġ18 20
Ġcolle ges
sec ution
Ġdel usion
Ġpop ulace
Ġsurv iv
ĠA ur
ĠWill ie
count enance
Ġcryst als
ĠP aper
requ ire
str anger
sent iment
oura bly
ĠBart on
Ġ3 26
ce ased
Ġexcl usion
Ġhabit ation
result s
ĠT an
ir ms
Ġobl ige
stat ement
ĠPhill ips
ĠN M
fe atures
ĠF RI
Ġce ases
Ġsovereign s
ĠWhe never
Ġdil igence
Ġexceed ed
l uck
Ġ18 38
fer t
ERS ON
Ã´ le
B ri
ad vert
vers es
Ġanalog ous
Ã ı
Ġunder gone
Ġfright en
and um
Ġlove liness
ster dam
Ġtra its
ĠAust in
Ġten ant
Ġprostr ate
Ġmart ial
rec oll
Ġbrisk ly
Ġgird le
Ġdev ast
; âĢĻ
g rew
manif est
bl ers
Ġpl ural
ev ents
as ia
was h
Ġter rors
ĠAll ies
Ġoffe nd
hel m
Ġinstinct ive
Ġsin ful
as i
Ġwith al
TGGG ATTAC
ĠC OR
iv ia
tong ue
ATT TTTT
Ġfresh ness
Ġcomp oser
Ġwhere with
Ġaffl iction
Ġforb ade
Ġin aug
AC GG
Ġre cept
ess ential
ise ly
Ġprop ositions
isp iece
Ġchoo sing
Ġmen ace
Ġprem ature
explan ation
ĠS ard
Ġcomfort ed
Ġpet als
Ġdistur bing
se ated
night s
Ġout burst
Ġsur passed
ĠĠĠĠĠĠĠĠĠĠĠĠĠĠĠĠĠĠĠĠĠĠĠĠĠĠĠĠĠĠĠĠ ĠĠĠĠĠĠĠĠĠĠĠĠĠĠĠĠĠĠĠĠĠĠĠĠĠ
ĠBelg ian
Ġpresent ation
Ġund isturbed
s urely
C oun
pe ll
ĠON E
Ġt ant
ly s
Ġrat io
Ġclean ed
Ġsu ite
Ġsc ur
Ġintrodu cing
Ġinterfe red
Ġsurvey ed
Ġshrie k
ue bl
Ġch ased
ed a
Ġconv icted
jo in
cap able
OUN G
Ġr uth
bel ie
AAAA GG
Ġdem ol
Ġinqu iring
Ġfragr ance
val uable
ĠK a
Ġ18 31
Ġeth ical
Ġhand writing
Ġsupp ress
t ower
âķĲâķĲâķĲâķĲ âķĲâķĲâķĲâķĲ
Ġteasp oonful
Ġeyel ids
Ġt art
ĠR ig
Ġhum ane
Ġgate way
× ķ
be aten
T im
d ram
Bet ter
ĠE Book
TTC AAG
ĠBe ethoven
Ġhaun ts
Ġape x
iov anni
Ġeffect ual
Ġsyll able
Ġin adequate
F air
g ard
Ġal ight
Ġsn ap
ĠP am
P an
Ġh og
ab a
Ġpl ump
Ġim b
sq q
ĠEx change
ĠI g
Trans criber
g ran
Ġ18 35
Ġoper ated
ins ide
L uc
Î ¯
Ġmort g
D un
quant ity
Ġre ctor
Ġj am
Ġsway ed
S IR
Ġ3 27
Ġ3 37
Ġswell ed
Ġfug itives
N ational
Rem ember
ich te
Ġar ched
Ġj et
ĠProv ince
el er
Ġdemand ing
Ġaccompl ishment
Ġsal ut
Is n
Ġit em
l oyal
Ġsh uff
eth inks
B ell
Ġw ield
ĠPRES IDENT
Ġ18 43
Ġstri pes
Ġdes iring
Ġt res
ve get
ĠG ro
Ġb ases
Ġchar coal
Ġd otted
Ġper ched
Ġall otted
Ġrelig ions
Ġimp reg
Ġ3 29
Ġp ins
Ġspir ited
ar ise
ĠT un
Ġsur mounted
AGG TC
Russ ian
ĠR ES
l ux
Ä ķ
Ġ3 23
ĠV iv
Ġsp ines
Ġv pon
l ake
Ġbesee ch
lar ger
Ġm ah
Ġbar racks
ĠST E
Ġst all
f und
Con stant
Ġbo asted
press ure
ĠE ust
Ġorgan isation
ĠC amb
Ġo mit
Ġstim ulus
Ġcandid ates
Å Ń
Ġtax ation
osoph ical
ĠS ty
Ġstr ongh
_ -
ĠO w
Ġemploy ees
Ġinsult ed
guer ite
Ġp ul
ĠSar ac
ĠT IM
ĠB ulgar
Ġech oes
Th ird
d d
ĠMar se
Ġf iend
ish able
Ġsn iff
G ree
ocr ats
Ġ3 35
Ġhost ilities
b in
Ġan on
f led
Ġexhaust ion
ĠHe ar
intell igible
ĠG on
Ġfamiliar ity
ĠMich igan
14 8
incre ase
ĠClare nce
Ġmus h
Ġab used
Ġoper ating
Ġth or
OW N
Ġguard ians
Ġath let
E le
Ġbath s
!_ "
Ġcub ic
ĠS ignor
AG ES
Ġsh ady
Ã³ n
Ġdepend ence
Ġinfect ion
13 5
Ġhosp itable
w atching
Ġ Ã¡
ĠS ever
Ġsw all
12 3
Ġchurch yard
rem aining
Ġinc ense
ce lled
Ġhapp iest
w alking
Ġh ull
an an
Ġem inently
Ġlab orious
Ġmy ri
Ġcommand ers
Ġengra ving
Ġpersu asion
n u
sole mn
ĠH unting
Ġmin ers
P op
ĠPo ems
accept ed
Ġmerch andise
Ġdis mounted
Ġsur plus
Ġperson ages
Ġjud icious
Ġst alk
Ġren owned
Ġfor wards
Ġcur ves
ĠHy de
o be
instr ument
Ġfer ry
ign ation
rest rial
Ġbamb oo
âĻ ¦
every body
Ġdistinct ions
Ġw ither
ĠD est
Ġ3 28
det ails
arrow s
Ġsat ire
free ly
ĠKenn edy
Ġres ide
Ġam ateur
Ġprogram me
Ġn ick
With in
og ical
Ġexpl icit
ĠDe b
Ġp udding
no v
Ġover se
Ġpower less
Ġsil ken
dro pped
acknow led
sec ure
Ġsn ug
ĠG or
Ġren own
ly sses
s ided
ol era
object s
Ġmort ality
ĠArt illery
re ality
Ġcl asp
Ġsl oping
abs or
Ġton ight
P ost
Ġf iles
Ġtw in
ĠGover n
educ ated
ĠHe alth
ĠPh araoh
ĠBrit ann
M od
t ons
ĠR if
Ġg inger
ĠW ing
Ġcreat ive
ver age
Ġirrit ated
Ġso bs
ou ped
s ought
ĠNo ah
Ġh ack
Ġen ables
ĠZe us
Ġcit adel
ĠC it
Ġtemper ate
Ġl inger
Ġ3 45
14 9
m ometer
Ġb un
Ġdev oured
Ġow l
Ġpsych ology
Ġp ac
-- +--------
iv an
ĠM ead
Ġwatch ful
ĠHug o
Ġ18 29
con tain
ĠWhere fore
rop olitan
ĠHar vard
ĠTer ritory
ĠSt ri
ro cks
Ġmusic ian
Ġd orsal
Ġcap itals
e at
ĠF ollow
among st
Ġachieve ments
s alt
Ġsque ez
ud er
ug al
Ġappropri ated
stand s
ĠFil ms
Ġbond age
ĠIn spector
Ġacc use
ĠDe ity
ĠSc andin
Ġinstruct ive
sac rific
ĠW ars
ĠC er
Ġwhist ling
w atched
Ġconcl uding
fl our
Ġstand point
Ġexp anse
Ġtrust ing
Ġanch ored
Ġal oof
m ant
v ir
Ġinter cept
13 6
Ġengage ments
osa ic
own ers
Ġcoach man
Ġawaken ing
Ġpat rol
& ?;
S and
Ġmathemat ical
ect ing
Ġteach ings
aw ing
Ġref uses
Ġexp anded
Ġdomin ant
con ception
ĠOr d
Ġel ong
Ġwh ims
arch itect
Ġgl ided
Ġmis chievous
ĠCan on
ing o
Ġconv ictions
Ġ18 34
cl iffe
ĠJon athan
c ke
Ġcan als
og en
sp ent
Cath olic
ĠAlb any
Ġapprox imately
Ġbarbar ians
Ġident ification
o ors
Ġw ipe
new s
ab leness
Th ink
cons in
ĠBut ter
AAAG TGC
= ;
Ġopen ings
furn ished
Ġpres umed
D i
s ad
ĠAn im
ĠDick ens
ro qu
c ot
TC GC
B ah
man ent
Ġspo ils
Ġnotice able
ĠAndrew s
raph ic
P hys
ĠMarj orie
t empt
Ġtri b
h l
Ġor phan
Ġgar b
Ġp ang
Ġst ump
Bet ween
atern ity
Ġplan es
Ġemph atically
ur ities
Ġman e
Ġp onies
Ġex alt
alt name
Al so
Ġod our
Ġun sc
Ġavo iding
12 7
ĠE LE
Ġga iety
op ot
to s
OG RAPH
ĠD udley
Ġstuff ed
Ġreg ained
Ġtrans actions
ĠBar th
ĠD iam
AGC G
Ġins ensible
Ġmusk et
ĠOffic ers
Ġden ounced
Ġstat istics
D er
ĠColl ection
Ġrefres hing
ang les
Ġfow ls
a vers
ĠHard y
Ġmanifest ation
excl aimed
Ġvar iable
Ġsp ider
Ġgrat ify
Ġment ally
ĠBe hold
inter pret
c u
Ãª s
D ou
Ġins olent
ke ley
ĠP in
pat ri
ent in
Ġun limited
AG T
u ations
ĠE qu
pres erved
ol in
z el
Ġstar ve
Ġreli able
Ġgl ories
Ġgi ants
It aly
ir able
ĠXX III
Ġele venth
access ible
Ġno bler
Ġphil anthrop
A uthor
Ġveter an
ass ured
ĠIs abella
s pl
ĠÎ ³
ch lor
ĠS elf
TC A
Ġinvol ves
Ġfal tered
I reland
g ression
rep ort
the d
ĠChrist endom
present ly
TC TGCC
Ġauthent ic
Ġrem onst
Ġlower ing
Sp irit
s cientific
Ġra pture
new sp
Ġan ts
ĠBr others
char acters
v ast
Ġglad ness
s li
Ġper ils
ĠK atherine
Ġfisher man
Ġstret ches
S un
i ress
re v
at ile
ate au
29 0
Ġprop hes
li qu
mond s
ĠZ ion
col umn
f ty
ĠC zar
ĠW ent
H ER
Ġp uls
Ġelect rical
Ġdis closed
anim ity
Ġ3 39
Ġ3 22
ĠK ant
ĠDan es
ut a
h arm
ĠPlut arch
K ING
ĠE g
Ġid leness
Ġinter vention
Ġthick et
health y
m pt
Ġde ities
ĠDion ys
M ust
TTG CCC
Ġreluct ance
ro lling
Ġ3 32
Ġra ft
pr ince
Ġch ocolate
ĠTer ry
ĠD ream
Ġappre hended
u ents
not withstanding
pr oud
Ġchair man
rapid ly
cell aneous
arsh ip
arrange ment
oph on
ĠPat ri
Ġdread fully
Ġab bey
Ġreprodu ction
Ġpubl isher
Ġmerc ury
Ġselfish ness
ĠC AN
Ġcl enched
eight h
ĠCo vent
UT ION
ĠT od
ĠL af
Ġindividual ity
f ires
Ġhy m
g ia
Ġmathemat ics
ĠL av
ĠMAR Y
id as
ain es
Ġmanufact ures
phil osophy
15 9
ick ly
cont empl
ne xed
Ġcircum ference
is che
ĠPer ry
D am
Ġejac ulated
Ġbig gest
Ġeng ross
Ġmort als
cle arly
l as
Ġconst ernation
Ġinc arn
Ġgrie vous
ro de
ĠW ald
Ġse m
ĠR idge
F riend
d rop
ĠR an
ĠCh air
Ġrel ish
R ON
or ated
Ġgall eries
ĠMark et
sight ed
sk irts
t ie
Ġhow ling
Ġcomp ositions
Ġdeser ts
Ġexp ired
Ġco ax
Ġanticip ation
Ġf able
const ructed
10 2
EM BER
Ġsty led
b ent
Se a
ĠM ight
enes is
Ġsat ir
Ġbound less
Ġconsult ation
Ġem blem
Ġendeav ours
d ated
Ġre versed
ĠB essie
AC GC
Ġpure st
Ġdiss olution
ĠM ild
ĠS leep
ĠJud ah
H ol
bl ank
Ġplant ations
Ġcompanions hip
Ġcontract s
st hetic
am our
Ġcam era
Ġbe ats
Ġenvelop ed
Ġat oms
C IS
Ġperpet ually
Cong ress
Ġa ur
Ġw ines
ĠM ul
Ġsh ivering
cri bing
e ars
ĠM ant
Ġcorp oral
ĠB UR
ĠD ak
Ġfl ing
ĠS ide
ĠL IE
s up
Ġconnect ions
Ġpe ering
Y M
Ġtw igs
Ġ' _
Ġtreat s
p ounds
he aring
th ly
ĠDr um
IN ES
Ġca us
Ġint est
Åĵ uv
ordin arily
Ġrec ount
Ġav owed
ĠA by
Ġext ant
Ġt asks
Ġadvance ment
Ġbru ised
independ ent
ĠDie go
Ġsuccess ively
Ġtr u
Ġt an
um bered
sac red
ĠH il
pre vious
Ã¶ r
ay e
fl at
Ġpost ure
Ġas semble
ĠL IM
wor se
Ġholid ays
AAAA ATT
Ġstr at
Ġmusic ians
________ ________
ĠE uph
oc ke
ci er
Ïģ Î±
Virgin ia
Ġwheel ed
ĠR enaissance
ĠTri bunal
Ġyield s
Ġz inc
ĠT ext
Ġimp ose
Ġaud ible
Ġhe al
Ġob solete
Ġdoub ly
Ġra id
Ġcons olid
Ġsqu at
ĠS ug
C all
Ġbab e
H ush
on ent
concl usion
Ġcontempl ate
Ġjour n
ĠLook ing
Ġd ot
h az
ric hed
Ġre eds
ĠB anks
ĠCh and
16 9
---+ --------
light ed
Ġimmense ly
ĠAch illes
P LE
symp athy
Ġancest or
ad ox
Ġ3 31
ĠChar acter
ĠCr ime
hur t
Ġaccident ally
Ġpost pon
h ide
ne eded
á½ ´
ĠHend erson
ad mitted
O TH
writ ers
at ible
ia zza
Ġwid est
ĠD IST
Ġcust ody
ĠR EM
ĠAr gent
? )
Ġdiscuss ions
ĠC hel
ĠGod frey
ĠPur itan
t aught
eb ly
Ġav ar
Ġ3 33
ate red
ĠHan over
Ġprev ents
ĠCol eridge
Ġc ore
Ġjourney s
Ġr ally
Ġ3 38
ĠIce land
ste ady
Ġsa fer
Ġ3 36
un conscious
bl ow
Ġver tebr
Ġden ial
st all
ĠGRI FFIN
ĠT ale
Ġend ow
iqu ette
ĠE re
Ġreckon ing
Ġunlike ly
Ġpsych ological
or ical
C hem
pro bable
Ġcom ments
per pet
fall ing
ĠE L
xx x
ĠWar ner
Ġdec isions
su itable
Ġsw arm
t all
Ġdefe nding
ĠJ em
la very
Ġshel ves
Ġarchitect ural
Ġcoward ly
Ġexp osition
Ġdegr aded
ĠAm az
sm oke
ĠG ER
Ġinc ur
Ġhe e
15 8
14 5
Ġfort ifications
Ġprecip ice
Ġb uds
Ġsh ivered
Ġnet work
Ġsuper vision
Ġspont aneous
at hing
Ġcount s
ĠUn fortunately
Ġcord ially
Ġpir ate
Ġver ily
po ison
ibr altar
lau ghed
ĠK ensington
p ainted
âĢľ '
D a
Ġoper ator
Ġclim ax
Ġspect ator
AAG AA
Ġd orm
ĠE conom
Ġ3 34
Ġmason ry
Ġm im
ĠI b
ĠS or
ard o
Ġcontr asted
ĠS overeign
ĠU ND
right s
ĠXX IV
TGTG TGTG
row ing
ĠBe e
Ġlo ath
bo ards
ĠColl ins
Ġbomb ard
friend ship
ri gg
qu alities
B ishop
Ġpatri ot
brill iant
e rect
iv en
Ġper ceptible
Ġgle amed
Ġmant el
v il
Ġ+ --------
ĠCraw ford
Ġass im
Ġred emption
ĠD iss
13 7
ĠN ep
au ff
li x
14 6
A Z
Ġcomp lying
ĠE ur
ĠL as
put ting
ĠA PP
Ġadm itting
pur poses
Ġench anted
Ġad ored
Ġwhis ky
Ġfil thy
Ġacquis ition
H o
Ġburn s
ĠSt ories
never theless
15 6
Ġtrad er
Ġhero ine
Ġgrate fully
Ġabsurd ity
Ġin forms
Ġher b
pre jud
V an
Ġhate ful
Ġmag ical
Ġscound rel
Ġinc urred
sh are
uc id
Ġmag azines
th or
I OUS
Ġmark ing
Ġunderstand s
Ġdis liked
Ġleaders hip
stri king
ĠMerc ury
Ġen mity
Ġfer ocious
ĠPl ain
E mp
in vent
Ġmar ches
chief ly
ĠDry den
ĠPro gress
Ġjo kes
p y
opl ane
ig ma
Ġcom eth
p air
ord ering
ign on
ĠCh art
ob st
Ġmas culine
Ġleg ally
âĶĢâĶĢâĶĢâĶĢâĶĢâĶĢâĶĢâĶĢ âĶĢâĶĢâĶĢâĶĢ
incl ined
f o
ĠG ust
âĤ ģ
Ġb og
Ġsl ate
Ġfaire st
âĢĻ -
Ġcont ra
Ġperplex ity
H istor
m ale
ĠTW O
Ġair y
Ġfellow ship
et a
Ġk en
Ġthere on
Ġj ug
gu ing
class es
Ġc arts
Ġextrem ities
Ġdec rees
vis ited
DU CTION
p il
ĠFlore nt
ĠBa iley
Ġagg rav
ĠW ait
Fl ore
ic on
P en
Ġlabou rers
Ġgent leness
o it
cun iary
17 5
dem onstr
16 8
ac ock
Ġd azed
Ġcle ans
hen ce
Ġc od
ĠC au
Ġdeleg ates
? ...
Ġwaist coat
Ġsh aring
H ill
V ictor
Ġdeser ving
wor m
part ic
ĠCarly le
Ġretreat ing
Ġill us
ĠP tole
ĠCom m
ur ia
rom e
Ġit ems
Ġfr ames
Ġtact ics
ST ON
17 9
Ġbr ink
aum ont
ol ome
á¿ Ĩ
Ġfring e
ĠSim ilar
Ġimagin ative
ĠTh anks
Ġhe arers
ent ers
rel ated
Ġderiv ative
ĠK am
Ġhar b
Ġstr ains
Ġl as
Ġir ony
Ġrust y
ret reat
ic ative
cons cience
U AL
Ġcol ossal
obser vation
So ciety
Ġadapt ation
D ist
we eks
Ġp ag
Ġdisc red
ĠIs lam
Ġceremon ial
Ġhand y
Ġm use
med ic
ĠDaw son
Ġunf air
f s
Ġsign als
ĠGentle men
Ġvap our
W all
G AAC
Ġc ords
ll an
st ret
udic rous
qu i
Ġwe aken
Ġb ureau
Ġrem inisc
ĠM U
Ġcont ag
ĠBald win
thousand s
Ġex it
Ġe go
Ġsmooth ly
ĠC AL
ĠDur ham
es cent
Ġnodd ing
is n
Ġnot icing
H ello
occup ation
Ġrecon cile
Ġbo on
Ġcolle agues
ĠWh ilst
com er
Ġcha os
dise ase
Ġapp alling
ĠQu arter
p g
Ġm used
Ġgl aring
Ġde cks
Ġindign antly
Ġt angled
Ġa isle
Ġ36 5
ĠJ asper
Ġsus ceptible
Ġtriumph s
Ġpoo rer
l abor
Ġ8 00
12 4
Ġstick ing
ĠPo etry
Ġpolit icians
Ġ Å
former ly
Ġdimin ish
Ġm aturity
Ġcomp aring
Ġgr inding
Ġess ays
Ġor deal
E TH
ar ist
ĠAl ong
ĠHar per
O LE
Ġprim arily
ĠH annah
gl ance
C OL
Christian ity
Ġinf amous
c ade
ĠL em
Ġh ae
Re ally
ĠSat urn
Ġcan n
Ġad ore
y x
Ġrude ly
Ġtrans formation
Ġgreen ish
Ġsen seless
Ġaccord ed
eff orts
ĠSwed ish
Ġinspect or
Ġre hears
b att
Ġ18 28
Ġland lady
p read
ot ten
Ġclean ing
Ġgrass y
Ġpot ato
Ġfasc ination
Ġamb assadors
Ġtoss ing
Ġinflu ential
Ġge ography
ĠRail road
ĠP it
Ġvan ish
Ġblind ed
p ressed
TCC TGCC
ĠAn to
g ained
Ġreg ain
Ġm ocking
s ons
il er
ĠN os
Ġminor ity
ĠPy th
Ġinv aders
del iber
Ġdiff ering
Ġscream ing
ĠJud ith
ĠFair y
op ard
id ae
ref lect
Ġtiss ues
ĠKnight s
lo ad
sl avery
oo ke
Ġtor pedo
ĠMer ry
Ġsigh s
Ġcomp osure
G AGG
ĠSee ing
ĠJes uit
ex pedition
Ġdef ine
h ath
Ġboy ish
ey lon
Ġd ough
} .
ak y
Ġbe que
Ġpack age
Ġbaff led
k ens
B ull
Ġe b
Ġdisci ple
Don ald
Ġ18 13
Ġerrone ous
ator ial
Ġreve als
ĠCh ick
Ġanecd ote
J e
Ġbot an
Ġcon e
c ool
Ġse ren
spec im
te a
Ġmal icious
ĠC ran
Ġbed side
Ġ ia
ĠGr im
L eg
ro ft
air n
Ġbur gl
Ġdeal ings
law ful
separ ate
Ġa ust
Ġr heum
cess ions
ĠFl owers
Ġden omin
Ġ3 47
). --
Ġt ints
ĠSur vey
ĠArm strong
ph ant
ĠG am
os c
ĠÃ °
ĠN est
ĠM orning
S av
Ġh ive
Ġsl iding
ste am
ĠB oul
J oe
p ull
Ġins ure
Ġpor celain
L ight
Ġexcl ude
Ġomin ous
Ġg or
B ro
ĠD ow
ind le
ĠK nox
f ol
res c
Ġemer ald
arr ative
Ġ3 41
Ġcompre hension
Ġcoun sell
Ġdon key
Ġvivid ly
adem ark
gl ory
m itt
Ġch um
Ġsent enced
Ġstar vation
Ġgr ub
Ġno ises
Ġconv ict
prison er
ĠHamp shire
Ġchemist ry
Ġmood s
Ġg out
en able
Ġal ms
Ġde gradation
ur bs
hens ions
ĠSebast ian
Ġr ug
mur der
TC TTTC
I ET
ĠCom pan
struct ure
est ead
inci ble
call ing
it ur
Ġsh ipped
Ġdec reed
HE L
Ġmyth ology
ĠGer ard
rav ity
Ġrel ied
ĠJud a
Ġ Ïĥ
Christ mas
Ġissu ing
close ly
Ġconduct ing
Ġv ouch
Ġrestaur ant
is i
Ġund es
Ġpool s
and el
Ġb iting
Ġ3 43
Ġmaster y
Ġh aze
T urn
Ġmonop oly
IT S
sh owing
open h
er us
Ġb aking
Ġfurn ishes
AT ATAC
Ġdam ages
Ġscr atch
commen ced
Ġquick er
ap olis
ought on
ĠEx pedition
ĠPh ot
Ġexperiment al
AT ES
Ġ18 33
Ġrecommend ation
Ġbold ness
Ġin ferred
Ġreven ues
St and
R os
organ ized
AAAA TAA
T ow
Ġn ymph
cond em
Ġsubs ided
ĠNew castle
im med
ĠC yn
Ġdecor ations
consequ ently
ĠJ ar
TTTG CC
ĠCal cutta
Ġpri es
v ine
Ġthe olog
Ġor b
Ġce as
ĠM ey
sh ops
a an
Ġb ully
Ġpar aly
f ailed
be at
HE D
Ġcounsel s
Ġbenevol ence
ag ara
ĠL uck
pr ints
Ġmoder ation
Ġfair ies
ch ard
Ġ3 46
im on
f ed
slight ly
ĠĠĠĠĠĠĠĠĠĠĠĠĠĠĠĠĠĠĠĠĠĠĠĠĠĠĠĠĠĠĠĠ ĠĠĠĠĠĠĠĠĠĠĠĠĠĠĠĠĠĠĠĠĠĠĠĠĠĠ
ĠO UT
ais er
ĠPers ons
plic able
se cts
ĠPr ime
ov able
Ġincess antly
Ġim minent
sw ick
d il
ĠIs les
UN T
Ġfest ivals
Ġwr inkled
Ġver itable
Ġchest nut
ilib rium
Ġthirst y
imp at
iqu ities
Ġexh ort
Ġp aved
rem pt
ĠWal pole
land er
13 4
ĠOper a
ch y
Ġreign s
o cles
Ġembod ied
Ġha unt
pro sper
Y L
e astern
ĠC avalry
Ġsc are
Ġingred ients
Ġre ed
Ġprev ails
Ġliter al
Ġesc apes
ove ls
G AA
Ġthe ft
pro posed
ĠL ance
Ġr ations
Ġimpro ving
Ġflav our
Ġcon ical
ud a
Ġlet s
Ġoccup ants
tt a
Ġrailroad s
ĠR at
Ġ3 70
Ġcelebr ate
Ġrabb its
compre hensible
pen et
Ġreplace ment
ĠF E
Is a
Ġto wering
Ġinvent ions
13 3
Ġhair y
Ġrecollect ions
en za
Ġb ir
Ġpart ake
Ġprof ane
acc ord
ĠBuck ingham
t itle
ĠQu in
Ġno bly
Ġlie u
et ers
Ġtermin al
Ġtick ets
Ġstar ved
M att
TTC TTC
ert ion
EL S
D AY
ĠEm erson
Ġvanqu ished
ole ts
RE T
ĠC OUR
Christ ians
Ġb ass
ĠK ey
ĠSteven s
ou ter
Ġab uses
Ġgovern ors
admir ation
ve rest
av it
ĠSi oux
ic i
; '
36 0
Ġconqu ests
Ġadherent s
Ġb unk
ip zig
o en
TTTT GC
18 8
Ġpr one
Ġdef y
ĠVic ar
Ġimpreg n
Ġmar quis
b ree
gh am
T re
ip otent
Ġrel ent
F ACE
Ġs led
unct ure
TT TGGG
14 7
Ġasser ts
ĠOt to
o val
17 8
Ġwis est
faith ful
18 9
t ouched
Ġwas ting
ĠP un
S aturday
Ġd ice
ĠK i
Ġar ouse
Ġinter l
Ġdiffe red
te eth
exerc ise
ĠP agan
Ġsc re
gold en
Ġcount ess
16 5
Ġneed les
Ġdelic ately
l t
Ġfount ains
as ingly
Ġth ar
ĠF lem
ĠL U
Ġcommod ities
Ġris ks
Ġbl ushing
Ġextravag ance
Ġr uddy
cl aimed
abs ence
h aven
Ġse mbl
oy ne
Ġhist ories
Ġus er
Ġard our
Ġpar ch
Ġpast oral
Ġven om
Ġpione er
ĠM ike
ĠB rew
Ġcelebr ation
as a
Ġbust le
ĠT yr
ĠC oss
Ġim itated
uss y
Ġmechan ically
Ġloose ly
KE Y
ian us
Ġfell er
Ġfond ly
ĠOF F
wer p
Ġa version
ĠD aisy
Ġvast ly
ĠB ass
Ġt out
Ġann um
ĠK an
ĠP hy
Ġexplo its
P oly
Ġwill s
ind rical
15 5
con vention
ĠArch ie
Ã´ tel
ĠC yrus
Ġcoun cils
TG AGAC
Ġfruit less
Ġembro ider
cent uries
Ġl ag
ĠAl g
Ġ| #####|
G erm
ĠB ush
ink er
cil ess
Em peror
AGC AC
Ġfro g
Ġover heard
Ġeng aging
L iter
Ġobserv ance
Ġdefic ient
TH UR
at ri
em otion
Ġpluck ed
Ġpries thood
Ġadvert isement
I d
br ain
Ġgall oped
v oy
Ġ3 57
Ġover t
TAT AA
Ġmix ing
Ġg in
ĠT us
Ġsupp lying
Ġwa ver
the ory
Ġto ils
Ġ3 44
part ly
Ġpropriet ors
tt p
Ġamuse ments
mer ged
Ġvol untarily
IE W
Ġpol ar
Ġregard less
I b
Ġfl ashes
Ġout let
Ġwhirl ing
comm itted
Ġbus ily
own er
Ġey ed
ĠF eder
Ġl ining
sub stance
OSE PH
Scot land
Ġstren uous
L iber
C ross
l ore
Ġredu cing
ĠSt afford
Ġrob ust
ĠTrans lated
g t
Ġaux il
escri bable
Ġli ly
Ġwhist led
add ressed
ĠIndepend ence
C AR
ĠR abb
----+ ----+
Ġvirt ually
E xt
Ġintrig ue
Ġ3 42
Sh akespeare
Ġmed itation
urn al
ip sy
pr ice
remark ed
ash ire
Ġsub urb
sc op
Ġspir al
author ities
ithmet ic
Ġn i
Ġfoot ball
Ġri bbons
Ġmar itime
16 6
Ġspecul ations
ĠNor we
Ġout stretched
Ġpres umption
ĠÃ ī
oll a
Ġlo ads
7 00
Ġad verse
ĠAd ela
Ġgrie ve
ĠDem ocratic
Ġp aternal
ĠCon sequently
gover nor
Ġinflamm ation
exc ited
Ġb anners
ĠW alt
com pelled
ĠW ool
Ġfar ming
Ġincl ine
Ġtw inkling
Ġblack s
ĠSund ays
Ġin ability
Ġv owed
hur ried
Ġacknowled gment
Ġas under
Ġfl uttering
Ġhill side
ot ter
Ġdam sel
itt ance
Ġhope lessly
Ġ3 75
Ġd ent
Ġsp un
ag in
Ġund e
Ġbrill iancy
Ġchamp agne
extreme ly
st ories
Ġmuff led
Ġplac id
ract icable
roqu ois
Ġr ansom
Ġcoinc idence
Ġ3 49
Ġb ien
ĠP and
Ġsw ine
Ġse w
ĠI da
Ġ18 25
Ġmater nal
Ġb ids
Ġcr isp
ĠKe ith
ĠGall ery
Ġgall antry
coll ection
ch ants
s ake
de en
ĠO st
ag r
Ġfront iers
Ġgl imps
Ġhem isp
Ġ3 55
ĠMal colm
ĠRet urn
method s
ĠL ist
pract ically
ĠH OL
Ġsway ing
Ġ3 48
appro aching
ĠM ut
ord id
Ġincorpor ated
ĠSchool s
Ġconscient ious
Ġblack ness
Ġdesp ond
Ġmedic ines
QU E
accur ate
Ġhead ache
Ġsw itch
Ġcap ric
Ġben ches
Ġcr ouched
ĠP end
Ġsimilar ity
ĠMo z
ĠC ertain
AGG AGAA
proper ly
ĠMar riage
ĠIn v
Ġconquer ors
Ġadvantage ous
del icate
t um
Ġmind ed
Ġreluct ant
agg ering
Ġalt itude
x es
Ġpath os
Ġp ont
An ne
Ġl ard
ib id
: [
Ġre comp
co ats
as er
Ġen sure
S it
unte ers
S on
Ġgl owed
Ġth orns
Ġcool ing
Ġmanifest ations
Ê ¹
P ope
ĠSh ir
Ġpropos als
wh ilst
ez vous
f ax
r aint
T em
ĠSte ve
og er
far ther
ĠL orraine
Ġregular ity
Î¼ Î±
Ġox ide
ĠT RE
p henomen
Ġacc ents
Ġche cks
ĠWater loo
inc inn
d ad
om o
ĠChe ro
Ġr ides
Ġ4 50
Ġenc ro
ph al
move ments
ĠMar l
ĠJ amaica
Ġfear less
Ġcl os
Ġre taining
Ġfib res
cru el
ĠValent ine
Ġall ey
TCC TC
so il
Ġfulfil ment
Ġsens ibility
Ġrad iance
ĠB ishops
se ller
Ġfl anks
cons ult
Ġrep ug
Ġindepend ently
if ference
Ġconceal ment
ip her
contr ad
ĠA pr
ĠM ine
oo le
Ġlou ng
vel t
ĠC RO
over ty
ob sc
Ġtrans mit
ir is
AT AGAA
Ġweight s
H al
Ġspr inkled
per mitted
s ou
Ġfri gate
pun ishment
ĠTw elve
Ġmonth ly
l ap
att a
cher y
ĠAd rian
set ting
M is
Ad d
ra ges
ci ble
Ġsum pt
Ġmanif old
ep id
ĠSoph ia
Ġb achelor
n ost
ĠF at
Ġblend ed
TAA AAC
Ġprophe tic
l en
AGC TC
L ater
Ġen chant
dis covery
Ġpres ided
Ġshrie ked
B as
em a
Ġins urance
Ġc edar
ĠS ter
ick ering
Ġdawn ed
emb ark
Ġcertific ate
rot hed
ĠO live
R h
S chool
erv a
Ġpercent age
an cer
ĠCol ony
Ġfert il
Ġflood s
Ġsubs istence
ium s
Ġb ung
Ġp addle
Ġpart ition
Let ter
dev il
Ġwit ches
AND ER
Ġgr ated
Ġsuff rage
ĠPan ama
creat ed
Ġtrim med
Ġtro d
ĠIN C
Ġpro l
ac id
AG TTTC
Ġre wards
ĠN ero
row ed
ĠDam ascus
,-- "
ag reed
Ġspe ck
ĠZ en
Ġaven ge
Ġgr ades
Ġsick ly
AT URE
ĠCle veland
re ference
Ġjourn als
ĠAd v
school s
ĠE va
ĠGentle man
F lor
ĠT aking
laugh ing
izz ie
' -
Ġmon keys
Ġmist y
ĠCH URCH
ĠTre asure
univers al
exper iment
Ġshoot s
Ġ3 80
ĠÂ «
Ġsuccess es
Ġcush ions
splend id
Ġclut ched
sus pected
Ġsam ple
ĠMit chell
Ġfur s
sl aves
Ġt acit
ĠF ell
Ġg el
Ġshield s
Ġcraw l
17 6
Ġreg ener
Ad miral
pro spect
dis posed
L u
Ġfan atic
ĠC ou
Ġfren zy
Ġtor ches
ig ate
ĠMess iah
neighbour hood
W estern
Ġrecon ciliation
Ġde ference
ides pread
Ġon ions
ĠD AY
Ġsl ice
ag les
iz zy
Ġm ai
Com mand
ĠLiber al
at mosphere
ĠJos iah
Ġ19 20
Ġun if
dist inction
Ġhere by
ĠRock y
bur ne
ĠPresbyter ian
d oc
Let ters
Ġflatt ened
ĠCarth age
Ġm ice
st ring
Ġmurm uring
Ġmult itudes
IC S
Ġ3 56
Ġid ols
li o
Ġge ese
Ġshame ful
and om
12 2
t ale
his m
br others
Ġsuff ers
Ġfashion ed
ĠTh ousand
che quer
ĠUND ER
Ġharmon ious
famil ies
ĠHapp y
ra ise
Ġhe ating
Ġreg ulate
Ġmain land
Ġpre st
Ġsepar ating
ne red
est ing
Ġwa res
ĠBob by
IR L
ĠMos lem
Ġaspir ations
ĠD ru
ord inate
oc al
ivers ary
Ġ180 9
Ġbount y
á½ µ
ĠHe y
celebr ated
Ġ âĢĵ
ĠCra ig
Ġam ply
Ġwr ung
14 4
Ġbay onet
L atin
ĠP OL
Ġoff ences
Ġra ged
d Ã©
Ġper chance
ex tended
Ġtoler able
ĠP ars
un ited
Ġpreacher s
sp ite
Ġdistingu ishing
elect ric
Ġcon cession
Ġbal anced
ĠBohem ia
Ġpige on
Ġfe ebly
lem agne
Ġblack smith
Ġlimit ations
Ġcongrat ulate
ant ile
per ceived
Ġag rees
Ġev olved
leg isl
H ung
it ates
19 9
Ġ36 1
et ary
ĠP orts
c aut
uten ess
e ared
Ġg ases
Ġqu iver
Ġster ling
ĠSt ella
Ġfact ion
Ġsleep s
A rist
Ġvoc al
Ġthri lled
Ġconst rained
F ollow
P ur
sing ular
magn ificent
Ġhard est
some where
b il
Ġw itty
A ye
st al
Ġtriumph antly
Ġcalcul ations
Ġis le
Ġwe arily
Ġrep airs
ĠH em
su gar
ech an
th orn
Ġbroad er
Ġ35 1
ĠB ATT
ĠILL USTR
f ault
ĠR U
ple asing
Ġsculpt or
ĠA ub
Ġstat utes
Ġestablish ments
Ġpuzz le
2 20
TAA ATG
ĠSyl via
Ġpenit ent
Ġgover ning
pal ace
tw ice
Ġbutter fly
hand kerchief
ĠHit ler
Ġful ness
Ġr ite
Ġimp arted
Ġcomp ounds
Ġconsult ing
Ġr owed
ĠH ume
rem iah
Ġordin ance
Ġenlight en
Ġsh owers
ĠD over
appro ached
Ġsuper intend
en orm
Ġmention ing
Ġship w
ĠMont gomery
el and
ĠIrish man
Ġgener ously
Ġver bal
B ab
o ak
Ġ Å¿
li br
TGTG GC
Ġ35 3
cont ents
Ġemploy ing
Ġpersec uted
Ġprov ides
glass es
F urther
Ġh ound
N obody
ĠL os
da ily
ĠBomb ay
0 8
cip ient
Ġpersever ance
ĠF inn
sh ows
Ġb irch
st ad
Ġrevol ving
ĠIm mediately
Ġj ars
ĠBar b
R iver
and ah
Ġfig s
ĠE sp
tr ademark
Gentle men
agon al
z ona
f ancy
Ġvict or
Ġfight s
ĠLa un
14 3
Ġfet ched
O K
Ġg ib
10 1
Ġrepuls ed
Ġro oted
ĠRICH ARD
Ġtwent ieth
rit es
Ġcar p
TAT ATT
ĠH ester
um bed
i is
ĠN aval
Ġdepend ing
ong ru
ĠE ld
ĠB irmingham
ĠL isten
ĠGu inea
Ġreal ization
ĠT eddy
c f
ass ium
Ġmed al
ĠSEC OND
quiet ly
Ġs urn
ĠN ik
Ġcl apped
19 8
Ġclust ers
ar in
ĠD olly
Ġc ess
ĠS ent
15 7
Ġbelie vers
Ġpredecess or
mar ry
Ġimper ative
ri us
Ġst al
ĠLe aves
Ã¨ ne
u ish
Ġse aman
G reg
r ide
ĠFig ure
Ġattent ively
Ġn asty
ĠAt tic
ch osen
US E
Ġtri ple
ACTT TGGG
oled o
Ġdig estion
effect s
Ġpen alties
Ġd ou
Pro bably
qu a
or thy
Tw enty
Ġcl ient
ĠDan ube
ch ap
Ġquar ry
Ġ( =
L o
Ġb ait
pat ient
Ġmock ery
i om
ĠEug ene
it ution
bar bar
Ġnucle us
ĠT ales
Ġl ig
Ġoppress ive
Ġl ens
Ġtrump ets
ra ved
Ġdisp atch
ĠHaw k
18 5
Ġcrew s
LE D
Ġlau d
Ġmal ignant
ĠBrown e
Ġfull er
le arning
Ġins olence
Ġlong itud
ogene ous
OP E
doubt less
Ġentreat ed
Ġf ists
Ġm ounds
Ġ18 24
Ġfrequ ented
á ¾
Ġappre hend
ĠSpart a
ar rival
th irst
n ical
app le
ĠAbb Ã©
re li
ĠShe riff
rag ue
TTTT GG
Ġattract ions
conce ivable
Ġur ine
Ġ35 2
ĠMax well
gener ation
res ist
Ġan nexed
ĠH ort
Arch ive
AA TTTC
ĠCo x
Ġgrace fully
Ġir rig
ĠSus sex
ĠP all
Ġman ip
Ġun covered
Ġcorrespond s
Ġprecip itate
ĠH are
Ġbl azed
ĠHerod otus
avil ion
er ical
Ġhe aled
ĠAnge lo
ĠK ind
Ġfull est
TT TCCC
be am
ung en
Ġprot r
Ġ15 00
Ġimpl icit
gen ius
Ġfert ility
lo v
Ġd inners
ĠBuild ing
spe cul
Ġrep ud
Ġinterven ing
ther ly
Ġw ins
ĠArmen ian
bott le
ĠM ills
Ġto ilet
Ġun grateful
Ġunmistak able
ine x
Ġvoy ages
res olved
ĠSe Ã±or
ĠFar mer
mb ol
Ġmart yrs
ĠY outh
Ġm uzzle
ĠO m
Ġun speak
ĠPer iod
ĠAp pe
ĠAnt i
Ġsur f
ld e
ĠLoren zo
2 25
M arsh
ac res
Ġpap al
Ġ1 Â½
cloud s
TAA AC
Ġqu otes
Ġgover ness
Ġd ess
ĠP ir
Ġdecor ative
ĠAn at
Ġaffect s
Ġdi agn
OW ER
Ġly ric
Ġclass ed
Ġinvol ving
Ġhum ming
ĠPap a
Ġdefend ers
im mense
ĠH ilda
Ġres ented
AGCC CC
Ġri v
love ly
Ġcon gress
ĠMoor ish
Ġle ve
Ġcourt iers
ĠA ure
e ating
Ġim pending
Ġleg ions
Ġphys ically
Ġso aked
art icles
conce aled
Ġmarvel ous
ĠVers ailles
Ġsequ ence
ĠContin ental
Ġs ane
Ġj oc
Ġdis pleased
Ġcomb ust
f aint
ist ical
ĠAdmiral ty
sub stant
Ġbree ches
str ict
b ush
ĠF ried
Ġb attered
Ġsm ith
pend ous
Ġuncle an
pl anted
ag ogue
ĠCh ase
f y
Ġac adem
aun ch
Ġratt ling
Ġ18 10
Ġbank rupt
Ġn oses
Ġgr ouped
ĠGu ild
Ġconform ity
ĠAMERIC AN
Ġkn ob
ear lier
H oll
ĠShakspe are
Ġn as
Ġiv y
ĠL ap
Ġval id
ad ministration
ĠC ry
Ġbund les
fright ened
ĠJean ne
Ġ3 58
fe it
Ġ18 11
AAG AAG
Ġsupp ression
yes terday
Ġstr aining
M ir
á µ
sign s
r als
ic ent
ĠC ENT
Ġvale t
Ġprof use
Ġinfect ed
16 7
pro ject
Ġtest ified
Ġres id
ĠChar leston
Ã¡ t
r ational
t ables
J ane
ĠR EL
op atra
Ġinit i
Ġsh iver
15 3
Ġjer ked
ĠSu ccess
un c
Ġch ant
Ġdict ated
AT ATTG
Ġh atch
i pel
ĠLy dia
Ġquer ied
Ġwe aving
employ ment
w elcome
ĠL OU
arth y
res istance
tern ally
S to
Ġ35 4
H and
ĠAm sterdam
un ci
Con stitution
ĠM ap
Ġim pelled
Ġel bows
Ġamount ing
Ġint ens
à ½
Ġhero ism
Ġ3 59
Ã¨ d
ĠLis bon
as cend
olog ie
Ġen raged
get s
18 6
S car
ĠIn s
ĠCol in
Ġ36 4
ĠSe ville
TGTG CC
Ġge ological
Ġgre edy
or th
ĠIs n
Ġxv ii
Ġdecl ining
port ions
Ġrev ive
ĠC ott
ort e
Ġsub urbs
Ġbu cket
AA ATTC
high ly
Ġins anity
Ġarray ed
Ġcomm otion
expl ain
Ġa rom
Ġhelp ful
bed s
u in
br ave
ve h
Ġlif eless
ĠG lo
Ġbra ke
Ġda is
M EN
Ġ2 000
myster ious
do ctrine
is he
sus pect
d uties
Ġh ushed
TAC TC
Ġf ade
ĠW atch
aul ay
list en
ĠG iovanni
Ġc ape
Ġqu o
bell ion
Ġsne er
place ment
sk ins
ĠP ay
ig rant
b ons
app er
Ġepid emic
ag oras
antic ip
Ġind emn
ĠU s
Ġbe arer
ĠL or
Ġobser vers
ens ibly
Ġo ar
kind ness
Ġyear ning
Ġin effect
Ġalter ations
Ġtempt ations
ĠT ory
og ne
Ġrefresh ment
ĠF AM
Ġcomp uter
co ach
Ġwe ed
Ġwar mer
M ilton
Ġbear ings
Ġchar ging
TAT AC
Ġm ists
Ġcup board
Rep ublic
U P
Ã¢ n
ĠCh urches
ĠReyn olds
Ġfold ing
Ġnation ality
ke es
A ustri
Ġwork manship
b ay
app arent
enet rable
w ings
Ġpre rog
Ġwhis pers
Ġgri pped
Ġre forms
Ġglac ier
Ġones elf
ER V
Ġact ress
r ush
Ġgr ants
Ġund one
mer c
ĠJ essie
Ġdr ained
ĠAMERIC A
Ġfor d
ĠD uck
gr ams
en ary
ĠT ennyson
rupt ion
hold er
ĠS cy
Ġdom est
Ġgracious ly
he av
Ġd au
Ġexc uses
ĠMas ters
Ġcourage ous
Ġ18 27
in ities
Ġc aterpill
Ġbi ography
in finite
ic um
Ġcar ing
CH AR
Ġnorth west
phil osop
it as
Ġf iss
ĠL ADY
olog ne
ĠR ule
Ġshe pherds
ĠXX V
h aul
v iet
ĠGen oa
u et
ĠAl aska
Ġmonot ony
Ġin iquity
ĠY OUNG
ĠRh odes
Ġprof usion
Ġsent ry
ĠThe ss
Ġemancip ation
happ en
return ing
Ġx ix
Ã± on
un fortunate
ĠLe ave
Ġspark s
Ġsuggest ing
ĠVer a
adop ted
ĠN ash
Ġle ase
ĠEx eter
Ġtempt ing
B ack
ĠB ir
ĠCH AP
Ġfasc inated
2 30
T ra
ĠT ig
Ġsomet ime
ĠY ard
ub en
ĠMat ilda
aur us
ĠCour ts
s ust
Ġh u
Ġch is
Ġuseful ness
ine v
AK ES
Ġro asted
Ġcor rection
E h
Ġch aff
l ion
Ġrev ised
re z
Ġaf resh
Ġbl ades
dep os
A E
ris y
Ġdun geon
B u
g ods
ĠU lysses
Ġche aper
ĠPen insula
TTC TCC
ĠBer tha
Ġsty les
ĠPrest on
an ked
Ġan e
ĠRe ading
b ase
ĠST R
Is rael
Ġhy per
Ġinf ants
Ġabomin able
Ġmer riment
Ġenthus iast
gu ards
ĠGre ene
âģ ¿
Ġe ats
ĠK in
Ġenterpr ises
ĠM AC
cont act
p our
he ll
isc hen
app y
Ġrecess es
al ive
ĠH es
Ġfol io
d ogs
Ġembra cing
Ġfav ours
Ġprow ess
ry an
Ġen riched
Ġmal ady
t ide
og lyph
reg ion
Ġinvol untarily
sch ol
Ġsweet heart
Ġanim ation
on er
tem pered
ĠAs k
ric ane
D ON
Ġpl a
im an
AR S
ort ment
back s
Ġfore fathers
use ful
intell igent
me asures
Ġind istinct
Ġm asts
ĠWis consin
ĠM ic
[ =
ge ois
Ġlab oured
Ġr andom
ra ising
ph ot
, (
if iable
il us
ĠD ad
Ġdep icted
ĠChronic le
Ġto ys
Ġbegg ars
S O
e lement
Ġv es
Â ¹
ĠH od
ĠJohn ston
Ġprotect or
ĠIsa iah
ĠJ ake
Ġ18 19
ĠSo ci
Ġse gment
ĠL ux
ĠMan ila
Ġtw ins
Ġtri fles
Ġa ching
box es
Ġexpl ored
Ġdev our
Ġst akes
Ġoy sters
st ated
17 7
st ern
Ġpeb bles
Ġw ail
b ia
im ming
AA ATAC
Ġ36 3
Ġcalcul ate
fr ame
Ġapert ure
Ġsp ine
ĠJ ay
Ġche at
ĠMark ham
ĠPri or
ĠGrand e
ograp hers
ĠW AS
wh oles
p est
ĠB ott
separ ated
ĠT RAN
ĠOr ders
GL ISH
cycl op
C ut
conv inced
inn a
Ġsli ppery
psy ch
ĠRe verend
ĠGl ass
Ġrain bow
Ġpan el
Ġsucceed s
Ġint ricate
ĠV all
gg ie
ict ment
Ġmars hes
ĠR osal
ĠLam bert
C lar
Ġpe cuniary
ĠChe valier
Ġbe aver
Ġfl attery
iss ue
j ou
st uff
Ġtheat res
w icked
hor iz
Ġadjust ment
s inging
Ġw ot
uck er
Ġpartic le
ĠStud y
15 4
ĠP ine
be ams
Ġne ur
Ġastr ay
Ġing rat
ĠApp l
T or
W IN
act ual
ĠC ors
Ġrel ic
Ġim pe
Ġax es
Ġdivers ion
Ġgr unted
Ġsupp orters
ĠSur rey
TT TATG
TTC TG
vi ol
l u
on ians
Ġn ous
Ġcont ention
Ġscr atched
Ġam ber
Ġaff ording
G TCTC
Ġbl ocked
ĠGe or
Ġcontrad ict
ĠH EL
edd ing
Ġt anks
Ġrem onstr
Ġadmire rs
ĠS AL
ĠY EAR
Ġxv iii
we ap
Ġrece iver
âĤ Ħ
Ġsatisfact orily
ĠSuff olk
quer or
20 8
Ġa ve
Ġgra v
Ġgrass es
grand father
d ying
Ġpr isons
Ġref lex
Ġcher ish
Ġexhib iting
Ġfors aken
ang a
ĠÂ ¼
Ġexpl oded
t z
du ke
Ġalt ars
h rer
Ġcold ness
Ġfurn ishing
Ġlabore rs
Ġassist ants
ĠBah Ã¡
Ġpublic ations
ourage ment
ĠPol itical
ĠA CT
Ġpot ential
w ark
Ġinst alled
Ġplaus ible
our ned
ub a
Ġble ak
c um
Ġden ying
sm ooth
Pe ace
incinn ati
se pt
LI E
18 7
flu ence
ichel ieu
n icious
Ġdis interested
ĠT oul
He ad
ĠSw an
Ġinvol untary
ĠG ri
Ġreb uke
appl ication
ATT TGC
Ġann ouncing
Ġmoust ache
ĠSe ym
fle ction
Ġdeliber ation
pp ings
Ġhere tics
Ġbl and
con cent
ĠH un
Ġag encies
Ġmon astic
Ġstre ak
gr ade
âĢĻ âĢĶ
Ġsp onge
Ġra ises
Ġhor ribly
athe matic
Ġg asp
Ġmanufacture rs
Ġf ading
ĠX en
OV ER
Ġaccum ulation
ĠC av
Ġcont raction
pr ayer
udd le
Ġprov idence
Ġsli ppers
Ġst amps
n ants
der ived
Ġpen ance
at ories
ĠS ib
pr ide
ĠSl ave
Ġensu ing
ĠD au
ĠR osa
ĠHon our
n obody
Ġorgan izations
Ġdwell s
IF IC
Ġreinforce ments
B O
W OOD
Ġres olutely
dim in
Ġdet er
opp osition
Ġsubject ion
Com mission
og g
ĠCor poration
care ful
ĠT odd
ast ing
Ġappl ications
ĠSax ons
ĠO scar
Ġcher ry
S i
Ġgy mn
inn amon
sh oes
A mb
ĠN OR
ĠIm ag
emb arrass
Ġswe aring
ĠMan uel
Ġ179 3
Ġn uns
Ġten or
Ġappe aling
Ġleng ths
circumst ance
Ġis olation
Ġgent ry
ĠĠĠĠĠĠĠĠĠĠĠĠĠĠĠĠĠĠĠĠĠĠĠĠĠĠĠĠĠĠĠĠ ĠĠĠĠĠĠĠĠĠĠĠĠĠĠĠĠĠĠĠĠĠĠĠĠĠĠĠ
stand ard
ĠHam pton
Ġparap et
on ets
Ġgr inning
cer ning
TGGAG TGC
G AAG
tain e
16 3
ĠJim mie
ĠE S
ĠN eed
Ġmod ifications
2 29
Ġjo ins
2 28
old er
ĠRE P
ent ive
Ġune asily
Ġext ensively
Ġnit rogen
id ated
ĠF ellow
G all
Ġesc orted
Ġdespair ing
ĠF aust
ĠV irt
AGC AGC
de finite
Ġuniform ly
Ġpro ff
ĠCom mod
Ġneck lace
Ġabsor ption
Ġg land
ale igh
2 23
re ce
ĠN A
_. [
Ġexagger ation
abs olute
pre viously
Ġnour ishment
Ġs inks
ple as
re pid
Ġcom ed
Ġscaff old
conf usion
Ġsc ow
ĠBene ath
ĠAl ways
Ġcor k
Mich ael
ĠWis dom
Ġank le
Ġ18 16
ĠFRAN K
Ġgr anting
hon or
con ceived
ĠM AY
Ġ36 9
Ġrog ue
ĠLow ell
Ġmiss ions
Ġast rol
au er
Ġph ant
f et
Ġin ert
belong ing
Ġst ays
ĠQu ix
Ġwater y
ment al
ĠDes ert
Ġdescend ant
J ones
Ġcoll ision
ĠE ither
ud ged
Ġser pents
Ġl ilies
Ġst unned
ĠH OR
Ġlast s
ĠSM ITH
s olid
.âĢĿ --_
Ġemb assy
Ġcur ses
Ġn ets
Î» Î»
Ġorigin ality
B al
ĠF ur
hes s
ĠFl ower
ape ls
ĠMon k
Ġemploy ers
19 6
Ġpurpose ly
Ġthere with
n ice
dev oted
ĠEx c
Ġprecept s
fer ring
Ġp aced
ĠC HE
Ġs per
ĠE ye
Ġ7 00
will ingly
," --
he e
ater al
Ġfra ction
prom pt
Ġout law
Ġ3 90
Ġgl ove
h ang
Ġimpl ored
2 24
am i
N EW
ĠThe bes
Ġwith stand
Ġren ounce
ĠCo pper
serv ices
Ġl udicrous
Ġhow l
ĠC eylon
Ġtack le
Ġout look
TG ATCC
Ġal ighted
Ġbl est
r t
Ġsm ashed
ĠN um
command ed
del ivered
C Y
Ġp oultry
Ġr ung
ĠC opyright
Ġbrood ing
Ġpubl ishers
TGGG GC
ĠF ritz
Ex c
Ġflight s
Ġincons ider
Ġr ation
ÏĦ Îµ
Ġhed ges
Ġins ol
Ġmartyr dom
ĠG ros
Â° .
A st
ic eless
ĠC AMP
ual s
Ġdirect ors
Ġrebell ious
Ġcler ical
thro at
F aith
Ġshe wed
Ġsp aring
ay an
Ġintrig ues
ill ary
Ġcivil ised
Ġmonaster ies
reg ret
b ron
ir i
Ġ18 17
Ġunt ouched
ax ter
ĠSav oy
N ight
38 0
ĠAt tor
Ġdiss olve
Ad am
ĠSeym our
AT ACAC
) /
d rive
are a
Ġbright ened
Ġmut tering
Ġgr ind
li ad
fe ver
Ġstraight ened
histor ical
Ġrevol utions
var iety
Ġdiv ides
AG TCTC
Ġab b
ming led
read er
Ġtum bling
Ġcomm itting
bed ded
Ġcop ious
ĠPort land
E lect
ĠK y
J o
ĠW OOD
t om
Ġ36 7
Ġf ainted
Ġpolit ician
TGTAA TCCCAGC
Ġjun ior
ĠA RE
Ġadventure rs
Ġm igration
ism arck
ĠOri ent
Ġre built
ĠMar qu
Ġpige ons
Ġch aps
rep utation
Ġl ang
vers ing
bel oved
Ġun changed
Ġnight fall
Ġ36 2
Ġfors ake
Ġcare lessness
Ġau ction
Ġfl ax
small er
á¸ ¥
ĠS ave
.... .
ĠSim pson
peri ors
Ġf ost
Ġconsist ency
Ġaccompan iment
T ill
pre cip
dis position
comp rom
gu arded
11 1
sm iling
in her
âĤ ĥ
RID GE
th rust
Ġcustom er
Pl ain
ĠMerri well
ĠEl iza
Ġdio ces
man uel
Ġfrank ness
Ġcon ceded
ĠCOM M
b rief
ĠJul iet
is ch
ĠBenn ett
Ġo aks
ĠS OC
ĠB orn
her ical
Ġstim ulated
civil ization
Ġpubl ishing
ar led
H ugh
Ġbar ber
Ġf als
lo aded
Ġtur key
ĠWe ek
Ġgre ase
ĠF reedom
row sy
f lying
O l
20 9
div isions
Ġe f
ce t
ver bs
ount ain
ĠM atter
Ġho isted
wr ought
Ġen com
olome w
Ġse cts
ĠSac red
ph is
Ġcr icket
Ġl ull
ĠT ac
ĠR ams
Ġab bot
Ġpet tic
ĠTib et
Ġter rif
ĠMex icans
Ġp ans
ĠUN ITED
ĠB est
Ġsum mits
ĠFer gus
Ġde ception
Ġcl oses
ĠD ieu
ĠSu perior
art ic
ĠD od
Ġover take
inst antly
Ġcongen ial
F UL
re asons
Ġsign ified
Rel ig
ac ular
SE C
W N
â ħ
Ġd itto
Univers ity
ac ion
se ized
ĠF ine
Ġcove t
fe athers
yl us
desp air
Ġ3 71
e unt
ĠH ull
her ry
Ġam iss
ur ate
Ġconvers ations
Phil adelphia
Ġchallen ged
Ġstre wn
[...]
