{"<pad>":0,"<s>":1,"</s>":2,"<unk>":3,"<mask>":4,"!":5,"\"":6,"#":7,"$":8,"%":9,"&":10,"'":11,"(":12,")":13,"*":14,"+":15,",":16,"-":17,".":18,"/":19,"0":20,"1":21,"2":22,"3":23,"4":24,"5":25,"6":26,"7":27,"8":28,"9":29,":":30,";":31,"<":32,"=":33,">":34,"?":35,"@":36,"A":37,"B":38,"C":39,"D":40,"E":41,"F":42,"G":43,"H":44,"I":45,"J":46,"K":47,"L":48,"M":49,"N":50,"O":51,"P":52,"Q":53,"R":54,"S":55,"T":56,"U":57,"V":58,"W":59,"X":60,"Y":61,"Z":62,"[":63,"\\":64,"]":65,"^":66,"_":67,"`":68,"a":69,"b":70,"c":71,"d":72,"e":73,"f":74,"g":75,"h":76,"i":77,"j":78,"k":79,"l":80,"m":81,"n":82,"o":83,"p":84,"q":85,"r":86,"s":87,"t":88,"u":89,"v":90,"w":91,"x":92,"y":93,"z":94,"{":95,"|":96,"}":97,"~":98,"¡":99,"¢":100,"£":101,"¤":102,"¥":103,"¦":104,"§":105,"¨":106,"©":107,"ª":108,"«":109,"¬":110,"®":111,"¯":112,"°":113,"±":114,"²":115,"³":116,"´":117,"µ":118,"¶":119,"·":120,"¸":121,"¹":122,"º":123,"»":124,"¼":125,"½":126,"¾":127,"¿":128,"À":129,"Á":130,"Â":131,"Ã":132,"Ä":133,"Å":134,"Æ":135,"Ç":136,"È":137,"É":138,"Ê":139,"Ë":140,"Ì":141,"Í":142,"Î":143,"Ï":144,"Ð":145,"Ñ":146,"Ò":147,"Ó":148,"Ô":149,"Õ":150,"Ö":151,"×":152,"Ø":153,"Ù":154,"Ú":155,"Û":156,"Ü":157,"Ý":158,"Þ":159,"ß":160,"à":161,"á":162,"â":163,"ã":164,"ä":165,"å":166,"æ":167,"ç":168,"è":169,"é":170,"ê":171,"ë":172,"ì":173,"í":174,"î":175,"ï":176,"ð":177,"ñ":178,"ò":179,"ó":180,"ô":181,"õ":182,"ö":183,"÷":184,"ø":185,"ù":186,"ú":187,"û":188,"ü":189,"ý":190,"þ":191,"ÿ":192,"Ā":193,"ā":194,"Ă":195,"ă":196,"Ą":197,"ą":198,"Ć":199,"ć":200,"Ĉ":201,"ĉ":202,"Ċ":203,"ċ":204,"Č":205,"č":206,"Ď":207,"ď":208,"Đ":209,"đ":210,"Ē":211,"ē":212,"Ĕ":213,"ĕ":214,"Ė":215,"ė":216,"Ę":217,"ę":218,"Ě":219,"ě":220,"Ĝ":221,"ĝ":222,"Ğ":223,"ğ":224,"Ġ":225,"ġ":226,"Ģ":227,"ģ":228,"Ĥ":229,"ĥ":230,"Ħ":231,"ħ":232,"Ĩ":233,"ĩ":234,"Ī":235,"ī":236,"Ĭ":237,"ĭ":238,"Į":239,"į":240,"İ":241,"ı":242,"Ĳ":243,"ĳ":244,"Ĵ":245,"ĵ":246,"Ķ":247,"ķ":248,"ĸ":249,"Ĺ":250,"ĺ":251,"Ļ":252,"ļ":253,"Ľ":254,"ľ":255,"Ŀ":256,"ŀ":257,"Ł":258,"ł":259,"Ń":260,"Ġt":261,"he":262,"Ġa":263,"ĠĠ":264,"in":265,"Ġthe":266,"Ġo":267,"re":268,"Ġw":269,"Ġs":270,"nd":271,"er":272,"at":273,"is":274,"on":275,"Ġof":276,"Ġb":277,"it":278,"ed":279,"ou":280,"en":281,"Ġh":282,"Ġf":283,"Ġc":284,"Ġm":285,"ĠĠĠĠ":286,"or":287,"es":288,"Ġand":289,"ar":290,"Ġto":291,"an":292,"ing":293,"Ġp":294,"ll":295,"as":296,"Ġin":297,"Ġd":298,"Ġth":299,"âĢ":300,"Ġl":301,"om":302,"ic":303,"Ġn":304,"Ġhe":305,"le":306,"Ġbe":307,"ad":308,"al":309,"ot":310,"ion":311,"st":312,"Ġg":313,"Ġe":314,"ĠI":315,"ent":316,"ut":317,"ow":318,"ve":319,"se":320,"ly":321,"im":322,"ce":323,"id":324,"ld":325,"Ġwh":326,"Ġre":327,"ĠĠĠĠĠĠĠĠ":328,"gh":329,"ĠT":330,"Ġthat":331,"ir":332,"Ġon":333,"et":334,"Ġwas":335,"ur":336,"ith":337,"ver":338,"Ġit":339,"ay":340,"Ġu":341,"ro":342,"ct":343,"Ġy":344,"Ġfor":345,"Ġas":346,"Ġis":347,"ch":348,"Ġwith":349,"am":350,"ri":351,"ĠS":352,"and":353,"Ġwe":354,"Ġhis":355,"the":356,"ĠA":357,"NN":358,"Ġst":359,"--":360,"ght":361,"Ġyou":362,"Ġan":363,"th":364,"ter":365,"ĠM":366,"ĠC":367,"ain":368,"all":369,"Ġnot":370,"Ġat":371,"il":372,"âĢĻ":373,"ill":374,"if":375,"ĠH":376,"oo":377,"ave":378,"ĠThe":379,"ĠĠĠ":380,"âĢľ":381,"ĠB":382,"ich":383,"Ġhad":384,"âĢĿ":385,"ould":386,"Ġby":387,"ke":388,"ation":389,"ess":390,"red":391,"Ġse":392,"ra":393,"rom":394,"pe":395,"TT":396,"us":397,"ul":398,"AA":399,"ge":400,"ore":401,"Ġsu":402,"Ġ1":403,"her":404,"Ġde":405,"ac":406,"Ġsh":407,"Ġor":408,"Ġwhich":409,"qu":410,"Ġher":411,"ĠP":412,"res":413,"ol":414,"ab":415,"Ġcon":416,"Ġme":417,"est":418,"ĠW":419,"Ġfrom":420,"Ġhave":421,"Ġhim":422,"ome":423,"ers":424,"ant":425,"ard":426,"Ġ_":427,"Ġso":428,"ist":429,"Ġv":430,"ight":431,"em":432,"to":433,"ous":434,"Ġex":435,"pp":436,"NNNN":437,"os":438,"Ġall":439,"Ġbut":440,"um":441,"un":442,"ĠG":443,"Ġthis":444,"ĠL":445,"ust":446,"Ġk":447,"Ġne":448,"our":449,"Ġare":450,"ĠĠĠĠĠĠĠĠĠĠĠĠĠĠĠĠ":451,"ate":452,"ĠF":453,"Ġwere":454,"ie":455,"Ġr":456,"Ġsa":457,"ig":458,"art":459,"Ġthey":460,"el":461,"Ġwhe":462,"Ġup":463,"ast":464,"Ġch":465,"ĠD":466,"nt":467,"Ġshe":468,"Ġwho":469,"ĠE":470,"ong":471,"iv":472,"TG":473,"ĠR":474,"Ġmy":475,"ive":476,"AG":477,"Ġal":478,"ame":479,"Ġone":480,"ap":481,"ind":482,"Ġman":483,"ound":484,"Ġtheir":485,"The":486,"out":487,"Ġdo":488,"Ġcom":489,"very":490,"od":491,"ort":492,"ĠâĢľ":493,"ity":494,"CC":495,"ak":496,"op":497,"Ġthem":498,"Ġpro":499,"ies":500,"ĠN":501,"ood":502,"Ġwor":503,"ĠO":504,"ell":505,"ther":506,"ect":507,"Ġab":508,"ost":509,"sel":510,"ure":511,"Ġno":512,"ough":513,"av":514,"reat":515,"ag":516,"ry":517,"Ġle":518,"one":519,"Ġbeen":520,"ĠJ":521,"own":522,"'s":523,"of":524,"Ġ\"":525,"pt":526,"te":527,"Ġpl":528,"Ġ(":529,"ment":530,"Ġsaid":531,"Ġthere":532,"ck":533,"Ġwould":534,"ine":535,"ne":536,"ish":537,"Ġ2":538,"Ġout":539,"ci":540,"ance":541,"itt":542,"ide":543,"hed":544,"Ġar":545,"ĠHe":546,"au":547,"Ġwill":548,"ass":549,"pl":550,"ond":551,"ose":552,"ff":553,"cc":554,"ace":555,"ook":556,"are":557,".âĢĿ":558,"able":559,"ence":560,"Ġj":561,"ack":562,"Ġwhen":563,"ud":564,"ake":565,"Ġfe":566,"Ġtr":567,"per":568,"âĢĶ":569,"ice":570,"Ġun":571,"ord":572,"ime":573,"ally":574,"ber":575,"Ġmore":576,"Ġqu":577,"ĠĠĠĠĠ":578,"Ġag":579,"Ġother":580,"self":581,"Ġsp":582,"Ġli":583,"TC":584,"we":585,"Ġany":586,"Ġkn":587,"ans":588,"NNNNNNNN":589,"ade":590,"AC":591,"Ġhas":592,"ount":593,"ions":594,"ire":595,"ary":596,"Ġcan":597,"Ġus":598,"Ġinto":599,"Ġsome":600,"Ġgo":601,".\"":602,"Ġtw":603,"Ġif":604,"Ġad":605,"ven":606,"ree":607,"ated":608,"ite":609,"ove":610,"ars":611,"age":612,"ĠIt":613,"Ġim":614,"nder":615,"fore":616,"Ġen":617,"Ġcl":618,"be":619,"ep":620,"ble":621,"Ġgr":622,"tain":623,"ng":624,"fter":625,"ĠTh":626,"Ġro":627,"other":628,"ue":629,"Ġam":630,"Ġdis":631,"urn":632,"ays":633,"ress":634,",âĢĿ":635,"Ġits":636,"Ġthan":637,"Ġbr":638,"ings":639,"bl":640,"Ġtime":641,"cl":642,"oll":643,"Ġcould":644,"wn":645,"Ġour":646,"Ġvery":647,"act":648,"ach":649,"Ġper":650,"Ġgreat":651,"Ġwhat":652,"ile":653,"ought":654,"----":655,"ious":656,"Ġpr":657,"Ġyour":658,"_,":659,"Ġ|":660,"ang":661,"Ġ3":662,"fe":663,"oy":664,"Ġpart":665,"ied":666,"ittle":667,"ru":668,"ved":669,"uch":670,"for":671,"Ġupon":672,"ick":673,"Ġover":674,"Ġonly":675,"Ġabout":676,"wh":677,"Ġbl":678,"ĠCh":679,"hing":680,"AT":681,"ty":682,"Ġlike":683,"ife":684,",\"":685,"ark":686,"ull":687,"Ġfl":688,"Ġmay":689,"ink":690,"de":691,"Ġnow":692,"irst":693,"so":694,"Ġpre":695,"Ġthen":696,"GG":697,"ip":698,"Ġknow":699,"Ġtwo":700,"Ġdid":701,"ĠIn":702,"ons":703,"ren":704,"ather":705,"ild":706,"ath":707,"Ġagain":708,"Ġafter":709,"int":710,"Ġshould":711,"Ġmade":712,"Ġpe":713,"ian":714,"ĠK":715,"ĠMr":716,"man":717,"ign":718,"ia":719,"ward":720,"ful":721,"Ġtoo":722,"ĠV":723,"ĠAnd":724,"Ġlittle":725,"Ġsee":726,"Ġpo":727,"Ġhand":728,"ness":729,"Ġoff":730,"air":731,"..":732,"ise":733,"Ġthese":734,"._":735,"Ġye":736,"Ġthr":737,"old":738,"Ġdes":739,"ory":740,"iz":741,"Ġunder":742,"ĠBut":743,"Ġrem":744,"ĠĠĠĠĠĠ":745,"ĠY":746,"ater":747,"Ġri":748,"ition":749,"ces":750,"Ġsuch":751,"ĠSt":752,"og":753,"iss":754,"Ġres":755,"oss":756,"sh":757,"orn":758,"Ġbefore":759,"Ġhow":760,"Ġlong":761,"Ġspe":762,"Ġmust":763,"ens":764,"Ġfirst":765,"end":766,"Ġcomp":767,"Ġwork":768,"hen":769,"âĶ":770,"not":771,"ATT":772,"Ġlook":773,"ical":774,"Ġgood":775,"aw":776,"ations":777,"ft":778,"mer":779,"Ġwhere":780,"Ġcont":781,"Ġsc":782,"Ġdown":783,"Ġ18":784,"Ġmuch":785,"ER":786,"Ġbec":787,"Ġsm":788,"ict":789,"ced":790,"ult":791,"Ġmen":792,"Ġbet":793,"hes":794,"land":795,"ily":796,"Ġmost":797,"ase":798,"00":799,"that":800,"ject":801,"Ġacc":802,"Ġevery":803,"Ġ4":804,"Ġold":805,"ph":806,"way":807,"ors":808,"Ġimp":809,"ener":810,"Ġown":811,"ady":812,"Ġcons":813,"Ġwell":814,"Ġcomm":815,"led":816,"Ġeven":817,"oth":818,"Ġday":819,"ction":820,"Ġra":821,"Ġob":822,"ouse":823,"Ġthose":824,"app":825,"Ġsay":826,"les":827,"resent":828,"Ġbeing":829,"ves":830,"hat":831,"ran":832,"ex":833,"Ġway":834,"Ġthrough":835,"rit":836,"Ġnever":837,"li":838,"ried":839,"con":840,"Ġapp":841,"Ġpass":842,"Ġgl":843,"ause":844,"Ġap":845,"Ġmany":846,"'t":847,"Ġcame":848,"ock":849,"Ġback":850,"Ġfound":851,"ial":852,"NNNNNNNNNNNNNNNN":853,"ail":854,"ted":855,"Ġcall":856,"igh":857,"ked":858,"Ġlife":859,"Ġent":860,"atter":861,"ĠĠĠĠĠĠĠ":862,"Ġsame":863,"Ġseem":864,"med":865,"Ġmight":866,"Ġbel":867,"ix":868,"ople":869,"ower":870,"pect":871,".,":872,"Ġthink":873,"Ġcome":874,"?âĢĿ":875,"less":876,"Ġser":877,"Ġhere":878,"over":879,"Ġatt":880,"Ġ*":881,"Ġsl":882,"with":883,"ible":884,"ared":885,"his":886,"Ġey":887,"âĢĺ":888,"ple":889,"du":890,"ished":891,"Ġdist":892,"Ġmake":893,"ates":894,"Ġhimself":895,"ollow":896,"up":897,"Ġrep":898,"Ġlet":899,"com":900,"ATG":901,"ents":902,"ms":903,"Ġear":904,"ĠU":905,"Ġ5":906,"Ġshall":907,"omet":908,"Ġjust":909,"ever":910,"und":911,"Ġsub":912,"Ġthought":913,"ĠShe":914,"Ġwithout":915,"ual":916,"ret":917,"HE":918,"Ġke":919,"ened":920,"cess":921,"Ġend":922,"Ġbeg":923,"row":924,"ertain":925,"Ġalso":926,"Ġop":927,"ib":928,"ited":929,"Ġlast":930,"Ġcar":931,"aking":932,"su":933,"Ġcount":934,"oc":935,"Ġfar":936,"get":937,"It":938,"but":939,"aving":940,"ĠĠĠĠĠĠĠĠĠĠĠĠĠĠĠĠĠĠĠĠĠĠĠĠĠĠĠĠĠĠĠĠ":941,"Ġfri":942,"ks":943,"Ġword":944,"ince":945,"me":946,"He":947,"Ġem":948,"Ġhead":949,"Ġplace":950,"its":951,"uth":952,"ss":953,"rest":954,"Ġchar":955,"Ġnew":956,"?\"":957,"ered":958,"Ġret":959,"Ġrel":960,"Ġpeople":961,"GC":962,"Ġac":963,"Ġget":964,"âĶĢ":965,"ĠThey":966,"Ġright":967,"Ġstill":968,"was":969,"Ġsupp":970,"ular":971,"ope":972,"Ġsec":973,"Ġappe":974,"gg":975,"ew":976,"here":977,"cept":978,"Ġwent":979,"Ġnat":980,"ĠThis":981,"Ġte":982,"Ġaway":983,"Ġdif":984,"Ġreg":985,"Ġ6":986,"Ġwom":987,"Ġturn":988,"Ġinst":989,"Ġwhile":990,"imes":991,"Ġfollow":992,"Ġ0":993,"</":994,"der":995,"Ġstr":996,"Ġtake":997,"Ġcour":998,"ting":999,"ween":1000,"ale":1001,"ob":1002,"Ġset":1003,"Ġyears":1004,"vent":1005,"Ġpers":1006,"ner":1007,"ning":1008,"ĠWe":1009,"TAA":1010,"oot":1011,"hy":1012,"ither":1013,"âĶĢâĶĢ":1014,"Ġthree":1015,"Ġgiv":1016,"ool":1017,"vers":1018,"ON":1019,"ently":1020,"Ġwar":1021,"Ġrec":1022,"ron":1023,"aid":1024,"),":1025,"Ġwr":1026,"most":1027,"ii":1028,"Ġ'":1029,"ĠEng":1030,"ined":1031,"Ġexp":1032,"ures":1033,"Ġsur":1034,"Ġint":1035,"Ġyoung":1036,"ody":1037,"Ġput":1038,"Ġfriend":1039,"ĠGod":1040,"ways":1041,"cy":1042,"Ġ-":1043,"by":1044,"Ġeyes":1045,"Ġ[":1046,"att":1047,"Ġ19":1048,"Ġact":1049,"ins":1050,"ract":1051,"als":1052,"!âĢĿ":1053,"pr":1054,"ts":1055,"Ġmar":1056,"Ġleft":1057,"In":1058,"Ġposs":1059,"Ġhouse":1060,"ubl":1061,"Ġchild":1062,"ived":1063,"Ġgener":1064,"Ġyet":1065,"ser":1066,"Ġagainst":1067,"ĠĠĠĠĠĠĠĠĠĠĠĠĠĠĠĠĠĠĠĠĠĠĠĠ":1068,"Ġanother":1069,"oh":1070,"alf":1071,"Ġthough":1072,"ier":1073,"ĠThere":1074,"osed":1075,"Ġeach":1076,"ton":1077,"any":1078,"IN":1079,"Ġlar":1080,"Ġocc":1081,"fl":1082,"den":1083,"Ġind":1084,"amp":1085,"Ġever":1086,"ised":1087,"Ġfew":1088,"Ġlight":1089,"aut":1090,"Ġnor":1091,"Ġfind":1092,"thing":1093,"rist":1094,"ĠSe":1095,"Ġsomet":1096,"Ġpresent":1097,"aken":1098,"ired":1099,"ief":1100,"Ġnight":1101,"Ġbo":1102,"Ġworld":1103,"Ġbetween":1104,"ffect":1105,"ters":1106,"Ġwant":1107,"ten":1108,"ating":1109,"Ġheart":1110,"cri":1111,"Ġonce":1112,"my":1113,"Ġtell":1114,"Ġnear":1115,"Ġter":1116,"Ã©":1117,"rew":1118,"ross":1119,"tend":1120,"men":1121,"Ġpur":1122,"TCC":1123,"ACC":1124,"ĠâĢĺ":1125,"AR":1126,"Ġmind":1127,"AN":1128,"ments":1129,"aught":1130,"eth":1131,"Ġ8":1132,"Ġgive":1133,"Ġlove":1134,"--------":1135,"alk":1136,"_.":1137,"uring":1138,"Ġname":1139,"But":1140,"And":1141,"Ġface":1142,"Ġsmall":1143,"outh":1144,"new":1145,"ows":1146,"ities":1147,"Ġwater":1148,"Ġev":1149,"Ġcalled":1150,"Ġadd":1151,"Ġinc":1152,"Ġkind":1153,"az":1154,"rent":1155,"Ġsaw":1156,"Ġtook":1157,"Ġ7":1158,"ason":1159,"which":1160,"ched":1161,"AAAA":1162,"aps":1163,"Ġside":1164,"Ġnothing":1165,"Ġdon":1166,"Ġple":1167,"Ġrest":1168,"ĠAs":1169,"ets":1170,"ps":1171,"II":1172,"selves":1173,"Ġgu":1174,"Ġco":1175,"Ġform":1176,"Ġread":1177,"iness":1178,"ants":1179,"ged":1180,"Ġinter":1181,"!\"":1182,"mon":1183,"ines":1184,"ote":1185,"ĠYou":1186,"ug":1187,"Ġalways":1188,"Ġmon":1189,"irl":1190,"ern":1191,"Ġthings":1192,"ully":1193,"EN":1194,"Ġstre":1195,"ĠTHE":1196,"pro":1197,"Ġwhole":1198,"ene":1199,"Ġcertain":1200,"ained":1201,"aster":1202,"AGG":1203,"Ġboth":1204,"Ġ17":1205,"Ġamong":1206,"br":1207,"read":1208,"ES":1209,"ĠIf":1210,"Ġbu":1211,"ety":1212,".]":1213,"Ġreturn":1214,"gr":1215,"Ġcountry":1216,"ustr":1217,"Ġhapp":1218,"Ġcap":1219,"Ġpoint":1220,"ĠAn":1221,"Ġnum":1222,"oun":1223,"ense":1224,"Ġconf":1225,"Ġref":1226,"Ġfact":1227,"ute":1228,"ĠAr":1229,"lish":1230,"Ġmin":1231,"vel":1232,"You":1233,"Ġ<":1234,"wards":1235,"ield":1236,"Ġsw":1237,"ably":1238,"terest":1239,"Ġmom":1240,"Ġcle":1241,"ah":1242,"Ġsent":1243,"ĠHis":1244,"lect":1245,"Ġdisc":1246,"Ġseen":1247,"ird":1248,"Ġfather":1249,"ĠFor":1250,"OR":1251,"ATC":1252,"Ġcol":1253,"Ġext":1254,"Ġfam":1255,"Ġart":1256,"Ġland":1257,"AGC":1258,"ians":1259,"ately":1260,"Ġhaving":1261,"Ġbecause":1262,"Ġfeel":1263,"Ġhands":1264,"ider":1265,"TTC":1266,"Ġhome":1267,"Ġdays":1268,"Ġlarge":1269,"Ġsoon":1270,"Ġhum":1271,"ific":1272,"Ġass":1273,"ub":1274,").":1275,"ĠRe":1276,"gether":1277,"Ġless":1278,"fic":1279,"Ġcond":1280,"Ġunt":1281,"Ġcr":1282,"Ġhalf":1283,"Ġwhom":1284,"ving":1285,"Ġfell":1286,"Ġins":1287,"ohn":1288,"ank":1289,"Ġthing":1290,"pped":1291,"ains":1292,"Ġpower":1293,"ution":1294,"ĠMar":1295,"ung":1296,"you":1297,"ury":1298,"ison":1299,"Ġuse":1300,"Ġcare":1301,"Ġdone":1302,"Ġtold":1303,"osition":1304,"Ġtri":1305,"ives":1306,"aring":1307,"Ġans":1308,"gin":1309,"ident":1310,"Ġgot":1311,"ches":1312,"Ġdra":1313,"ling":1314,"Ġadv":1315,"Ġcur":1316,"arn":1317,"Ġroom":1318,"urch":1319,"Ġcourse":1320,"Ġhigh":1321,"ĠAl":1322,"Ġhour":1323,"ages":1324,"elt":1325,"Ġhowever":1326,"Ġ16":1327,"ention":1328,"Ġasked":1329,"form":1330,"Ġlooked":1331,"Ġboy":1332,"ĠAt":1333,"now":1334,"Ġsk":1335,"oub":1336,"Ġfour":1337,"ceed":1338,"ually":1339,"Ġsat":1340,"18":1341,"Ġsim":1342,"Ġbest":1343,"Ġmoment":1344,"Ġgoing":1345,"owed":1346,"Ġcent":1347,"xt":1348,"Ġhard":1349,"Ġ9":1350,"Ġfore":1351,"Ġche":1352,"Ġlaw":1353,"ĠTo":1354,"Ġmatter":1355,"Ġwind":1356,"ĠPro":1357,"ublic":1358,"Ġstand":1359,"atch":1360,"Ġseemed":1361,"Ġsy":1362,"ative":1363,"Ġheard":1364,"Ġste":1365,"Ġdel":1366,"Ġ15":1367,"Ġdoes":1368,"ery":1369,"ĠInd":1370,"Ġgiven":1371,"Ġsil":1372,"Ġtaken":1373,"Ġbro":1374,"Ġrece":1375,"ĠChrist":1376,"oon":1377,"bed":1378,"Ġbelie":1379,"haps":1380,"Ġbetter":1381,"oice":1382,"ĠWhen":1383,"Ġvis":1384,"akes":1385,"right":1386,"day":1387,"Ġel":1388,"ĠÂ":1389,"Ġwoman":1390,"Ġgirl":1391,"Ġdet":1392,"Ġed":1393,"AAG":1394,"Ġalmost":1395,"ĠMrs":1396,"Ġknew":1397,"ided":1398,"ism":1399,"oved":1400,"iew":1401,"Ġinterest":1402,"Ġ=":1403,"ĠOF":1404,"Ġuntil":1405,"Ġ10":1406,"Ġmil":1407,"had":1408,"ey":1409,"Ġes":1410,"Ġdire":1411,"wor":1412,"ude":1413,"ides":1414,"Ġmother":1415,"Ġperson":1416,"eng":1417,"Ġsuff":1418,"ĠDe":1419,"ĠOn":1420,"stand":1421,"Ġopen":1422,"TTTT":1423,"ĠUn":1424,"Ġdep":1425,"orning":1426,"Ġdeath":1427,"ured":1428,"ĠNo":1429,"Ġused":1430,"Ġquite":1431,"ased":1432,"oul":1433,"used":1434,"fect":1435,"âĶĤ":1436,"meric":1437,"Ġdiffe":1438,"Ġwords":1439,"Ġenough":1440,"Ġkeep":1441,"Ġgave":1442,"estion":1443,"ĠLord":1444,"irc":1445,"Ġtre":1446,"ash":1447,"Ġyear":1448,"Ġcontin":1449,"Ġinde":1450,"ĠThen":1451,"ĠJohn":1452,"Ġfull":1453,"undred":1454,"Ġcor":1455,"ering":1456,"Ġdec":1457,"ached":1458,"ances":1459,"oney":1460,"oud":1461,"TGC":1462,"Ġfeet":1463,"Ġbrought":1464,"Ġinv":1465,"Ġbre":1466,"Ġdoor":1467,"Ġ12":1468,"Ġwhose":1469,"ange":1470,"aim":1471,"Ġorder":1472,"Ġserv":1473,"ressed":1474,"Ġhor":1475,"Ġneed":1476,"Ġhel":1477,"Ġwhite":1478,"ĠWh":1479,"TGG":1480,"Ġadm":1481,"Ġothers":1482,"Ġbeaut":1483,"fully":1484,"Ġbook":1485,"Ġsomething":1486,"ĠPr":1487,"Ġsince":1488,"Ġtra":1489,"Ġplac":1490,"Ġwa":1491,"tt":1492,"Mr":1493,"ott":1494,"cial":1495,"empt":1496,"ĠThat":1497,"ĠSp":1498,"Ġpri":1499,"uss":1500,"Ġprop":1501,"ric":1502,"rence":1503,"fort":1504,"from":1505,"Ġking":1506,"ient":1507,"ĠNew":1508,"ards":1509,"oint":1510,"acter":1511,"Ġopp":1512,"Ġest":1513,"irit":1514,"ĠBe":1515,"ĠCom":1516,"oke":1517,"Ġreal":1518,"Ġcase":1519,"Ġbeh":1520,"Ġround":1521,"ĠSo":1522,"tr":1523,"AAC":1524,"Ġfin":1525,"NNNNNNNNNNNNNNNNNNNNNNNNNNNNNNNN":1526,"ames":1527,"hil":1528,"rench":1529,"Ġpres":1530,"Ġpol":1531,"Ġbus":1532,"par":1533,"ape":1534,"Ġheav":1535,"We":1536,"ized":1537,"him":1538,"uthor":1539,"Ġabove":1540,"pend":1541,"range":1542,"Ġfall":1543,"Ġmean":1544,"Ġcannot":1545,"Ġnext":1546,"Ġthemselves":1547,"TER":1548,"aint":1549,"ility":1550,"use":1551,"Ġconst":1552,"Ġide":1553,"AL":1554,"mb":1555,"ken":1556,"tern":1557,"Ġrather":1558,"llustr":1559,"son":1560,"ready":1561,"Ġpar":1562,"Ġsun":1563,"Ġturned":1564,"Ġsecond":1565,"Ġdark":1566,"No":1567,"ature":1568,"Ġill":1569,"Ġmorning":1570,"Ġvar":1571,"Ġmet":1572,"Ġmod":1573,"Ġknown":1574,"ius":1575,"ĠQ":1576,"ural":1577,"ax":1578,"ying":1579,"What":1580,"enty":1581,"ĠAmeric":1582,"Ġprom":1583,"ec":1584,"ists":1585,"Ġoften":1586,"ĠEnglish":1587,"ister":1588,"Ġthus":1589,"Ġbegan":1590,"Ã¦":1591,"Ġhundred":1592,"ole":1593,"Ġfire":1594,"illed":1595,"Ġdoub":1596,"erm":1597,"Ġnecess":1598,"uc":1599,"There":1600,"10":1601,"Ġbody":1602,"ane":1603,"Ġsubject":1604,"ĠLe":1605,"ĠX":1606,"Ġdr":1607,"sp":1608,"ccess":1609,"ship":1610,"TTG":1611,"peri":1612,"overed":1613,"Ġair":1614,"15":1615,"ĠCon":1616,"17":1617,"Ġtrans":1618,"Ġhon":1619,"Ġtogether":1620,"Ġtrue":1621,"uck":1622,"ĠWhat":1623,"Ġfa":1624,"Ġprov":1625,"Ġprodu":1626,"ĠMiss":1627,"unt":1628,"though":1629,"Ġson":1630,"Ġfelt":1631,"iam":1632,"Ġtown":1633,"entle":1634,"Ġoffic":1635,"veral":1636,"Ġplay":1637,"Ġ14":1638,"che":1639,"they":1640,"19":1641,"Ġmeans":1642,"AP":1643,"Ġalong":1644,"well":1645,"Ġ&":1646,"Ġaff":1647,"12":1648,"ĠâĶĤ":1649,"king":1650,"Ġsix":1651,"Ġstrong":1652,"Ġsays":1653,"Ġshort":1654,"ann":1655,"Ġhold":1656,"She":1657,"IS":1658,"ĠIs":1659,"Ġpoor":1660,"Ġsure":1661,"16":1662,"ring":1663,"ĠNor":1664,"Ġrun":1665,"where":1666,"Ġduring":1667,"Ġground":1668,"itted":1669,"asure":1670,".)":1671,"have":1672,"ĠKing":1673,"ats":1674,"Ġsing":1675,"une":1676,"TAG":1677,"This":1678,"Ġreason":1679,"iving":1680,"Ġlay":1681,"Ġ13":1682,"Ġtill":1683,"Ġconsider":1684,"Ġsign":1685,"iet":1686,"ĠĠĠĠĠĠĠĠĠ":1687,"Ġswe":1688,"Ġnumber":1689,"aj":1690,",--":1691,"Ġvoice":1692,"Ġeffect":1693,"Illustr":1694,"CH":1695,"val":1696,"ination":1697,"inci":1698,"anger":1699,"Ch":1700,"chool":1701,"Ġgeneral":1702,"ousand":1703,"Ġtimes":1704,"ement":1705,"Ġwithin":1706,"this":1707,"Ġhelp":1708,"Ġdiv":1709,"what":1710,"Ġstood":1711,"cul":1712,"Ġsle":1713,"owing":1714,"Ġwife":1715,"Illustration":1716,"ĠBy":1717,"Ġclose":1718,"were":1719,"Ġi":1720,"Ġrequ":1721,"Ġexpl":1722,"Ġpassed":1723,"Ġwond":1724,"14":1725,"Ġvol":1726,"ream":1727,"....":1728,"olog":1729,"ĠSh":1730,"ĠAll":1731,"Ġchildren":1732,"oor":1733,"Ġcirc":1734,"Ġlead":1735,"Ġrepl":1736,"ĠCl":1737,"she":1738,"ĠSir":1739,".--":1740,"nment":1741,"Ġobser":1742,"Ġequ":1743,"Ġcharacter":1744,"Ġgre":1745,"13":1746,"Ġstate":1747,"Ġfur":1748,"ney":1749,"ases":1750,"ission":1751,"Ġseveral":1752,"ued":1753,"ley":1754,"Ġmoney":1755,"like":1756,"Ġspeak":1757,"que":1758,"ster":1759,"Ġitself":1760,"Ġhope":1761,"aves":1762,"wer":1763,"Ġii":1764,"Ġimport":1765,"Ġblack":1766,"iful":1767,"TAC":1768,"Ġcommon":1769,"Ġsum":1770,"ics":1771,"Ġmyself":1772,"arch":1773,"their":1774,"Ġmeet":1775,"Ġleast":1776,"Ġwrit":1777,"ĠFrench":1778,"idence":1779,"Ġobject":1780,"itions":1781,"Ġauthor":1782,"Ġabs":1783,"Ġappear":1784,"Ġpublic":1785,"Ġdoubt":1786,"Ġproper":1787,"there":1788,"Ġeas":1789,"iter":1790,"ember":1791,"rance":1792,"io":1793,"Ġheld":1794,"ording":1795,"ĠBr":1796,"uten":1797,"Ġdev":1798,"âĶĢâĶĢâĶĢâĶĢ":1799,"Ġcity":1800,"sc":1801,"ĠHer":1802,"fer":1803,"Ġaw":1804,"ality":1805,"Ġnature":1806,"Ġsea":1807,"rie":1808,"tained":1809,"Ġquestion":1810,"Ġmer":1811,"Ġanything":1812,"Ġview":1813,"Ġdifferent":1814,"ger":1815,"Ġalready":1816,"asion":1817,"Ġeither":1818,"Th":1819,"dden":1820,"Ġearth":1821,"Ġstart":1822,"Ġpat":1823,"Ġten":1824,"Ġhist":1825,"alt":1826,"pre":1827,"Ġbelieve":1828,".âĢĻ":1829,"Ġconc":1830,"Ġdeep":1831,"ĠEngland":1832,"Ġwood":1833,"cious":1834,"ĠWill":1835,"Ġele":1836,"them":1837,"Ġdead":1838,"Ġaccount":1839,"Ġhuman":1840,"bs":1841,"000":1842,"gy":1843,"ges":1844,"ament":1845,"Ġcoll":1846,"Ġce":1847,"Ġalone":1848,"Ġfree":1849,"Ġstru":1850,"ices":1851,"Ġwomen":1852,"Ġdear":1853,"Ġdirect":1854,"Ġsuccess":1855,"Ġstud":1856,"Ġcomple":1857,"Ġperhaps":1858,"ront":1859,"alth":1860,"Ġspirit":1861,"ĠPar":1862,"race":1863,"Ġdri":1864,"co":1865,"ert":1866,"Ġcut":1867,"Ġval":1868,"Ġsudden":1869,"Ġhear":1870,"Ġir":1871,"ize":1872,"rying":1873,"ĠHow":1874,"That":1875,"ues":1876,"ls":1877,"Ġbur":1878,"ek":1879,"Ġtherefore":1880,"ising":1881,"Ġthou":1882,"Ġmount":1883,"'ll":1884,"Ġsoul":1885,"Ġherself":1886,"Ġbar":1887,"Ġline":1888,"side":1889,"icular":1890,"Ġbecame":1891,"Ġred":1892,"rigin":1893,"Ġship":1894,"Ġsound":1895,"ony":1896,"ĠGer":1897,"tered":1898,"Ġfre":1899,"Ġthousand":1900,"arm":1901,"iously":1902,"Ġexam":1903,"Ġmark":1904,"enn":1905,"ND":1906,"Ġclear":1907,"Ġport":1908,"rop":1909,"Ġpap":1910,".[":1911,"Ġru":1912,"gan":1913,"ection":1914,"Ġgone":1915,"attle":1916,"Ġlau":1917,"Ġwall":1918,"Ġtem":1919,"Ġgentle":1920,"orm":1921,"Ġthy":1922,"Ġindeed":1923,"Ġbed":1924,"Ġeng":1925,"Ġmus":1926,"Ġbecome":1927,"Ġpossess":1928,"ression":1929,"Ġprob":1930,"Ġet":1931,"cript":1932,"Ġprof":1933,"no":1934,"iment":1935,"cient":1936,"iled":1937,"arent":1938,"Ġcommand":1939,"airs":1940,"iar":1941,"idd":1942,"Oh":1943,"ĠWith":1944,"ones":1945,"Ġfive":1946,"fact":1947,"eneral":1948,"Ġgover":1949,"CCC":1950,"Ġrespect":1951,"Ġ20":1952,"Ġmanner":1953,"Ġpurp":1954,"head":1955,"owers":1956,"under":1957,"LE":1958,"medi":1959,"ribut":1960,"iting":1961,"oura":1962,"aughter":1963,"RE":1964,"rem":1965,"ondon":1966,"Ġchief":1967,"Ġleave":1968,"els":1969,"Ġtalk":1970,"Yes":1971,"Ġbrother":1972,"Ġfollowing":1973,"dis":1974,"Ġroad":1975,"==":1976,"berg":1977,"Ġremark":1978,"Ġbring":1979,"Ġca":1980,"cing":1981,"Ġpossible":1982,"fin":1983,"Ġlo":1984,"pper":1985,"cons":1986,"Ġdest":1987,"Ġpain":1988,"Ġfav":1989,"ĠSc":1990,"reg":1991,"Ġletter":1992,"ĠEd":1993,"lled":1994,"Ġfamily":1995,"Ġmis":1996,"Ġpast":1997,"vol":1998,"Ġorigin":1999,"Ġdiffic":2000,"Ġlater":2001,"ĠÂ©":2002,"anged":2003,"Ġaround":2004,"Ġexcept":2005,"Ġexc":2006,"ths":2007,"ilt":2008,"Ġlive":2009,"ont":2010,"Ġsol":2011,"mand":2012,"Ġfort":2013,"Ġfair":2014,"Ġfig":2015,"Ġlost":2016,"arr":2017,"Ġbehind":2018,"inter":2019,"Ġarri":2020,"ified":2021,");":2022,"Ġgold":2023,"sequ":2024,"Ġpract":2025,"IT":2026,"ham":2027,"Ġwhether":2028,"oes":2029,"tended":2030,"Ġsold":2031,"Ġtruth":2032,"ledge":2033,"str":2034,"let":2035,"band":2036,"wered":2037,"Ġfriends":2038,"orrow":2039,"Ġcried":2040,"Ġleg":2041,"'d":2042,"Ġmaking":2043,"Ġfine":2044,"flu":2045,"Ġ(_":2046,"Ġprinci":2047,"ouble":2048,"oly":2049,"Ġmere":2050,"Ġreplied":2051,"ork":2052,"wo":2053,"Ġable":2054,"Ġregard":2055,"Ġexpect":2056,"...":2057,"raph":2058,"Ġperfect":2059,"APTER":2060,"Ġreceived":2061,"Ġkept":2062,"itude":2063,"Ġjud":2064,"Ġsort":2065,"Ġseems":2066,"Ġenem":2067,"Ġanim":2068,"ounded":2069,"Ġsit":2070,"IC":2071,"Ġfear":2072,"OU":2073,"Ġord":2074,"Ġearly":2075,"bert":2076,"ĠGe":2077,"Ġtreat":2078,"Ġ.":2079,"uct":2080,"ĠOne":2081,"Ġdecl":2082,"cle":2083,"As":2084,"ush":2085,"oman":2086,"ĠBrit":2087,"iver":2088,"Ġut":2089,"ĠCol":2090,"They":2091,"ision":2092,"Ġblood":2093,"Ġfoot":2094,"Ġshow":2095,"would":2096,"ĠMy":2097,"body":2098,"Ġwhy":2099,"Ġmain":2100,"Ġunderstand":2101,"oe":2102,"ries":2103,"otion":2104,"then":2105,"50":2106,"Ġarm":2107,"Ġresult":2108,"Ġbes":2109,"Ġwish":2110,".</":2111,"inct":2112,"Ġlow":2113,"Ġstory":2114,"IL":2115,"inary":2116,"ium":2117,"ING":2118,"ĠAd":2119,"TATT":2120,"Ġbegin":2121,"ational":2122,"TAT":2123,"When":2124,"mp":2125,"uff":2126,"20":2127,",âĢĻ":2128,"Ġmove":2129,"cially":2130,"lf":2131,"Ġtowards":2132,".'":2133,"room":2134,"Ġpay":2135,"ead":2136,"Ġprot":2137,"An":2138,"dom":2139,"EL":2140,"Ġbusiness":2141,"will":2142,"Ġcoming":2143,"ops":2144,"Ġexist":2145,"Ġstri":2146,"Ġincl":2147,"iod":2148,"ots":2149,"Ġappro":2150,"Ġhorse":2151,"Ġpie":2152,"itten":2153,"atic":2154,"Ġschool":2155,"Well":2156,"Ġreally":2157,"Ġelse":2158,"ploy":2159,"ina":2160,"ours":2161,"antly":2162,"If":2163,"bo":2164,"Ġtwenty":2165,"St":2166,"Ġfront":2167,"Ġve":2168,"Ġlady":2169,"ear":2170,"ivers":2171,"Ġlearn":2172,"Ġanswered":2173,"Ġriver":2174,"ught":2175,"Ġmag":2176,"ze":2177,"Ġmiles":2178,"go":2179,"night":2180,"ĠChar":2181,"ĠâĢĻ":2182,"Ã¡":2183,"Ġcause":2184,"rel":2185,"note":2186,"ĠLondon":2187,"utes":2188,"imp":2189,"Ġclass":2190,"ĠPl":2191,"ĠGr":2192,"ĠBl":2193,"Ġquick":2194,"RO":2195,"ĠGerman":2196,"Ġspec":2197,"angu":2198,"To":2199,"usband":2200,"abit":2201,"Then":2202,"Ġsight":2203,"Ġnecessary":2204,"Ġeff":2205,"Ġmem":2206,"Ġexcl":2207,"ald":2208,"Ġcross":2209,"itting":2210,"ume":2211,"Ġsir":2212,"irm":2213,"TGGG":2214,"ength":2215,"Ġlist":2216,"stem":2217,"ys":2218,"Ġaccom":2219,"Ġcarried":2220,"ital":2221,"Ġcold":2222,"Ġage":2223,"Ġrelig":2224,"Ġarms":2225,"light":2226,"ĠDr":2227,"Ġlab":2228,"Ġposition":2229,"min":2230,"who":2231,"Ġdisp":2232,"Ġlooking":2233,"Ġchurch":2234,"ences":2235,"Ġfollowed":2236,"ped":2237,"iers":2238,"Ġdut":2239,"idge":2240,"Ġcal":2241,"ĠCar":2242,"Ġ24":2243,"ĠĠĠĠĠĠĠĠĠĠĠ":2244,"Ġwonder":2245,"irt":2246,"ĠSee":2247,"Ġentire":2248,"Ġidea":2249,"Ġbad":2250,"come":2251,"ĠCap":2252,"ĠOr":2253,"Ġmed":2254,"ivid":2255,"Ġfif":2256,"Ġreturned":2257,"Ġrepresent":2258,"Ġ25":2259,"Ġsense":2260,"Ġbeautiful":2261,"On":2262,"ored":2263,"mbl":2264,"erv":2265,"Ġparticular":2266,"Ġforce":2267,"Ġfaith":2268,"Ġsometimes":2269,"more":2270,"Ġeye":2271,"30":2272,"Ġacross":2273,"ĠStates":2274,"Ġver":2275,"Ġoccasion":2276,"Ġcast":2277,"Ġthee":2278,"Ġpict":2279,"Ġperiod":2280,"Ġhur":2281,"Ġbuild":2282,"Ġwild":2283,"ustom":2284,"cont":2285,"Ġvill":2286,"ĠThese":2287,"ior":2288,"ĠNow":2289,"Ġtable":2290,"Ġevening":2291,"Ġfurther":2292,"Ġnearly":2293,"Ġbit":2294,"ested":2295,"Ġworth":2296,"appe":2297,"25":2298,"Ġready":2299,"ĠZ":2300,".=":2301,"ĠOf":2302,"can":2303,"Ġstep":2304,"Ġrock":2305,"Ġdraw":2306,"add":2307,"aul":2308,"utenberg":2309,"Ġforth":2310,"yond":2311,"Ġbene":2312,"alked":2313,"At":2314,"gl":2315,"ency":2316,"usion":2317,"orge":2318,"Ġtou":2319,"bur":2320,"Ġeight":2321,"ION":2322,"col":2323,"Ġx":2324,"pecially":2325,"how":2326,"Ġlatter":2327,"riage":2328,"ously":2329,"rank":2330,"ils":2331,"vo":2332,"ining":2333,"rodu":2334,"resh":2335,"ples":2336,"ogn":2337,"ories":2338,"Ġesc":2339,"velop":2340,"ask":2341,"24":2342,"Ġvi":2343,"Ġpurpose":2344,"Ġacqu":2345,"ected":2346,"orts":2347,"some":2348,"Ġreached":2349,"Ġparty":2350,"AM":2351,"ctor":2352,"aged":2353,"amed":2354,"when":2355,"Ġran":2356,"Ġhours":2357,"face":2358,"look":2359,"Ġbig":2360,"Ġpeace":2361,"got":2362,"ler":2363,"Ġhistory":2364,"Ġ30":2365,"Ġfail":2366,"Ġpost":2367,"Ġdro":2368,"Ġformer":2369,"Ġanswer":2370,"aimed":2371,"Ġann":2372,"ically":2373,"been":2374,"ference":2375,"----------------":2376,"af":2377,"Ġfield":2378,"AS":2379,"cend":2380,"ciety":2381,"Ġhill":2382,"Ġ23":2383,"part":2384,"âĢķ":2385,"ĠMay":2386,"Wh":2387,"urope":2388,"Ġimmedi":2389,"Ġplaced":2390,"Ġsett":2391,"inn":2392,"Ġpop":2393,"27":2394,"ounds":2395,"ĠNot":2396,"Ġty":2397,"Ġstrange":2398,"Ġattempt":2399,"Ġ26":2400,"kn":2401,"Ġworks":2402,"ĠAmerican":2403,"eter":2404,"Ġemploy":2405,"Ġask":2406,"inion":2407,"Ġpray":2408,"aff":2409,"rect":2410,"Ġlonger":2411,"ening":2412,"Ġhusband":2413,"Ġlength":2414,"26":2415,"ises":2416,"Ġaccording":2417,"ext":2418,"Ġmist":2419,"Ġcop":2420,"23":2421,"Ġquar":2422,"sy":2423,"Ġstra":2424,"Ġlad":2425,"Ġnatural":2426,"sec":2427,"Ġappeared":2428,"ruct":2429,"Ġremain":2430,"ED":2431,"mit":2432,"Ġsac":2433,"Ġparts":2434,"cent":2435,"Ġlate":2436,"ee":2437,"Ġla":2438,"uly":2439,"Ġsus":2440,"Ġsqu":2441,"ires":2442,"do":2443,"Ġled":2444,"Foot":2445,"Ġquiet":2446,"Ġfight":2447,"ator":2448,"Ġinflu":2449,"Ġ27":2450,"Ġcreat":2451,"AGAA":2452,"28":2453,"Ġdanger":2454,"Ġ28":2455,"Ġvisit":2456,"ift":2457,"def":2458,"29":2459,"THE":2460,"Ġsecret":2461,"ĠAND":2462,"Ġadded":2463,"Ġsleep":2464,"Ġpriv":2465,"ĠFrance":2466,"ĠTr":2467,"Ġcontinued":2468,"ords":2469,"Ġprobably":2470,"oral":2471,"cell":2472,"Ġarmy":2473,"hys":2474,"NNNNNNNNNNNNNNNNNNNNNNNNNNNNNNNNNNNNNNNNNNNNNNNN":2475,"hand":2476,"ĠÃ":2477,"NNNNNNNNNNNNNNNNNNNNNNNNNNNNNNNNNNNNNNNNNNNNNNNNNN":2478,"ĠWilliam":2479,"Ġincre":2480,"house":2481,"Ġpret":2482,"Footnote":2483,"after":2484,"Ġaffect":2485,"ging":2486,"Ġlim":2487,"Ġfac":2488,"ĠPer":2489,"arp":2490,"Ġmaster":2491,"Ġwon":2492,"Ġdied":2493,"For":2494,"Ġtaking":2495,"ests":2496,"Ġslow":2497,"ixed":2498,"iddle":2499,"Ġbird":2500,"bers":2501,"gu":2502,"nor":2503,"ror":2504,"Ġbeyond":2505,"Ġcorn":2506,"joy":2507,"gar":2508,"ument":2509,"ĠAb":2510,"Ġproceed":2511,"Ġmur":2512,"pan":2513,"Ġself":2514,"ossible":2515,"Ġimag":2516,"Ġoccup":2517,"ighb":2518,"Ġforward":2519,"Ġcamp":2520,"Ġfr":2521,"Ġmention":2522,"Ġsatis":2523,"rupt":2524,"urs":2525,"iding":2526,"Ġwatch":2527,"á½":2528,"Ġprep":2529,"My":2530,"ĠĠĠĠĠĠĠĠĠĠ":2531,"Ġought":2532,"umst":2533,"Ġattack":2534,"des":2535,"Ġhig":2536,"Ġscar":2537,"orted":2538,"Ġhot":2539,"iff":2540,"wise":2541,"Ġservice":2542,"Ġsend":2543,"itary":2544,"Ġsugg":2545,"anced":2546,"Ġsystem":2547,"Ġrose":2548,"OL":2549,"ĠYork":2550,"ivil":2551,"hood":2552,"Ġchange":2553,"ral":2554,"Ġliving":2555,"Ġbreak":2556,"How":2557,"ev":2558,"Ġcomplete":2559,"Ġknowledge":2560,"oured":2561,"ingly":2562,"Ġfellow":2563,"Ġsweet":2564,"na":2565,"isted":2566,"count":2567,"Ġhair":2568,"Ġph":2569,"Ġwit":2570,"irty":2571,"eb":2572,"Ġdef":2573,"ales":2574,"rough":2575,"Ġwalk":2576,"yn":2577,"aching":2578,"ively":2579,"pid":2580,"Ġbelong":2581,"Ġdeal":2582,"aven":2583,"Ġdream":2584,"Ġer":2585,"Ġtrave":2586,"Ġenemy":2587,"Ġinf":2588,"rs":2589,"Ġhast":2590,".âĢĶ":2591,"ouses":2592,"Ġda":2593,"Ġsoft":2594,"ĠCH":2595,"thern":2596,"11":2597,"Ġprison":2598,"Ġsurpr":2599,"._,":2600,"uke":2601,"Ġvarious":2602,"ha":2603,"ĠAfter":2604,"ushed":2605,"Ġdescri":2606,"Ġ29":2607,",'":2608,"Ġappl":2609,"ĠĠĠĠĠĠĠĠĠĠĠĠĠ":2610,"teen":2611,"Ġwritten":2612,"Ġstreng":2613,"ĠDo":2614,"ilar":2615,"Ġconn":2616,"formed":2617,"Ġjo":2618,"ĠFrom":2619,"Ġdeterm":2620,"Ġmo":2621,"Ġdidn":2622,"Ġexperi":2623,"Ġtop":2624,"ĠEurope":2625,"Ġcourt":2626,"bes":2627,"ellow":2628,"Ġelect":2629,"Ġspoke":2630,"Ġplan":2631,"iling":2632,"TH":2633,"Ġalthough":2634,"Ġsuddenly":2635,"40":2636,"asant":2637,"ethod":2638,"ĠMan":2639,"Ġglad":2640,"Ġtoward":2641,"ĠHar":2642,"ford":2643,"Ġemb":2644,"Ġplain":2645,"Ġlaid":2646,"athe":2647,"unity":2648,"Ġund":2649,"Ġgreater":2650,"Ġimportant":2651,"ĠHen":2652,"ĠUnited":2653,"Ġbright":2654,"Ġprev":2655,"Ġfeeling":2656,"off":2657,"Ġstay":2658,"Ġpal":2659,"Ġcomes":2660,"osp":2661,"'m":2662,"âĢĶâĢĶ":2663,"char":2664,"ience":2665,"ĠAp":2666,"roy":2667,"Ġrepe":2668,"CHAPTER":2669,"oses":2670,"stit":2671,"ividual":2672,"Ġbreat":2673,"Ġgrand":2674,"Ġwat":2675,"Ġlangu":2676,"Ġstat":2677,"ĠChurch":2678,"ĠPhil":2679,"just":2680,"ille":2681,"cience":2682,"Ġnone":2683,"Ġeverything":2684,"Ġaction":2685,"ma":2686,"Ġslight":2687,"ĠRo":2688,"Ġago":2689,"ĠEx":2690,"Ġcra":2691,"Ġdog":2692,"Ġfast":2693,"road":2694,"Ġaccept":2695,"ĠFl":2696,"time":2697,"Ġtro":2698,"Ġremember":2699,"Ġdistance":2700,"vere":2701,"ĠBritish":2702,"AGGG":2703,"ĠAm":2704,"Ġobl":2705,"Ġmouth":2706,"Ġdaughter":2707,"So":2708,"ĠChristian":2709,"ump":2710,"ĠBar":2711,"ager":2712,"aded":2713,"AGGC":2714,"Ġhappy":2715,"Ġgun":2716,"ike":2717,"into":2718,"ĠCo":2719,"ĠProject":2720,"ĠGree":2721,"Ġsn":2722,"acy":2723,"upon":2724,"Ġpen":2725,"Ġestab":2726,"see":2727,"ĠGover":2728,"atever":2729,"Ġespecially":2730,"rowd":2731,"ulation":2732,"Ġjoy":2733,"Ġdeg":2734,"Ġpaper":2735,"Ġentered":2736,"Ġsens":2737,"Ġboys":2738,"Ġsaying":2739,"Ġdesp":2740,"Ġsuppose":2741,"inner":2742,"Ġden":2743,"ession":2744,"Ġdifficult":2745,"Ġmakes":2746,"idered":2747,"Ġattention":2748,"TTTC":2749,"alley":2750,"spe":2751,"tic":2752,"eness":2753,"oose":2754,"Ġpolit":2755,"Ġnorth":2756,"aterial":2757,"formation":2758,"Ġintell":2759,"uture":2760,"orses":2761,"lling":2762,"about":2763,"Ġopened":2764,"Ġbelow":2765,"enth":2766,"Ġrich":2767,"ancy":2768,"Ġsuffic":2769,"ĠĠĠĠĠĠĠĠĠĠĠĠ":2770,"bel":2771,"Ġtrees":2772,"Ġcompany":2773,"AGCC":2774,"Ġpretty":2775,"Ġdelight":2776,"Ġcontr":2777,"Ġhar":2778,"ĠGeneral":2779,"ĠLet":2780,"Ġdoing":2781,"ĠGutenberg":2782,"Ġpersons":2783,"Ġdemand":2784,"ĠMad":2785,"Ġconv":2786,"US":2787,"Ġfood":2788,"ĠII":2789,"36":2790,"Now":2791,"Ġgod":2792,"Ġcompl":2793,"uous":2794,"Ġwide":2795,"Ġgreen":2796,"Ġoper":2797,"Ġbear":2798,"37":2799,"ruction":2800,"mn":2801,"ech":2802,"great":2803,"Why":2804,"Ġ...":2805,"Ġbattle":2806,"Ġgenerally":2807,"ishing":2808,"Ġgovernment":2809,"sm":2810,"erc":2811,"35":2812,"ĠHere":2813,"hel":2814,"38":2815,"Ġfrequ":2816,"Ġsal":2817,"39":2818,"could":2819,"Ġneither":2820,"osop":2821,"ik":2822,"Ġcoun":2823,"pping":2824,"Ġlived":2825,"'ve":2826,"ĠSome":2827,"cil":2828,"ĠCan":2829,"certain":2830,"Ġmass":2831,"pic":2832,"reed":2833,"iety":2834,"mission":2835,"48":2836,"Ġneighb":2837,"never":2838,"iction":2839,"Ġheavy":2840,"Ġthird":2841,"Ġtried":2842,"Ġgrow":2843,"Ġconcl":2844,"pass":2845,"47":2846,"Ġancient":2847,"Ġjour":2848,"46":2849,"OM":2850,"ajor":2851,"Ġpoet":2852,"oted":2853,"ATAA":2854,"Ġdevelop":2855,"ENT":2856,"Ġblue":2857,"Ġthick":2858,"ye":2859,"ĠGeorge":2860,"45":2861,"Ġcentury":2862,"Ġmonths":2863,"Ġisland":2864,"Ġstone":2865,"alled":2866,"Ġhy":2867,"ĠPe":2868,"long":2869,"ication":2870,"ades":2871,"Ġwanted":2872,"ray":2873,"ching":2874,"Ġsingle":2875,"Ġloc":2876,"ĠCaptain":2877,"arrow":2878,"Ġcompan":2879,"Ġplaces":2880,"cely":2881,"Ġ--":2882,"Ġvict":2883,"Ġminutes":2884,"Ġgra":2885,"Ġrecogn":2886,"Ġopinion":2887,"aled":2888,"ned":2889,"Ġcases":2890,"Ġcertainly":2891,"cceed":2892,"ograph":2893,"pond":2894,"CT":2895,"rief":2896,"olute":2897,"Ġsepar":2898,"Ġduty":2899,"ĠItal":2900,"=,":2901,"ĠIN":2902,"Not":2903,"Ġorgan":2904,"yl":2905,"49":2906,"Ġenjoy":2907,"arden":2908,"gress":2909,"Ġdepart":2910,"Ġcircumst":2911,"known":2912,"imate":2913,"ĠEl":2914,"Ġoccur":2915,"All":2916,"iles":2917,"Ġcontain":2918,"TGTG":2919,"De":2920,"por":2921,"ĠLady":2922,"IG":2923,"itable":2924,"Ġgen":2925,"mar":2926,"Ġinqu":2927,"Ġremained":2928,"ĠĠĠĠĠĠĠĠĠĠĠĠĠĠĠ":2929,"Ġsouth":2930,"uded":2931,"iant":2932,"Î½":2933,"UR":2934,"should":2935,"sembl":2936,"Ġsto":2937,"ox":2938,"Ġcost":2939,"osing":2940,"Ġburn":2941,"ĠMary":2942,"onel":2943,"Ġlaugh":2944,"Ġbound":2945,"oup":2946,"ingu":2947,"Ġcondition":2948,"reme":2949,"ĠWest":2950,"itation":2951,"Ġconduct":2952,"inc":2953,"icked":2954,"Ġformed":2955,"ĠQu":2956,"ĠSE":2957,"place":2958,"again":2959,"Ġconsequ":2960,"Ġconce":2961,"pany":2962,"anted":2963,"while":2964,"aped":2965,"Ġaf":2966,"Ġstrength":2967,"Ġwindow":2968,"ites":2969,"Ġdesire":2970,"Ġ186":2971,"essel":2972,"ams":2973,"bet":2974,"ming":2975,"Ġtree":2976,"Ġmine":2977,"Ġcrowd":2978,"Ġweek":2979,"than":2980,"inal":2981,"Ġviol":2982,"Ġanx":2983,"Ġoffice":2984,"set":2985,"Ġfle":2986,"ĠParis":2987,"Ġsitu":2988,"rible":2989,"Ġexact":2990,"III":2991,"eks":2992,"aries":2993,"Ġsuper":2994,"TTGG":2995,"Ġinfluence":2996,"Ar":2997,"erson":2998,"Ġphys":2999,"Ġchance":3000,"dered":3001,"uted":3002,"ĠCor":3003,"een":3004,"lo":3005,"ĠGu":3006,"eg":3007,"Ġpleasure":3008,"Ġbott":3009,"ĠĠĠĠĠĠĠĠĠĠĠĠĠĠ":3010,"Ġ11":3011,"ourage":3012,"Ġindividual":3013,"Ġlines":3014,"acher":3015,"Ġwrong":3016,"Ġcry":3017,"ean":3018,"ointed":3019,"Ġcomfort":3020,"has":3021,"Ġoffe":3022,"Ġdefe":3023,"Ġfun":3024,"AAGG":3025,"hold":3026,"Ġboat":3027,"bar":3028,"Ġfuture":3029,"rict":3030,"Ġdress":3031,"TCTC":3032,"ulty":3033,"Ġang":3034,"reet":3035,"icate":3036,"raid":3037,"Ġmid":3038,"Ġnote":3039,"ĠÎ":3040,"comm":3041,"ourt":3042,"IV":3043,"car":3044,"Ġfresh":3045,"Ġappearance":3046,"ĠEm":3047,"Ġbeauty":3048,"hib":3049,"rill":3050,"Ġtrust":3051,"Ġdie":3052,"Ġimmediately":3053,"aste":3054,"together":3055,"stood":3056,"Ġbeginning":3057,"orough":3058,"rig":3059,"Ġlie":3060,"work":3061,"ĠDon":3062,"dist":3063,"Ġbroken":3064,"isc":3065,"bled":3066,"ston":3067,"Al":3068,"soci":3069,"Ġpaid":3070,"ĠQue":3071,"Ġweak":3072,"Ġenc":3073,"Ġvessel":3074,"Ġsave":3075,"ux":3076,"Ġletters":3077,"ĠHenry":3078,"TCCC":3079,"Ġfat":3080,"ĠOh":3081,"Ġfurn":3082,"Ġtry":3083,"istic":3084,"Ġrapid":3085,"Ġtrain":3086,"Ġsimple":3087,"Ġhardly":3088,"Ġsimilar":3089,"Ġbooks":3090,"Ġdom":3091,"Ġcovered":3092,"Ġspo":3093,"Ġtrouble":3094,"ĠAug":3095,"Ġliter":3096,"Ġmusic":3097,"Ġbecom":3098,"**":3099,"Ġmethod":3100,"iced":3101,"ĠTom":3102,"ishop":3103,"rid":3104,"Ġwrote":3105,"ATTC":3106,"Ġeat":3107,"ĠIndian":3108,"umb":3109,"Ġwarm":3110,"Ġhorses":3111,"Ġeasy":3112,"Ġfilled":3113,"_;":3114,"Ġhop":3115,"Ġdesign":3116,"rep":3117,"Ġstanding":3118,"cription":3119,"ĠJack":3120,"Ġfamil":3121,"Ġcivil":3122,"wood":3123,"Ġafterwards":3124,"ACAC":3125,"itive":3126,"Ġgentleman":3127,"ĠNorth":3128,"ĠWhy":3129,"Ġhappened":3130,"essed":3131,"Ġprocess":3132,"Ġsucceed":3133,"said":3134,"Ġetc":3135,"ĠSte":3136,"culiar":3137,"ashion":3138,"Ġheaven":3139,"Ġsafe":3140,"Ġeasily":3141,"Ġcarry":3142,"ĠState":3143,"before":3144,"Ġentirely":3145,"ĠSouth":3146,"Ġmerely":3147,"Ġvillage":3148,"mber":3149,"erous":3150,"Ġfigure":3151,"Ġcover":3152,"Ġlower":3153,"Ġmaterial":3154,"Ġcomb":3155,"Ġcharge":3156,"uses":3157,"only":3158,"Ġraised":3159,"ett":3160,"Ġpresence":3161,"Ġhung":3162,"Ġyouth":3163,"ables":3164,"Ġmill":3165,"Ġintrodu":3166,"Ġstreet":3167,"Ġglass":3168,"ails":3169,"Ġarrived":3170,"umn":3171,"Ġgrave":3172,"Ġclot":3173,"iden":3174,"Ġsister":3175,"Ġ+":3176,"little":3177,"ashing":3178,"60":3179,"play":3180,"Ġenter":3181,"Ġinstead":3182,"ĠHouse":3183,"Ġprevent":3184,"Ġterms":3185,"Ġdrink":3186,"erve":3187,"Ġmad":3188,"gment":3189,"Ġpun":3190,"two":3191,"Ġlips":3192,"OO":3193,"ATGG":3194,"IR":3195,"Ġpiece":3196,"Ġpress":3197,"Ġmeant":3198,"Ġmemb":3199,"ghed":3200,"Ã¨":3201,"ores":3202,"ĠCharles":3203,"Ġexclaimed":3204,"Ġusual":3205,"TTTG":3206,"oyal":3207,"22":3208,"Ġdirection":3209,"omen":3210,"finite":3211,"Ġlanguage":3212,"lying":3213,"Ġfru":3214,"Ġwis":3215,"Ġinn":3216,"Ġmodern":3217,"eds":3218,"Ġcru":3219,"70":3220,"Ġspring":3221,"Ġder":3222,"Î±":3223,"vation":3224,"Ġwhis":3225,"Ġbuilt":3226,"aced":3227,"Ġforms":3228,"ization":3229,"Ġexpress":3230,"Ġconsidered":3231,"rif":3232,"Ġvalue":3233,"Ġmoved":3234,"Ġlaws":3235,"ĠAmerica":3236,"ibly":3237,"Ġdue":3238,"every":3239,"esty":3240,"Ġstarted":3241,"Ġsomewhat":3242,"Ġpure":3243,"olved":3244,"Ġcustom":3245,"Ġliber":3246,"Ġgiving":3247,"Ġamount":3248,"TTCC":3249,"ĠWell":3250,"Ġimpossible":3251,"Ġborn":3252,"75":3253,"Ġseven":3254,"With":3255,"ĠCount":3256,"noon":3257,"ĠJames":3258,"Ġconvers":3259,"Ġhat":3260,"ĠRoman":3261,"Ġsole":3262,"Ġrace":3263,"hw":3264,"Ġsilence":3265,"ology":3266,"Ġmiddle":3267,"Ġfool":3268,"Ġpubl":3269,"Be":3270,"reen":3271,"Ġneg":3272,"ny":3273,"anch":3274,"Ġbroad":3275,"icated":3276,"Ġfing":3277,"Ġ$":3278,"asp":3279,"ĠThom":3280,"Ġdrew":3281,"arl":3282,"Ġguard":3283,"Ġiron":3284,",âĢĶ":3285,"bles":3286,"irth":3287,"enced":3288,"Ġmot":3289,"field":3290,"pal":3291,"Ġknows":3292,"ĠRuss":3293,"ĠĠĠĠĠĠĠĠĠĠĠĠĠĠĠĠĠ":3294,"rol":3295,"elve":3296,"Ġspecies":3297,"AD":3298,"port":3299,"Ġball":3300,"Ġsmile":3301,"Ġoutside":3302,"Ġshown":3303,"Ġofficers":3304,"uge":3305,"cer":3306,"âĢĵ":3307,"Ġcaught":3308,"Ġslowly":3309,"sk":3310,"nal":3311,"mitted":3312,"Ġune":3313,"Ġhost":3314,"ÏĦ":3315,"Ġwalls":3316,"jo":3317,"umed":3318,"cause":3319,"Ġgall":3320,"Ġsharp":3321,"Ġchap":3322,"Ġlearned":3323,"Ġphil":3324,"Ġspecial":3325,"Ġadvant":3326,"Ġyourself":3327,"Ġstraight":3328,"Ġgives":3329,"Ġobserved":3330,"ourse":3331,"Ġinh":3332,"unk":3333,"Mar":3334,"kes":3335,"amb":3336,"Is":3337,"Ġappears":3338,"Ġkilled":3339,"Ġcapt":3340,"Ġid":3341,"Ġspot":3342,"idenote":3343,"ague":3344,"__":3345,"80":3346,"59":3347,"Ġusually":3348,"Î¿":3349,"Ġoriginal":3350,"Ġstruck":3351,"Ġcommun":3352,"Ġdi":3353,"AGAG":3354,"Ġwalked":3355,"ĠGreat":3356,"zz":3357,"Ġban":3358,"eed":3359,"Ġnoble":3360,"Ġgreatest":3361,"Sidenote":3362,"cond":3363,"Ġign":3364,"your":3365,"Ġleaves":3366,"iring":3367,"Ġyes":3368,"Ġgirls":3369,"Ġeduc":3370,"Ġsurface":3371,"wing":3372,"Ġhath":3373,"Ġant":3374,"bered":3375,"Ġhouses":3376,"Ġthinking":3377,"ification":3378,"Ġlord":3379,"Ġallowed":3380,"-+":3381,"====":3382,"zen":3383,"Ġmarried":3384,"arily":3385,"even":3386,"oom":3387,"'re":3388,"Ġextra":3389,"back":3390,"ias":3391,"ĠLou":3392,"Ġboard":3393,"occ":3394,"Ġnotice":3395,"His":3396,"Ġevil":3397,"vey":3398,"apt":3399,"Ġwhatever":3400,"Ġunto":3401,".;":3402,"Ġsummer":3403,"Ġsick":3404,"olly":3405,">,":3406,"ĠSm":3407,"ĠLa":3408,"dra":3409,"through":3410,"aces":3411,"âĢķâĢķ":3412,"bing":3413,"riend":3414,"ram":3415,"ĠSpan":3416,"Ġapparent":3417,"Ġartic":3418,"ception":3419,":--":3420,"Ġgetting":3421,"Ġjourney":3422,"ĠFran":3423,"Ġoblig":3424,"Ġsand":3425,"Ġpeculiar":3426,"acc":3427,"ration":3428,"Ġquickly":3429,"Ġ189":3430,"Ġfirm":3431,"56":3432,"Ġafraid":3433,"happ":3434,"cher":3435,"erved":3436,"Ġdepend":3437,"Ġpicture":3438,"ĠWar":3439,"ishment":3440,"itor":3441,"Ġvirt":3442,"made":3443,"Ġproduced":3444,"ĠJew":3445,"Ġnames":3446,"Ġexperience":3447,"Ġstudy":3448,"view":3449,"Ġimpro":3450,"these":3451,"One":3452,"Ġbank":3453,"ify":3454,"may":3455,"Ġthirty":3456,"Ġgrace":3457,"Ġshowed":3458,"worth":3459,"sub":3460,"RI":3461,"Ġloved":3462,"ipp":3463,"ĠPres":3464,"Ġprint":3465,"33":3466,"Ġhealth":3467,"lin":3468,"Ġleaving":3469,"Ġcloud":3470,"Ġtrad":3471,"hest":3472,"76":3473,"Ġpull":3474,"Ġsupposed":3475,"ĠJes":3476,"Ġfloor":3477,"ailed":3478,"Ġtroops":3479,"Ġexpression":3480,"gypt":3481,"asing":3482,"ov":3483,"osite":3484,"After":3485,"Ġcit":3486,"Ġloss":3487,"lex":3488,"Ġpath":3489,"Ġstopped":3490,"Ġcopy":3491,"ibility":3492,"ĠThus":3493,"Ġsociety":3494,"Ġthoughts":3495,"ST":3496,"ustri":3497,"estions":3498,"Ġforeign":3499,"Ġseeing":3500,"58":3501,"Ġmagn":3502,"Ġdim":3503,"Ġshad":3504,"Ġclaim":3505,"ĠRome":3506,"clock":3507,"ĠST":3508,"Ġscene":3509,"Ġwrite":3510,"Ġconstit":3511,"Ġmess":3512,"rees":3513,"Ġcoast":3514,"ĠQueen":3515,"lar":3516,"Âł":3517,"ander":3518,"Ġsupport":3519,"ply":3520,"Ġmembers":3521,"Ġtest":3522,"anc":3523,"Ġspace":3524,"Ġsurr":3525,"Ġdrawn":3526,"Ġwinter":3527,"Ġgrew":3528,"udd":3529,"Ġtit":3530,"Ġforget":3531,"nce":3532,"ril":3533,"Ġ{":3534,"AGTG":3535,"AAAC":3536,"Ġlaughed":3537,"lend":3538,"Ġspr":3539,"Ġfra":3540,"Ġlives":3541,"iments":3542,"ĠYet":3543,"BER":3544,"lected":3545,"gged":3546,"Ġgoes":3547,"Ġchair":3548,"Ġmountain":3549,"ATGC":3550,"iqu":3551,"ĠCal":3552,"kind":3553,"44":3554,"Ġ22":3555,"ergy":3556,"Of":3557,"istance":3558,"ĠPrince":3559,"Do":3560,"Ġnarrow":3561,"Ġopport":3562,"know":3563,"fast":3564,"Ġess":3565,"Ġdinner":3566,"Ġconsiderable":3567,"Ġscarcely":3568,"ĠMon":3569,"ented":3570,"leg":3571,"ok":3572,"Ġutter":3573,"ĠRich":3574,"Ġproperty":3575,"Ġequal":3576,"Ġexec":3577,"Ġchanged":3578,"Ġneck":3579,"By":3580,"ĠAugust":3581,"umber":3582,"Ġsnow":3583,"nat":3584,"Ġdry":3585,"Ġsad":3586,"first":3587,"Ġtend":3588,"Ġexpected":3589,"Ġtemper":3590,"SE":3591,"Ġshot":3592,"Ġdistingu":3593,"Ġsoldiers":3594,"Ġdiscovered":3595,"Ġevidence":3596,"Ġnews":3597,"Ġsong":3598,"Ġmentioned":3599,"ois":3600,"Ġcat":3601,"ocked":3602,"Ġspread":3603,"respond":3604,"Ġexcell":3605,"pet":3606,"aval":3607,"Ġforest":3608,"Ġcircumstances":3609,"Ġfal":3610,"Ġforgot":3611,"Ġflowers":3612,"Sh":3613,"Ġdistinct":3614,"Ġ40":3615,"Ġdestroy":3616,"Ġpassage":3617,"down":3618,"good":3619,"Ġexample":3620,"Ġgaz":3621,"anging":3622,"uments":3623,"Ġextreme":3624,"ĠTheir":3625,"ĠGl":3626,"ĠIndians":3627,"bre":3628,"Ġreach":3629,"Ġhero":3630,"Ġstrugg":3631,"Ġcou":3632,"Ġauthority":3633,"Ġtears":3634,"Ġheat":3635,"peror":3636,"Ġwait":3637,"sur":3638,"arsh":3639,"antic":3640,"Ġexistence":3641,"Ġrain":3642,"Ġmut":3643,"Ġwest":3644,"Ġpros":3645,"Ġprivate":3646,"Ã¢":3647,"Ġcrit":3648,"Ġreligion":3649,"ĠBur":3650,"such":3651,"ĠGovernment":3652,"Ġdecided":3653,"olic":3654,"Ġphilosop":3655,"heart":3656,"itch":3657,"Ġbuilding":3658,"estern":3659,"Ġfifty":3660,"--\"":3661,"yle":3662,"ceived":3663,"Ġmach":3664,"illy":3665,"Ġanimal":3666,"Ġreve":3667,"ems":3668,"rey":3669,"Ġbell":3670,"Ġ188":3671,"Ġtone":3672,"Ġfixed":3673,"ĠSw":3674,"Ġrevol":3675,"ĠWhere":3676,"Ġsides":3677,"Ġ190":3678,"ĠAg":3679,"ocks":3680,"ĠĠĠĠĠĠĠĠĠĠĠĠĠĠĠĠĠĠ":3681,"Ġhall":3682,"57":3683,"Ġrule":3684,"Ġbox":3685,"ĠPaul":3686,"Ġmarriage":3687,"Ġrul":3688,"ĠIII":3689,"Ġpra":3690,"arer":3691,"sl":3692,"TGCC":3693,"without":3694,"Ġpot":3695,"Ġarg":3696,"asures":3697,"Ġur":3698,"Ġmel":3699,"Ġbreath":3700,"âĶĢâĶĢâĶĢâĶĢâĶĢâĶĢâĶĢâĶĢ":3701,"Ġwaiting":3702,"Ġdiscuss":3703,"rec":3704,"Ġheight":3705,"Ġattend":3706,"much":3707,"Ġfavour":3708,"iny":3709,"lished":3710,"Ġnation":3711,"Ġmonth":3712,"ĠDav":3713,"AGAC":3714,"Ġdegree":3715,"ips":3716,"Ġaut":3717,"ĠCr":3718,"Ġinteresting":3719,"Ġsky":3720,"fortun":3721,"Ġbroke":3722,"Ġarch":3723,"Ġdescribed":3724,"pon":3725,"Ġcult":3726,"Ġkne":3727,"Ġfol":3728,"father":3729,"Ġobtained":3730,"Ġpursu":3731,"Ġpersonal":3732,"pected":3733,"Ġreceive":3734,"himself":3735,"Ġsize":3736,"ids":3737,"Ġminute":3738,"Ġnative":3739,"Ġsin":3740,"Ġbeside":3741,"iently":3742,"Ġgarden":3743,"Ġdeclared":3744,"Ġreligious":3745,"ĠXX":3746,"Ġbread":3747,"ACCC":3748,"Ġcaptain":3749,"Ġav":3750,"Ġpassing":3751,"Ġcre":3752,"umph":3753,"Ġhigher":3754,"Ġshout":3755,"ere":3756,"Ġones":3757,"ĠPh":3758,"ese":3759,"Ġunless":3760,"Ġrise":3761,"idently":3762,"ounced":3763,"ATCC":3764,"ffic":3765,"43":3766,"Ġmeeting":3767,"aud":3768,"ata":3769,"Ġband":3770,"Ġagree":3771,"Ġdread":3772,"Ġrequired":3773,"Ġprepared":3774,"Ġabsolute":3775,"uding":3776,"ATTG":3777,"uls":3778,"Ġafternoon":3779,"ental":3780,"Ġsitting":3781,"ternal":3782,"Ġconcern":3783,"Ġlikely":3784,"Ġwriting":3785,"Ġpassion":3786,"mark":3787,"duced":3788,"Ġsilver":3789,"_)":3790,"Ġweight":3791,"Ġsimply":3792,"ien":3793,"Ġbod":3794,"Ġescape":3795,"uel":3796,"Ġassoci":3797,"dif":3798,"Ġhabit":3799,"ĠTur":3800,"ĠJan":3801,"ĠMor":3802,"pir":3803,"Ġsufficient":3804,"Ġ36":3805,"ai":3806,"ills":3807,"ĠĠĠĠĠĠĠĠĠĠĠĠĠĠĠĠĠĠĠ":3808,"Ġrail":3809,"Let":3810,"Ġeager":3811,"ronic":3812,"thought":3813,"istory":3814,"Ġyellow":3815,"Ġanimals":3816,"Ġoffered":3817,"somet":3818,"Ġtender":3819,"ĠSam":3820,"Ġdetermined":3821,"Ġpolitical":3822,"Ġmiss":3823,"law":3824,"ae":3825,"Ġmoon":3826,"essor":3827,"might":3828,"Ġofficer":3829,"being":3830,",[":3831,"ĠThomas":3832,"Ġbow":3833,"ville":3834,"ĠAnt":3835,"Ġrepeated":3836,"Ġdoll":3837,"Ġhonour":3838,"Ġexerc":3839,"Ġpp":3840,"Ġproved":3841,"Ġmotion":3842,"order":3843,"Ġorders":3844,"Ġbrown":3845,"Mrs":3846,"Ġcab":3847,"Ġgrad":3848,"ĠTO":3849,"Ġspeech":3850,"From":3851,"ieve":3852,"ially":3853,"stant":3854,"Ġ21":3855,"ability":3856,"Ġlif":3857,"Ġspeaking":3858,"ctr":3859,"idden":3860,"Ġcrown":3861,"Ġfit":3862,"Ġimm":3863,"Ġbeat":3864,"chief":3865,"Ġgame":3866,"UT":3867,"ctions":3868,"ĠEgypt":3869,"Ġshore":3870,"Ġroy":3871,"Ġappre":3872,"Ġtwelve":3873,"Ġordinary":3874,"Ġrare":3875,"Ġwise":3876,"Ġcorner":3877,"Ġtakes":3878,"Ġadop":3879,"Ġinstance":3880,"isions":3881,"77":3882,"Ġbirds":3883,"Don":3884,"ensive":3885,"ĠNe":3886,"Ġallow":3887,"anges":3888,"Ġbeneath":3889,"amber":3890,"ĠEvery":3891,"Ġclosed":3892,"Ġvalley":3893,"Ġfem":3894,"Ġpet":3895,"ege":3896,"Eng":3897,"irgin":3898,"Ġearli":3899,"bu":3900,"Ġpale":3901,"emed":3902,"Ġsilent":3903,"55":3904,"retched":3905,"Ġrunning":3906,"Ġearn":3907,"Ġportion":3908,"ĠSEE":3909,"ĠJune":3910,"attered":3911,"Ġwitness":3912,"ĠĊ":3913,"water":3914,"ĠBer":3915,"Ġcaused":3916,"Ġbelieved":3917,"Ġmilitary":3918,"Ġcup":3919,"lands":3920,"bit":3921,"Ġkiss":3922,"perior":3923,"Ġtrade":3924,"Ġadmir":3925,"Ġobtain":3926,"ĠMin":3927,"Ġapart":3928,"Ġsail":3929,"Ġprogress":3930,"Ġstream":3931,"Ġcolour":3932,"Ġbas":3933,"Ġdescend":3934,"21":3935,"Ġdifficulty":3936,"Ġupper":3937,"AND":3938,"eav":3939,"Pro":3940,"did":3941,"quis":3942,"lement":3943,"came":3944,"bell":3945,"Ġpoints":3946,"ĠFather":3947,"Ġregular":3948,"ĠPeter":3949,"ĠIr":3950,"Ġfavor":3951,"Ġ50":3952,"LI":3953,"four":3954,"Ġinformation":3955,"found":3956,"Ġsocial":3957,"Ġstop":3958,"supp":3959,"ancing":3960,"Ġfashion":3961,"Ġsymp":3962,"oles":3963,"ival":3964,"Ġconditions":3965,"ATAC":3966,"vention":3967,"isters":3968,"TGAA":3969,"Ġdeb":3970,"Ġmaid":3971,"ĠRep":3972,"Ġplease":3973,"Ġvain":3974,"ET":3975,"Ġpleasant":3976,"Î¹":3977,"Ġsteps":3978,"Ġlot":3979,"Ġsatisf":3980,"Ġmoral":3981,"TTAA":3982,"TATG":3983,"must":3984,"orious":3985,"Ġfinally":3986,"morrow":3987,"igned":3988,"Ġiii":3989,"ios":3990,"Ġwished":3991,"asc":3992,"five":3993,"Ġserious":3994,"bey":3995,"Ġtouch":3996,"Ġtrying":3997,"eder":3998,"Ġdeli":3999,"Ġsmo":4000,"Ġemployed":4001,"Ġinj":4002,"Ġfish":4003,"34":4004,"Ġvan":4005,"Ġkill":4006,"those":4007,"don":4008,"Ġstation":4009,"Ġnamed":4010,"Ġreply":4011,"Ġwid":4012,"ares":4013,"Ġvast":4014,"iance":4015,"Ġremem":4016,"Ġmeaning":4017,"Ġhun":4018,"ĠOur":4019,"90":4020,"Ġgrass":4021,"AY":4022,"Ġconqu":4023,"ĠDuke":4024,"Ġopposite":4025,"Ġordered":4026,"Ġimportance":4027,"Ġeast":4028,"Ġspeed":4029,"Ġfro":4030,"Ġpossession":4031,"Ġmatters":4032,"urally":4033,"Ġpieces":4034,"cks":4035,"Ġsituation":4036,"ara":4037,"erable":4038,"Ġspent":4039,"ators":4040,"Ġworking":4041,"Ġsor":4042,"fit":4043,"Ġcolor":4044,"Ġstar":4045,"gen":4046,"ĠEven":4047,"TGGC":4048,"Ġmort":4049,"Ġfrequently":4050,"Ġwealth":4051,"aked":4052,"ĠVol":4053,"Ġpopular":4054,"Ġdoctor":4055,"ama":4056,"Ġadvantage":4057,"Äģ":4058,"pered":4059,"comp":4060,"Ġsteam":4061,"TCAC":4062,"oned":4063,"ĠGreek":4064,"Ġegg":4065,"ID":4066,"Ġrecord":4067,"Ġillustr":4068,"standing":4069,"ĠDan":4070,"Ġcapital":4071,"Ġcurious":4072,"ĠJuly":4073,"Ġremains":4074,"Ġclean":4075,"Ġterrible":4076,"ĠOct":4077,"Ġperfectly":4078,"Ġmovement":4079,"Ġplant":4080,"Ġexper":4081,"Ġbitter":4082,"atory":4083,"Ġways":4084,"Ġturning":4085,"oms":4086,"Ġforty":4087,"Ġmemory":4088,"78":4089,"ĠAf":4090,"ĠArch":4091,"Ġcorrect":4092,"Ġgroup":4093,"Ġthin":4094,"66":4095,"Ġvent":4096,"Ġdam":4097,"asons":4098,"ĠColl":4099,"vi":4100,"Ġring":4101,"eal":4102,"Ġstage":4103,"ode":4104,"ashed":4105,"Ġlying":4106,"ĠPort":4107,"Ġprove":4108,"cket":4109,"ĠWor":4110,"Ġcred":4111,"Ġmountains":4112,"stone":4113,"Ġwine":4114,"ris":4115,"rose":4116,"Ġsearch":4117,"Ġshut":4118,"Ġmeasure":4119,"ĠMarch":4120,"Ġmarked":4121,"Con":4122,"ÃŃ":4123,"Ġconscious":4124,"Ġheads":4125,"Ġintellig":4126,"ĠWho":4127,"cor":4128,"Ġaddition":4129,"Ġroyal":4130,"May":4131,"Ġnumerous":4132,"pel":4133,"Ġgreatly":4134,"ĠĠĠĠĠĠĠĠĠĠĠĠĠĠĠĠĠĠĠĠĠĠĠĠĠĠĠĠĠ":4135,"Ġquant":4136,"ajesty":4137,"ĠOld":4138,"ĠMc":4139,"79":4140,"Ġspir":4141,"ĠSy":4142,"Ġoffer":4143,"ait":4144,"ĠCong":4145,"Ġfruit":4146,"appeared":4147,"OT":4148,">(":4149,"Ġreading":4150,"Ġrefer":4151,"atures":4152,"bon":4153,"See":4154,"ĠĠĠĠĠĠĠĠĠĠĠĠĠĠĠĠĠĠĠĠ":4155,"Ġod":4156,"Ġstates":4157,"Ġ38":4158,"outhern":4159,"aker":4160,"Ġfacts":4161,"Ġextent":4162,"Ġspite":4163,"Ġengaged":4164,"Ġsatisfact":4165,"ĠJer":4166,"Ġconversation":4167,"Ġcalm":4168,"Ġreport":4169,"ĠJesus":4170,"Ġunderstood":4171,"Ind":4172,"cip":4173,"Ġseat":4174,"ĠLouis":4175,"odd":4176,"Ġimper":4177,"ĠBo":4178,"Ġladies":4179,"Ġjustice":4180,"Ġtong":4181,"Ġcand":4182,"Îµ":4183,"ading":4184,"ĠChe":4185,"41":4186,"Ġships":4187,"42":4188,"using":4189,"Ġsour":4190,"Ġfully":4191,"Ġsplend":4192,"Ġpublished":4193,"Ġdise":4194,"Ġourselves":4195,"Com":4196,"Ġgro":4197,"Ġopportunity":4198,"Ġdistribut":4199,"ĠFrank":4200,"OW":4201,"ĠCourt":4202,"atin":4203,"icks":4204,"Ġseason":4205,"esh":4206,"ĠPal":4207,"Ġparent":4208,"Ġfalse":4209,"Ġtot":4210,"Ġtall":4211,"gel":4212,"inent":4213,"ĠĠĠĠĠĠĠĠĠĠĠĠĠĠĠĠĠĠĠĠĠ":4214,"ais":4215,"Ġbottom":4216,"astic":4217,"uary":4218,"Ġintended":4219,"yr":4220,"Ġsav":4221,"Ġavo":4222,"Ġdifference":4223,"ulated":4224,"Here":4225,"Ġweeks":4226,"ĠScot":4227,"pons":4228,"eper":4229,"ulf":4230,"hor":4231,"ĠSu":4232,"inces":4233,"cr":4234,"aun":4235,"Ġrid":4236,"hens":4237,"exp":4238,"three":4239,"Ġaccompl":4240,"Ġstyle":4241,"Ġignor":4242,"Ġep":4243,"Ġdrawing":4244,"tw":4245,"lly":4246,"asts":4247,"Â·":4248,"aining":4249,"ĠJust":4250,"Ġlooks":4251,"Ġremoved":4252,"Ġris":4253,"ulous":4254,"ĠMe":4255,"rab":4256,"Ġhonor":4257,"ĠSch":4258,"olution":4259,"Ġiv":4260,"Ġthrown":4261,"ique":4262,"32":4263,"lebr":4264,"bling":4265,"ners":4266,"abitants":4267,"Ġeffort":4268,"Ġinches":4269,"line":4270,"Ġfright":4271,"ĠRobert":4272,"ĠSept":4273,"?âĢĻ":4274,"Ġstock":4275,"ault":4276,"liament":4277,"ĠLaw":4278,"Ġtaste":4279,"Ġoccupied":4280,"Ġthreat":4281,"pers":4282,"cts":4283,"Ġ----":4284,"orne":4285,"TTGC":4286,"mas":4287,"het":4288,"ĠJud":4289,"give":4290,"Un":4291,"ĠMag":4292,"ĠFig":4293,"Ġsquare":4294,"Ġproud":4295,"Ġwonderful":4296,"nes":4297,"ĠSuch":4298,"Ġstro":4299,"Ġpractice":4300,"Ġideas":4301,"met":4302,"hip":4303,"Ġthrew":4304,"Ġears":4305,"burg":4306,"follow":4307,"Ġthorough":4308,"cis":4309,"Ġcarefully":4310,"Ġpleased":4311,"icy":4312,"Ġdate":4313,"Ġarrange":4314,"Ġsurprise":4315,"Ġstir":4316,"racted":4317,"68":4318,"lor":4319,"Ġremarkable":4320,"inst":4321,"ordinary":4322,"aches":4323,"adv":4324,"Ġ39":4325,"ĠEast":4326,"Ġsake":4327,"fall":4328,"remon":4329,"bro":4330,"TAAG":4331,"athered":4332,"Ġpresented":4333,"Ġexactly":4334,"Ġprim":4335,"aper":4336,"omin":4337,"urb":4338,"ĠĠĠĠĠĠĠĠĠĠĠĠĠĠĠĠĠĠĠĠĠĠĠ":4339,"Ġfallen":4340,"Ġfier":4341,"Ġhistor":4342,"pelled":4343,"key":4344,"child":4345,"sit":4346,"Ġquarter":4347,"Ġweather":4348,"ground":4349,"Ġforced":4350,"ential":4351,"called":4352,"Ġcourage":4353,"Ġaffairs":4354,"Ġserve":4355,"Ġlies":4356,"Ġexcellent":4357,"Ġfreed":4358,"ndered":4359,"Ġfamous":4360,"Ġcook":4361,"Ġaid":4362,"ana":4363,"Ġpowers":4364,"leep":4365,"Ġhills":4366,"Ġcell":4367,"Ġpictures":4368,"ological":4369,"friend":4370,"many":4371,"utions":4372,"Ġbirth":4373,"looking":4374,"rate":4375,"Ġkingdom":4376,"Ġfamiliar":4377,"Ġunivers":4378,"Ġestablished":4379,"ferent":4380,"Ġjudge":4381,"Ġtrou":4382,"ĠRed":4383,"Ġblind":4384,"TCTG":4385,"Ġpack":4386,"Ġsuppl":4387,"31":4388,"Ġtalking":4389,"EM":4390,"ule":4391,"ĠStreet":4392,"Ġproof":4393,"Ġtor":4394,"Ġinstant":4395,"Ġseries":4396,"ĠColonel":4397,"Ġperform":4398,"Ġsorrow":4399,"Ġregarded":4400,"Ġcompar":4401,"ette":4402,"cies":4403,"Ġtype":4404,"Ġproport":4405,"Ġadvance":4406,"Ġworse":4407,"Ġ35":4408,"Ġfinished":4409,"Her":4410,"amm":4411,"astern":4412,"Ġsword":4413,"Ġquestions":4414,"GGG":4415,"jud":4416,"Ġbare":4417,"Ġclim":4418,"UL":4419,"Ġbra":4420,"Ġendeav":4421,"acle":4422,"Ġspoken":4423,"Ġedge":4424,"á¼":4425,"Ġtitle":4426,"Ġbecomes":4427,"69":4428,"ERS":4429,"think":4430,"Ġsevent":4431,"Ġfortune":4432,"Ġcorrespond":4433,"Â´":4434,"take":4435,"Ġconcer":4436,"Ġevents":4437,"Ġrough":4438,"Ġpromise":4439,"serv":4440,"Ġprec":4441,"uries":4442,"Ġdarkness":4443,"Ġrate":4444,"people":4445,"ĠPresident":4446,"ashington":4447,"Ġparticularly":4448,"usted":4449,"vert":4450,"Ġaddress":4451,"Ġcitiz":4452,"book":4453,"Ġlarger":4454,"Ġdu":4455,"mother":4456,"Ġwel":4457,"org":4458,"Ġdistrict":4459,"Ġwear":4460,"ĠĠĠĠĠĠĠĠĠĠĠĠĠĠĠĠĠĠĠĠĠĠĠĠĠ":4461,"Ġhappiness":4462,"ims":4463,"acity":4464,"Ah":4465,"Ġgate":4466,"Ġopening":4467,"ĠApril":4468,"rap":4469,"sw":4470,"Ġpage":4471,"Ġterm":4472,"Ġevent":4473,"These":4474,"Ġwouldn":4475,"Ġtransl":4476,"iation":4477,"life":4478,"Ġshape":4479,"Ġglory":4480,"necess":4481,"Ex":4482,"van":4483,"ĠĠĠĠĠĠĠĠĠĠĠĠĠĠĠĠĠĠĠĠĠĠĠĠĠĠĠĠ":4484,"Ġrelation":4485,"Ġbold":4486,"Ġdwell":4487,"ivity":4488,"Ġbab":4489,"ĠYes":4490,"Ġsucceeded":4491,"Ġcheer":4492,"requ":4493,"verse":4494,"Ġleading":4495,"Ġexped":4496,"oseph":4497,"ĠâĢĶ":4498,"say":4499,"urd":4500,"Ġprincipal":4501,"ĠĠĠĠĠĠĠĠĠĠĠĠĠĠĠĠĠĠĠĠĠĠ":4502,"Ġholding":4503,"Ġroof":4504,"Ġhighest":4505,"Ġsch":4506,"Ġsettled":4507,"Ġsmiled":4508,"Ġbesides":4509,"Ġshook":4510,"Ġwounded":4511,"Ġclothes":4512,"AAAG":4513,"ĠTe":4514,"Ġsought":4515,"ĠHim":4516,"Ġdiss":4517,"ĠCHAPTER":4518,"Ġshows":4519,"ky":4520,"ipe":4521,"Ġdistant":4522,"ora":4523,"Ã¼":4524,"Ġshell":4525,"Ġloud":4526,"ĠĠĠĠĠĠĠĠĠĠĠĠĠĠĠĠĠĠĠĠĠĠĠĠĠĠĠĠĠĠĠ":4527,"Ġcentre":4528,"ĠTH":4529,"ainted":4530,"Ġprovided":4531,"Ġbull":4532,"God":4533,"cles":4534,"Pr":4535,"ico":4536,"GGC":4537,"Ġmor":4538,"Ġfollows":4539,"Ġbrave":4540,"ober":4541,"ĠAfric":4542,"Ġpointed":4543,"Ġestablish":4544,"Ġlean":4545,"atis":4546,"atives":4547,"Ġsuperior":4548,"ferred":4549,"athy":4550,"ĠSpanish":4551,"Ġworthy":4552,"Ġmir":4553,"TATC":4554,"ilst":4555,"Ġburst":4556,"ÏĤ":4557,"CE":4558,"Ġotherwise":4559,"Ġobliged":4560,"ĠMart":4561,"Ġbill":4562,"conscious":4563,"Ġdoctr":4564,"Ġbrief":4565,"del":4566,"course":4567,"Ġshare":4568,"turn":4569,"mod":4570,"ĠAlex":4571,"incess":4572,"Ġsuffer":4573,"ada":4574,"Ġempt":4575,"Ġserved":4576,"ufact":4577,"Ġnine":4578,"Ġadvent":4579,"Ġfill":4580,"Ġrising":4581,"interest":4582,"last":4583,"ste":4584,"Ġprinciple":4585,"Ġpos":4586,"Ġcouldn":4587,"ĠFort":4588,"nding":4589,"ATION":4590,"Re":4591,"ica":4592,"isp":4593,"Ġyield":4594,"Ġamb":4595,"Ġdaily":4596,"wr":4597,"Ġaffection":4598,"alities":4599,"Ġworked":4600,"Ġscience":4601,"Ġstreets":4602,"ĠĠĠĠĠĠĠĠĠĠĠĠĠĠĠĠĠĠĠĠĠĠĠĠĠĠ":4603,"conom":4604,"fle":4605,"Ġisn":4606,"Ġwatched":4607,"Ġdouble":4608,"Ġfate":4609,"TAAC":4610,"ads":4611,"Ġque":4612,"Ġcatch":4613,"Per":4614,"theless":4615,"Ġdiscover":4616,"ARD":4617,"panied":4618,"Ġearnest":4619,"Ġwaters":4620,"ĠMed":4621,"Ġservant":4622,"Ġsorry":4623,"Ġproduce":4624,"Ġindepend":4625,"ishes":4626,"Ġanxious":4627,"Ġcool":4628,"Ġthroughout":4629,"ĠIndia":4630,"umes":4631,"present":4632,"Christ":4633,"Where":4634,"Ġhonest":4635,"vis":4636,"ĠSpain":4637,"Ġwoods":4638,"TA":4639,"Ġbase":4640,"Ġexhib":4641,"Ġthro":4642,"ĠCast":4643,"tee":4644,"Ġaston":4645,"ĠBel":4646,"Ġinstr":4647,"ĠHigh":4648,"opp":4649,"Ġofficial":4650,"aret":4651,"war":4652,"Ġblow":4653,"Ġpowerful":4654,"ĠIV":4655,"ĠHall":4656,"Ġglance":4657,"ĠSmith":4658,"izing":4659,"udes":4660,"orous":4661,"Ġholy":4662,"Ġseek":4663,"Ġbodies":4664,"Ġagreed":4665,"ĠâĢ":4666,"Ġliberty":4667,"ushing":4668,"against":4669,"Ġprince":4670,"Ġnational":4671,"Ġpride":4672,"Ġdivine":4673,"Ġrefused":4674,"Ġappointed":4675,"Ġtax":4676,"ĠEdward":4677,"Ġrob":4678,"utenant":4679,"ĠEn":4680,"Ġlose":4681,"ula":4682,"Tr":4683,"Ġmission":4684,"ĠĠĠĠĠĠĠĠĠĠĠĠĠĠĠĠĠĠĠĠĠĠĠĠĠĠĠ":4685,"Ã¶":4686,"TTAC":4687,"Ïģ":4688,"Ġeld":4689,"hum":4690,"ĠGermany":4691,"Ġprice":4692,"unday":4693,"ĠMont":4694,"Ġvig":4695,"ouring":4696,"Ġequally":4697,"ĠCompany":4698,"Ġactually":4699,"Ġvolume":4700,"Ġsevere":4701,"ocr":4702,"Ġsacred":4703,"Ġtriumph":4704,"Ġnumbers":4705,"Ġsolemn":4706,"cur":4707,"Ġice":4708,"Ġthank":4709,"bury":4710,"Ġfeelings":4711,"Ġkeeping":4712,"away":4713,"page":4714,"Ġplayed":4715,"iber":4716,"Ġfaint":4717,"utation":4718,"Ġbreast":4719,"Ġdign":4720,"aved":4721,"ĠWil":4722,"ari":4723,"Ġdem":4724,"Ġcloth":4725,"cked":4726,"Ġaltogether":4727,"Ġpa":4728,"och":4729,"ĠTwo":4730,"Ġexplained":4731,"Ġvo":4732,"Ġexceed":4733,"ca":4734,"Ġfancy":4735,"Ġcontrary":4736,"74":4737,"Ġapplied":4738,"aine":4739,"Ġrad":4740,"isting":4741,"Ġmighty":4742,"ago":4743,"ĠMac":4744,"Ġsoldier":4745,"arest":4746,"appear":4747,"Le":4748,"ension":4749,"Ġjudgment":4750,"tering":4751,"Ġz":4752,"mir":4753,"Ġdropped":4754,"Ġmult":4755,"Ġskin":4756,"va":4757,"Ġcelebr":4758,"Ġgrat":4759,"Ġsecure":4760,"ĠDick":4761,"ĠCath":4762,"Ġincreased":4763,"Ġpreced":4764,"Ġuncle":4765,"99":4766,"Ġhearts":4767,"Ġcruel":4768,"because":4769,"offe":4770,"Ġhom":4771,"Ġmajor":4772,"hem":4773,"Ġpriest":4774,"Ġdisplay":4775,"ĠRom":4776,"isl":4777,"Ġmanif":4778,"conf":4779,"itz":4780,"Ġapparently":4781,"Ġflat":4782,"onder":4783,"ĠPat":4784,"bly":4785,"agg":4786,"Ġdust":4787,"Ġaud":4788,"Ġfarm":4789,"GCC":4790,"Ġpromised":4791,"Ġconcerning":4792,"Ġrocks":4793,"iii":4794,"ĠMer":4795,"Ġnations":4796,"Ġsuggested":4797,"ĠRiver":4798,"Ġadvanced":4799,"uable":4800,"flict":4801,"ĠIts":4802,"ĠWhile":4803,"mind":4804,"Ġrequire":4805,"nothing":4806,"Ġstorm":4807,"aur":4808,"Ġbelief":4809,"Ġpair":4810,"Ġafford":4811,"Ġtea":4812,"agon":4813,"Ġguns":4814,"Ġpit":4815,"73":4816,"isher":4817,"Ġfault":4818,"Will":4819,"Ġaside":4820,"AAGC":4821,"Ġsalt":4822,"Ġsubjects":4823,"Ġpossessed":4824,"Ġflesh":4825,"Ġlegs":4826,"another":4827,"ĠĠĠĠĠĠĠĠĠĠĠĠĠĠĠĠĠĠĠĠĠĠĠĠĠĠĠĠĠĠ":4828,"Ġsuspic":4829,"Ġbless":4830,"enes":4831,"Ġfer":4832,"Ġresults":4833,"Ġeducation":4834,"elle":4835,"Ġentertain":4836,"Ġnoticed":4837,"Ġevidently":4838,"ĠLu":4839,"Ġjoined":4840,"pes":4841,"Ġlabor":4842,"between":4843,"Ġfailed":4844,"Ġnice":4845,"ĠProf":4846,"ĠItaly":4847,"ĠWhite":4848,"Ġvers":4849,"Ġgar":4850,"Ġfingers":4851,"Ġlack":4852,"Ġdescription":4853,"iece":4854,"ĠMore":4855,"ĠRichard":4856,"UM":4857,"Ġtail":4858,"Ġshadow":4859,"Ġinside":4860,"osen":4861,"ART":4862,"Ġgrowing":4863,"Ġhosp":4864,"Ġtheory":4865,"ieur":4866,"Ġclearly":4867,"Ġfond":4868,"ĠSan":4869,"ĠÂ£":4870,"Ġgentlemen":4871,"Ġdesired":4872,"rer":4873,"Ġinhabitants":4874,"72":4875,"Ġrank":4876,"Ġfigures":4877,"âķ":4878,"Ġpapers":4879,"Ġmarry":4880,"Ġguess":4881,"arly":4882,"88":4883,"ĠHel":4884,"Â°":4885,"aver":4886,"Ġlevel":4887,"chen":4888,"Ġnon":4889,"Ġuseful":4890,"Ġpounds":4891,"Ãª":4892,"whe":4893,"Ġcurrent":4894,"ker":4895,"apan":4896,"Ġunknown":4897,"Ġdirectly":4898,"Ġwin":4899,"ĠWal":4900,"Ġstands":4901,"host":4902,"65":4903,"Ġlog":4904,"Ġ180":4905,"rant":4906,"ivered":4907,"ĠVirgin":4908,"Ġinstruct":4909,"Ġforgotten":4910,"Ġsupply":4911,"ĠMadame":4912,"change":4913,"Ġpurch":4914,"cean":4915,"inet":4916,"Ġcarrying":4917,"Ġforces":4918,"Ġdevelopment":4919,"Ġtext":4920,"Ġlover":4921,"Ġconnected":4922,"mo":4923,"Ġtaught":4924,"Ġident":4925,"aling":4926,"still":4927,"Ġteeth":4928,"Ġlear":4929,"ĠIm":4930,"mond":4931,"Ġexpressed":4932,"pri":4933,"nded":4934,"Ġreign":4935,"Ġoccurred":4936,"ĠBlack":4937,"ilities":4938,"Ġcow":4939,"Ġspirits":4940,"Ġdistinguished":4941,"Ġtongue":4942,"Ġprinciples":4943,"Ġmyst":4944,"Ġcontem":4945,"Ġstones":4946,"ĠPet":4947,"Ġasser":4948,"country":4949,"arth":4950,"ĠBen":4951,"Ġintellect":4952,"Ġknowing":4953,"Ġbran":4954,"Ġproble":4955,"Ġnecessity":4956,"estig":4957,"ousin":4958,"Ġsex":4959,"Ġcompletely":4960,"Ġwriter":4961,"Ġgolden":4962,"Ġstranger":4963,"ĠGood":4964,"Ġsons":4965,"Who":4966,"angers":4967,"Ġresembl":4968,"ĠIrish":4969,"cribed":4970,"ATAT":4971,"Ġrub":4972,"stitution":4973,"half":4974,"Pl":4975,"Ġconsequence":4976,"ipped":4977,"Ġremarked":4978,"Ġxx":4979,"Ġshoulder":4980,"unch":4981,"Ġremembered":4982,"Ġbrill":4983,"poss":4984,"Ġarr":4985,"eping":4986,"ĠCity":4987,"ĠMount":4988,"quar":4989,"ĠDavid":4990,"Ġconfidence":4991,"ato":4992,"TAGC":4993,"Ġmilk":4994,"Ġdeser":4995,"--_":4996,"ses":4997,"Ġenemies":4998,"Ġfaces":4999,"same":5000,"Ġnaturally":5001,"Ġservants":5002,"Ġcompanion":5003,"Ġgods":5004,"stance":5005,"Ġrapidly":5006,"sue":5007,"oration":5008,"Ġdollars":5009,"ĠRoyal":5010,"Ġefforts":5011,"Ġinnoc":5012,"Ġtask":5013,"Ġtu":5014,"Ġpocket":5015,"utch":5016,"Ġadmitted":5017,"point":5018,"contin":5019,"Ġsoil":5020,"fam":5021,"mount":5022,"Ġsuffered":5023,"pur":5024,"itement":5025,"hus":5026,"reement":5027,"Ġmurm":5028,"Ġge":5029,"Ġrelief":5030,"rifice":5031,"Ġcommer":5032,"ĠJoseph":5033,"lection":5034,"!âĢĻ":5035,"iform":5036,"Ġcrossed":5037,"chan":5038,"Ġwindows":5039,"Ġinstit":5040,"Ġgrown":5041,"ĠPol":5042,"Ġreck":5043,"Ġengine":5044,"ĠDiv":5045,"ĠSer":5046,"71":5047,"ĠWashington":5048,"edd":5049,"ĠMil":5050,"Ġtim":5051,"AACC":5052,"cap":5053,"ĠFirst":5054,"wind":5055,"Ġshoulders":5056,"udden":5057,"ĠMany":5058,"ceive":5059,"Ġlod":5060,"estic":5061,"Ġinterrupt":5062,"IST":5063,"Ġconnection":5064,"Ġdriven":5065,"atur":5066,"Ġdisapp":5067,"Ġfreedom":5068,"Ġmerch":5069,"Ġmember":5070,"ĠDes":5071,"Ġerect":5072,"ĠNap":5073,"onsieur":5074,"Ġpred":5075,"Ġyards":5076,"Ġaccepted":5077,"giv":5078,"Ġobjects":5079,"ixt":5080,"Ġ31":5081,"board":5082,"la":5083,"Ġcoat":5084,"ieved":5085,"IM":5086,"Ġgathered":5087,"commend":5088,"mist":5089,"98":5090,"ovember":5091,"ĠSal":5092,"TACC":5093,"ds":5094,"reland":5095,"Ġtired":5096,"Ġaband":5097,"mense":5098,"Ġseized":5099,"Ġhandsome":5100,"Ġquietly":5101,"Ġneeded":5102,"Ġalive":5103,"Ġphysical":5104,"Ġrespons":5105,"ESS":5106,"inity":5107,"Ġcontent":5108,"ician":5109,"Ġmarch":5110,"Ġprotect":5111,"Ġbal":5112,"Ġwilling":5113,"Ġtwice":5114,"Ġbore":5115,"ĠHam":5116,"Ġlands":5117,"Ġrepresented":5118,"edy":5119,"Ġdisg":5120,"ta":5121,"ĠFeb":5122,"Ġproportion":5123,"power":5124,"Ġbent":5125,"pret":5126,"Ġdivided":5127,"rows":5128,"Ġ60":5129,"ĠDE":5130,"UN":5131,"Ġwaited":5132,"overy":5133,"Ġdrive":5134,"Ġdangerous":5135,"Ġsaved":5136,"ĠRE":5137,"Ġluck":5138,"equ":5139,"tm":5140,"Ġknight":5141,"Ġgas":5142,"Ġoil":5143,"Ġfly":5144,"._--":5145,"Ġdare":5146,"oph":5147,"Ġdemanded":5148,"Ġpan":5149,"sured":5150,"oir":5151,"Ġthrow":5152,"Ġcreature":5153,"Ġnovel":5154,"iel":5155,"Ġsurprised":5156,"Ġpopulation":5157,"Ġmile":5158,"ardon":5159,"Ġsmoke":5160,"ounding":5161,"mal":5162,"oring":5163,"Ġminds":5164,"Ġreader":5165,"uts":5166,"Ġflight":5167,"ĠPers":5168,"Ġmoving":5169,"inese":5170,"John":5171,"Ġamongst":5172,"Ġflower":5173,"ĠJim":5174,"Ġproceeded":5175,"54":5176,"Ġshoot":5177,"Sir":5178,"Ġfinding":5179,"ĠPhilip":5180,"Ġexplan":5181,"Ġincrease":5182,"shall":5183,"Some":5184,"Ġmas":5185,"Ġclosely":5186,"rences":5187,"Ġworship":5188,"ELL":5189,"Ġtreated":5190,"Ġharm":5191,"Ġpity":5192,"Ġprevious":5193,"Miss":5194,"Ġbrain":5195,"abeth":5196,"ĠMex":5197,"ĠFred":5198,"pres":5199,"ĠLie":5200,"Ġpalace":5201,"Ġhighly":5202,"something":5203,"icious":5204,"ĠPRO":5205,"Ġduties":5206,"ĠJe":5207,"Good":5208,"bus":5209,"ols":5210,"Ġstated":5211,"Am":5212,"inging":5213,"ĠCam":5214,"Ġarrival":5215,"ĠVen":5216,"Ġimpl":5217,"lie":5218,"ĠBrown":5219,"rated":5220,"shire":5221,"ĠBill":5222,"kin":5223,"ĠReg":5224,"Ġpick":5225,"ĠBook":5226,")</":5227,"Ġorn":5228,"Ġspiritual":5229,"ĠEmperor":5230,"Ġplants":5231,"Ġgradually":5232,"Ab":5233,"AATG":5234,"atively":5235,"Ġfifteen":5236,"Ġhappen":5237,"AV":5238,"Ġintroduced":5239,"Come":5240,"Qu":5241,"Ġactive":5242,"53":5243,"AB":5244,"world":5245,"Ġcolumn":5246,"ller":5247,"Ġlake":5248,"Ġbearing":5249,"Ġgather":5250,"irect":5251,"Ġfarther":5252,"Ġceremon":5253,"Ġ100":5254,"Ġentrance":5255,"Ġrev":5256,"vious":5257,"Ġextend":5258,"avy":5259,"return":5260,"Ad":5261,"Ġcomposed":5262,"kins":5263,"Ġstars":5264,"Ġrelations":5265,"RAN":5266,"Ġ[_":5267,"antry":5268,"illa":5269,"teenth":5270,"Ġtalked":5271,"Ġtouched":5272,"thur":5273,"Ġtal":5274,"Ġissu":5275,"rag":5276,"Ġrights":5277,"seen":5278,"Ġdiam":5279,"Ġaccompanied":5280,"cember":5281,"Ġwhilst":5282,"Ġsurely":5283,"Ġactual":5284,"Ġadmin":5285,"Ġcrim":5286,"miss":5287,"Ġwand":5288,"Ġshel":5289,"ĠSunday":5290,"ĠXV":5291,"Ġspect":5292,"esides":5293,"Ġproject":5294,"Ġattached":5295,"Ġaware":5296,"ĠHoly":5297,"Ġquantity":5298,"anks":5299,"going":5300,"boy":5301,"izabeth":5302,"lim":5303,"asy":5304,"Ġflo":5305,"GE":5306,"?'":5307,"inions":5308,"Ġprayer":5309,"ĠVer":5310,"Ġcontrol":5311,"Ġkinds":5312,"ĠSociety":5313,"det":5314,"Ġabsence":5315,"ĠYour":5316,"Ġfighting":5317,"iest":5318,"Ġends":5319,"held":5320,"make":5321,"Ġrout":5322,"alls":5323,"aith":5324,"Ġcountries":5325,"Ġmal":5326,"low":5327,"Ġsatisfied":5328,"Ġbuy":5329,"ĠCoun":5330,"Ġloose":5331,"seless":5332,"........":5333,"ĠInc":5334,"alog":5335,"Ã±":5336,"ĠOctober":5337,"OOK":5338,"ĠFOR":5339,"Ġprepar":5340,"Ġcarriage":5341,"ns":5342,"Ġangry":5343,"Ġimpression":5344,"Jan":5345,"inate":5346,"Ġá¼":5347,"Ġcro":5348,"ĠAnn":5349,"rim":5350,"atus":5351,"Ġlocal":5352,"Ġsaf":5353,"pire":5354,"Ġing":5355,"Ġtelling":5356,"Ġbreakfast":5357,"Ġstruggle":5358,"Ġjoin":5359,"Ġmidst":5360,"cast":5361,"Ġhurt":5362,"ĠJul":5363,"Ġwasn":5364,"Ġcareful":5365,"Ġpor":5366,"Ġdisease":5367,"âķĲ":5368,"Ġpossibly":5369,"omb":5370,"Ġhurried":5371,"Ġearlier":5372,"Ġtruly":5373,"Ġexplain":5374,"Ġmyster":5375,"Ġmachine":5376,"Ġslave":5377,"Ġsplendid":5378,"themselves":5379,"uit":5380,"rific":5381,"Ġempty":5382,"Ġhide":5383,"].":5384,"Oct":5385,"Ġvessels":5386,"Ïĥ":5387,"TAGG":5388,"Ġswift":5389,"cknow":5390,"ption":5391,"Cl":5392,"Ġpu":5393,"aints":5394,"aly":5395,"ĠRev":5396,"anim":5397,"Nor":5398,"._]":5399,"ĠItalian":5400,"Ġfemale":5401,"Ġbridge":5402,"taken":5403,"terday":5404,"win":5405,"ldom":5406,"Ġburning":5407,"ref":5408,"Ġrom":5409,"etch":5410,"Ġproposed":5411,"Ġtrembl":5412,"Ġerr":5413,"ĠCongress":5414,"AGTC":5415,"Ġshowing":5416,"born":5417,"disc":5418,"Ġhuge":5419,"Ġvirtue":5420,"others":5421,"Ġpersu":5422,"Or":5423,"Ġquality":5424,"Ġsli":5425,"Ġhab":5426,"ĠLife":5427,"name":5428,"Ġfil":5429,"rived":5430,"Ġregret":5431,"Ġfields":5432,"Ġunf":5433,"ĠFrancis":5434,"enny":5435,"Ġregion":5436,"Book":5437,"Ġnotes":5438,"lessly":5439,"Ġfeatures":5440,"ĠSeptember":5441,"Ġretreat":5442,"Ġprinted":5443,"Ġain":5444,"Ġacknow":5445,"ĠAcc":5446,"Ġnoise":5447,"Ġchapter":5448,"Åĵ":5449,"],":5450,"Ġbranches":5451,"things":5452,"olf":5453,"Ġcollect":5454,"ulate":5455,"bid":5456,"52":5457,"Ġpartic":5458,"Ġputting":5459,"Ġbusy":5460,"Ġcauses":5461,"Ġpartly":5462,"years":5463,"--------------------------------":5464,"OS":5465,"Ġburied":5466,"Ġplate":5467,"Ġconstant":5468,"Ġdressed":5469,"Ġliterature":5470,"Ġwhispered":5471,"ena":5472,"Ġsuit":5473,"otes":5474,"Ġwalking":5475,"89":5476,"Se":5477,"General":5478,"sey":5479,"trans":5480,"Ġfortun":5481,"67":5482,"Ġhence":5483,"Ġvariety":5484,"Ġsan":5485,"po":5486,"Ġcircle":5487,"Ġrode":5488,"agn":5489,"Ġble":5490,"Ġprisoners":5491,"Ġfalling":5492,"tis":5493,"ĠSim":5494,"Ġbutter":5495,"ĠMal":5496,"Ġdull":5497,"Ġconsideration":5498,"Ġinstinct":5499,"Ġwatching":5500,"Ġsugar":5501,"consider":5502,"Ġparents":5503,"Ġmanufact":5504,"ĠJapan":5505,"acters":5506,"mat":5507,"ĠMark":5508,"Ġgenius":5509,"ĠHad":5510,"Ġteacher":5511,"Ġenthus":5512,"Ġstore":5513,"Ġmurder":5514,"Ġadopted":5515,"Ġtreatment":5516,"happy":5517,"ĠEs":5518,"64":5519,"Ġwants":5520,"Ġgray":5521,"63":5522,"Ġhither":5523,"agement":5524,"Ġnose":5525,"Ġshame":5526,"ĠMaster":5527,"ĠDel":5528,"Ġwore":5529,"IE":5530,"Ġpractical":5531,"Ġcapable":5532,"Ġobst":5533,"Ġsolid":5534,"also":5535,"ourable":5536,"Ġhearing":5537,"Ġeggs":5538,"six":5539,"Ġacquaint":5540,"master":5541,"Ġstories":5542,"oop":5543,"Ġlisten":5544,"Ġdig":5545,"Ġconcerned":5546,"ĠUnivers":5547,"eding":5548,"ĠPerhaps":5549,"aming":5550,"Ġunable":5551,"Ġflour":5552,"Ġpolicy":5553,"Ġlovely":5554,"too":5555,"Ġdisci":5556,"took":5557,"ael":5558,"enance":5559,"Ġgained":5560,"Ġpatient":5561,"circ":5562,"Ġaver":5563,"Ġexcited":5564,"Ġwings":5565,"ria":5566,"rous":5567,"Ġcouple":5568,"pring":5569,"Ġdevil":5570,"ĠBet":5571,"real":5572,"iture":5573,"Ġseparate":5574,"Ġbegun":5575,"ĠWood":5576,"ĠGrand":5577,"ĠCent":5578,"Col":5579,"arts":5580,"Ġlibr":5581,"Ġskill":5582,"Ġinterests":5583,"Ġsubs":5584,"Ġunfortun":5585,"âĦ":5586,"Ġrooms":5587,"ĠSen":5588,"Ġprofession":5589,"Ġcultiv":5590,"Ġadvice":5591,"Ġstick":5592,"Ġslightly":5593,"Ġfee":5594,"Ġincluding":5595,"Ġgloom":5596,"ino":5597,"ĠIreland":5598,"Ġcolon":5599,"force":5600,"Ġcontribut":5601,"eling":5602,"Ġwholly":5603,"far":5604,"abor":5605,"case":5606,"Ġrange":5607,"Ġcastle":5608,"inction":5609,"Ġassured":5610,"Ġho":5611,"Ġtempt":5612,"ĠProv":5613,"Ġinterested":5614,"acqu":5615,"51":5616,"ige":5617,"Ġceased":5618,"vy":5619,"ustomed":5620,"Ġpill":5621,"Ġaccident":5622,"Ġstatement":5623,"Ġsmooth":5624,"Ġterrit":5625,"Ġdestroyed":5626,"ointment":5627,"Ġfaithful":5628,"Ġadmit":5629,"Ġimmense":5630,"itchen":5631,"omer":5632,"Ġextraordinary":5633,"went":5634,"Aug":5635,"Ġstruct":5636,"Ġcities":5637,"Ġinformed":5638,"Ġdozen":5639,"ĠMen":5640,"Ġyours":5641,"Ġvaluable":5642,"Ġabund":5643,"Ġparties":5644,"woman":5645,"Ġcommit":5646,"Ġimmediate":5647,"Ġminister":5648,"unning":5649,"reek":5650,"ÏĢ":5651,"!--":5652,"Ġtells":5653,"ĠLy":5654,"ĠAh":5655,"ĠDid":5656,"Ġevident":5657,"Ġfinal":5658,"ĠEr":5659,"Ġdirected":5660,"Ġrender":5661,"ATATT":5662,"Ġfleet":5663,"bour":5664,"AATT":5665,"Ġamid":5666,"common":5667,"foot":5668,"Ġimagine":5669,"acon":5670,"Ġnearer":5671,"Ġliqu":5672,"TGAC":5673,"Ġsuffering":5674,"Ġcredit":5675,"Ġphr":5676,"Ġstriking":5677,"Ġkeen":5678,"ums":5679,"fld":5680,"Ġarranged":5681,"ĠMajor":5682,"ĠHu":5683,"Ġabsolutely":5684,"cientific":5685,"Ġwisdom":5686,"ealous":5687,"Ġmeat":5688,"Ġflag":5689,"Ġeconom":5690,"Ġpron":5691,"aks":5692,"Ġdivision":5693,"tell":5694,"Ġsuccessful":5695,"Ġchanges":5696,"Ġtrial":5697,"rog":5698,"ĠBra":5699,"ILL":5700,"Ġcontained":5701,"Ġcontinue":5702,"Ġapproach":5703,"Ġcalling":5704,"Ġreasons":5705,"Ġfairly":5706,"always":5707,"Ġgrey":5708,"ĠArt":5709,"Ġsurrounded":5710,"ĠFound":5711,"Ġride":5712,"Ġchiefly":5713,"ĠRob":5714,"Ġsafety":5715,"Ġ48":5716,"pol":5717,"ĠLatin":5718,"ington":5719,"Ġexcitement":5720,"Ġdelay":5721,"olid":5722,"ĠĠĠĠĠĠĠĠĠĠĠĠĠĠĠĠĠĠĠĠĠĠĠĠĠĠĠĠĠĠĠĠĠ":5723,"Ġrendered":5724,"sing":5725,"Ġeffects":5726,"Ġsympathy":5727,"hard":5728,"gain":5729,"ECT":5730,"Ġslaves":5731,"Br":5732,"action":5733,"Ġexercise":5734,"asted":5735,"itect":5736,"Ġenergy":5737,"Ã´":5738,"Ġcrime":5739,"mosp":5740,"Ġthoroughly":5741,"ua":5742,"_:":5743,"Ġgain":5744,"ĠMajesty":5745,"Ġtowns":5746,"Ġarrest":5747,"Ġchosen":5748,"ĠWas":5749,"Americ":5750,"Ġspecim":5751,"Ġweap":5752,"Ġvisited":5753,"Ġfought":5754,"Ġdrove":5755,"Ġdoors":5756,"Xpage":5757,"Ġprisoner":5758,"oston":5759,"ĠMass":5760,"ĠIsland":5761,"EST":5762,"Ġlifted":5763,"âķĲâķĲ":5764,"rian":5765,"Ġdeeply":5766,"Ġqueen":5767,"ruary":5768,"Ġworst":5769,"eless":5770,"Ġaffair":5771,"young":5772,"Ġpresently":5773,"Ġreference":5774,"natural":5775,"ĠNature":5776,"âĦ¢":5777,"ĠChinese":5778,"Ġox":5779,"Ġhesit":5780,"OP":5781,"Ġliked":5782,"Ġsmaller":5783,"Ġworn":5784,"Ġtemple":5785,"ounce":5786,"inced":5787,"ĠHeaven":5788,"rael":5789,"Ġlat":5790,"Ġdevoted":5791,"Ġstrict":5792,"lers":5793,"Ġtum":5794,"Ġvictory":5795,"ĠNovember":5796,"dep":5797,"Ġappreci":5798,"ALL":5799,"Ġahead":5800,"Ġaim":5801,"put":5802,"Def":5803,"Ġseated":5804,"sent":5805,"Ġviews":5806,"ĠJews":5807,"ulse":5808,"otton":5809,"ĠDor":5810,"acles":5811,"Ġexception":5812,"ilty":5813,"oused":5814,"oyage":5815,"ĠEarl":5816,"eenth":5817,"Ġdying":5818,"Ġclasses":5819,"Ġfold":5820,":âĢĶ":5821,"Ġalt":5822,"Ġarticle":5823,"ĠScott":5824,"Ġwicked":5825,"mus":5826,"gener":5827,"Ġrear":5828,"atched":5829,"Ġpolice":5830,"WH":5831,"adem":5832,"ĠBob":5833,"bridge":5834,"Ġhopes":5835,"reason":5836,"Ġremind":5837,"Ġconven":5838,"Ġdoctrine":5839,"ĠDu":5840,"ĠBay":5841,"Ġintention":5842,"necessary":5843,"owder":5844,"arse":5845,"ĠHistory":5846,"Ġterror":5847,"OD":5848,"Ġstern":5849,"large":5850,"Ġcondem":5851,"Ġmale":5852,"ĠBishop":5853,"!'":5854,"white":5855,"Ġreven":5856,"Ġcritic":5857,"ĠOnly":5858,"Ġprotection":5859,"uddenly":5860,"ourn":5861,"Ġlamp":5862,"Ġmaintain":5863,"ĠEmp":5864,"inking":5865,"ĠJanuary":5866,"Ġwelcome":5867,"Ġlistened":5868,"Ġbay":5869,"Ġgle":5870,"urches":5871,"Ġfourth":5872,"Ġusing":5873,"wa":5874,"Ġmercy":5875,"ĠHowever":5876,"------":5877,"Ġolder":5878,"ropri":5879,"cut":5880,"oqu":5881,"Ã¤":5882,"Ġgrief":5883,"Ġdetails":5884,"Ġfellows":5885,"Ġdeck":5886,"Ġtrem":5887,"Ġdelicate":5888,"TTTTC":5889,"Ġnarr":5890,"Ġagreement":5891,"tion":5892,"Ġdrop":5893,"ĠSpe":5894,"Your":5895,"mons":5896,"New":5897,"Ġchamber":5898,"ĠPark":5899,"Ġpages":5900,"Ġcalcul":5901,"Ġhoped":5902,"ĠRussian":5903,"XX":5904,"Ġconstantly":5905,"Ġmarket":5906,"Ġarose":5907,"Ġsingular":5908,"Ġprompt":5909,"plic":5910,"Ġpulled":5911,"ros":5912,"Ġavoid":5913,"Ġacts":5914,"Ġescaped":5915,"Ġcontaining":5916,"Ġgoods":5917,"Ġtur":5918,"Ġmoments":5919,"Ġmental":5920,"offee":5921,"Ġdesert":5922,"ola":5923,"Ġwet":5924,"Ġsheep":5925,"Ġmistake":5926,"Ġcard":5927,"ĠGo":5928,"henomen":5929,"Ġsource":5930,"oft":5931,"Ġbringing":5932,"Ġsatisfaction":5933,"Ġrecommend":5934,"Ġobey":5935,"comple":5936,"ĠHill":5937,"Ġattract":5938,"however":5939,"cho":5940,"umin":5941,"da":5942,"Ġsentence":5943,"62":5944,"eight":5945,"Ġgrowth":5946,"stra":5947,"Ġadminist":5948,"Ġcattle":5949,"Ġcompanions":5950,"Ġexplanation":5951,"Ġneeds":5952,"_]":5953,"Ġthrone":5954,"coming":5955,"west":5956,"AAAAC":5957,"fig":5958,"ĠHon":5959,"Ġcollection":5960,"asions":5961,"á¿":5962,"Ġplaying":5963,"uns":5964,"ĠNever":5965,"Ġprivile":5966,"mbly":5967,"Ġfever":5968,"Ġul":5969,"pent":5970,"Ġdesper":5971,"Ġdawn":5972,"Ġbag":5973,"Ġimagination":5974,"urely":5975,"Ġshop":5976,"dro":5977,"Ġresolved":5978,"Ġbecoming":5979,"person":5980,"apers":5981,"erk":5982,"andy":5983,"Ġarticles":5984,"Ġcontains":5985,"Ġpurposes":5986,"Ġimprove":5987,"Ġhang":5988,"Ġended":5989,"hon":5990,"Ġkindly":5991,"Ġinvent":5992,"za":5993,"iah":5994,"Ġax":5995,"inth":5996,"Ġbrilliant":5997,"AATC":5998,"success":5999,"ĠThose":6000,"Ġnatives":6001,"Ġclouds":6002,"writ":6003,"Ġhate":6004,"OH":6005,"having":6006,"Ġstead":6007,"Ġpermitted":6008,"Ġpressed":6009,"TGTC":6010,"owned":6011,"ĠGreen":6012,"Defn":6013,"Ġnerv":6014,"Ġexha":6015,"Ġpil":6016,"Ġguide":6017,"Ġdespair":6018,"armed":6019,"Ġacid":6020,"ĠPope":6021,"ĠDecember":6022,"Ġsigns":6023,"post":6024,"Ġinvestig":6025,"sembly":6026,"ĠAc":6027,"esc":6028,"Ġsovere":6029,"Ġextended":6030,"Ġlabour":6031,"ĠSec":6032,"Ġdogs":6033,"Ġconclusion":6034,"Ġbought":6035,"ĠTem":6036,"Bl":6037,"_).":6038,"duce":6039,"Ġteach":6040,"ĠCont":6041,"uce":6042,"ĠProfessor":6043,"Ġconstitution":6044,"Ġcreated":6045,"ĠFer":6046,"Ġsupper":6047,"sal":6048,"fulness":6049,"ĠAct":6050,"ĠParliament":6051,"Ġassist":6052,"ĠLong":6053,"Ġvision":6054,"Ġsouls":6055,"ĠLand":6056,"Ġseldom":6057,"Ġvisible":6058,"ĠBritain":6059,"porary":6060,"ĠVal":6061,"itated":6062,"Ġ49":6063,"ĠHarry":6064,"Ġmessage":6065,"Ġrequest":6066,"Ġreward":6067,"Lord":6068,"Ġcrew":6069,"IGH":6070,"Ġ200":6071,"Ġhole":6072,"IA":6073,"ĠArthur":6074,"looked":6075,"ef":6076,"atre":6077,"Ġsell":6078,"Ġdance":6079,"Ġchoice":6080,"rait":6081,"mouth":6082,"gs":6083,"Ġtribes":6084,"Ġextremely":6085,"Ġpoison":6086,"Ġcitizens":6087,"Ġdemon":6088,"Ġpoetry":6089,"ibr":6090,"____":6091,"Ġaddressed":6092,"yer":6093,"ĠLove":6094,"ĠCome":6095,"Ġnewsp":6096,"Ġinquir":6097,"Ġhaven":6098,"care":6099,"bably":6100,"ĠEuropean":6101,"Ġbatt":6102,"Ġplenty":6103,"Ġprospect":6104,"apel":6105,"love":6106,"Ġshr":6107,"Ġpraise":6108,"ĠElizabeth":6109,"ĠPo":6110,"Ġkings":6111,"Ġbranch":6112,"ĠHor":6113,"Ġmagnific":6114,"Ġgay":6115,"icted":6116,"Can":6117,"ĠSomet":6118,"Ġveget":6119,"usual":6120,"=:":6121,"ĠLake":6122,"ka":6123,"gest":6124,"question":6125,"import":6126,"Ġtale":6127,"rier":6128,"urity":6129,"Ġdoesn":6130,"sell":6131,"Ġsection":6132,"aus":6133,"ĠAN":6134,"TGAG":6135,"Ġknees":6136,"Î»":6137,"Ġobserv":6138,"Ġdefend":6139,"ĠScotland":6140,"Ġhidden":6141,"agraph":6142,"ĠPart":6143,"Ġgranted":6144,"prom":6145,"ĠEll":6146,"var":6147,"Ġmechan":6148,"RY":6149,"ĠSpirit":6150,"Ġfriendship":6151,"character":6152,"ĠAfrica":6153,"small":6154,"AAAAG":6155,"Ġwound":6156,"Ġstrike":6157,"tle":6158,"ĠBab":6159,"beaut":6160,"ATAG":6161,"Ġraise":6162,"Ġassistance":6163,"ĠLittle":6164,"Ġcommission":6165,"Ġrejo":6166,"Ġaccess":6167,"Ġcalls":6168,"oleon":6169,"Ġbanks":6170,"phe":6171,"Ġfund":6172,"Dec":6173,"eral":6174,"Ġlaughing":6175,"pot":6176,"ĠPri":6177,"Ġinch":6178,"ailing":6179,"Ġnur":6180,"door":6181,"aign":6182,"Ġformerly":6183,"avalry":6184,"volution":6185,"61":6186,"Ġnodd":6187,"Ġframe":6188,"Ġdiscovery":6189,"gend":6190,"EW":6191,"arded":6192,"ĠArab":6193,"Ã³":6194,"ITH":6195,"position":6196,"Ġfriendly":6197,"English":6198,"Ġboats":6199,"ĠSea":6200,"ĠRussia":6201,"ĠAng":6202,"stairs":6203,"Ġruin":6204,"Ġelement":6205,"ĠMich":6206,"ĠTer":6207,"iosity":6208,"ugg":6209,"Ġcommitted":6210,"Ġdignity":6211,"Ġ179":6212,"Ġbaby":6213,"Ġservices":6214,"Sc":6215,"enses":6216,"Ġkey":6217,"Ġattended":6218,"Ġcompelled":6219,"tra":6220,"Ġsmiling":6221,"eyes":6222,"Ġben":6223,"Ġrecent":6224,"Ġemer":6225,"Ġpainted":6226,"stead":6227,"ĠFoundation":6228,"Ġages":6229,"Ġfan":6230,"Ġexpedition":6231,"Ġindif":6232,"Ġpreserved":6233,"Ġsacrifice":6234,"uation":6235,"regular":6236,"Ġassembl":6237,"Ġtotal":6238,"sim":6239,"general":6240,"Ġnorthern":6241,"Ġdisappeared":6242,"Ġimpress":6243,"Just":6244,"Ġsooner":6245,"among":6246,"Ġdish":6247,"Ġthousands":6248,"Ġeverywhere":6249,"Ġsigh":6250,"Par":6251,"Ġreduced":6252,"Ġgently":6253,"Ġreality":6254,"Ġneighbour":6255,"-----+":6256,"ĠMur":6257,"ache":6258,"ighed":6259,"ĠWhe":6260,"ĠCons":6261,"ifying":6262,"ĠCouncil":6263,"Ġstuff":6264,"ORD":6265,"Ġcommanded":6266,"dem":6267,"Ġdeveloped":6268,"offic":6269,"Ġdischar":6270,"onds":6271,"Ġsufficiently":6272,"Ġrepro":6273,"Ġattribut":6274,"illery":6275,"Ġfamilies":6276,"Ġregiment":6277,"Ġthinks":6278,"pat":6279,"step":6280,"uer":6281,"ĠCatholic":6282,"Ġargument":6283,"Did":6284,"Ġprecious":6285,"Ġroll":6286,"TTTAA":6287,"alem":6288,"prov":6289,"oper":6290,"wers":6291,"Ġascend":6292,"Ġlit":6293,"Ġhorn":6294,"Ġwriters":6295,"mosphere":6296,"Ġindign":6297,"Ġenorm":6298,"ĠCat":6299,"sil":6300,"Ġuniform":6301,"Ġproperly":6302,"dr":6303,"ĠUnion":6304,"Our":6305,"Ġcord":6306,"Ġcelebrated":6307,"Ġcontempt":6308,"Ġow":6309,"iable":6310,"Ġcenturies":6311,"ĠĠĠĠĠĠĠĠĠĠĠĠĠĠĠĠĠĠĠĠĠĠĠĠĠĠĠĠĠĠĠĠĠĠ":6312,"Ġblank":6313,"Ġfinger":6314,"Ġartist":6315,"Ġdoc":6316,"Ġamaz":6317,"inder":6318,"Ġfrequent":6319,"Ġdefinite":6320,"Ġvic":6321,"comfort":6322,"ĠVI":6323,"Ġmat":6324,"Ġconvey":6325,"Ġproc":6326,"Ġsen":6327,"Ġfled":6328,"Ġnet":6329,"rav":6330,"zy":6331,"ĠMarg":6332,"Ġsubsequ":6333,"Ġmistress":6334,"Ġhit":6335,"Ġindust":6336,"Ġpup":6337,"Ġast":6338,"respect":6339,"ini":6340,"Ġinstrument":6341,"ĠKe":6342,"Ġcharacters":6343,"apped":6344,"lem":6345,"perhaps":6346,"While":6347,"Ġunderstanding":6348,"each":6349,"ANT":6350,"ĠCorn":6351,"Ġhal":6352,"Ġarmed":6353,"arrison":6354,"ĠDuring":6355,"ĠBefore":6356,"orial":6357,"Ġattitude":6358,"Ġplans":6359,"enger":6360,"Ġspend":6361,"Ġbrothers":6362,"ĠProt":6363,"Ġcousin":6364,"acious":6365,"Ġoperation":6366,"ĠOx":6367,"Ġlux":6368,"INE":6369,"Ġsche":6370,"eous":6371,"Ġtight":6372,"withstanding":6373,"Ġcaut":6374,"Ġimpat":6375,"mes":6376,"ospel":6377,"Ġsurv":6378,"tem":6379,"Ġlearning":6380,"aft":6381,"cd":6382,"ĠAthen":6383,"non":6384,"abb":6385,"Ge":6386,"Ġaspect":6387,"ĠThou":6388,"Ġreferred":6389,"Ġwing":6390,"Ġsinging":6391,"tri":6392,"========":6393,"Ġreported":6394,"ĠThough":6395,"full":6396,"Ġanyone":6397,"IES":6398,"Ġprobable":6399,"Ġbuildings":6400,"tow":6401,"Ġfounded":6402,"IX":6403,"heard":6404,"Ġboot":6405,"Ġjealous":6406,"Ġmanifest":6407,"wild":6408,"osal":6409,"imony":6410,"Ġschools":6411,"IF":6412,"strong":6413,"Feb":6414,"Ġlikewise":6415,"Ġease":6416,"Ġsixty":6417,"ĠSav":6418,"ante":6419,"aws":6420,"ĠBY":6421,"RA":6422,"Ġsubstance":6423,"Ġrow":6424,"gover":6425,"Ġwhence":6426,"Ġconfess":6427,"Ġwheel":6428,"gent":6429,"urance":6430,"matter":6431,"Ãº":6432,"Ġflying":6433,"Ġperformed":6434,"vals":6435,"ĠTri":6436,"lease":6437,"Ġalarm":6438,"Ġthroat":6439,"once":6440,"Ġessential":6441,"ĠFar":6442,"Ġemotion":6443,"ography":6444,">[":6445,"cel":6446,"ĠSl":6447,"Ġdefence":6448,"ardens":6449,"200":6450,"Ġaccord":6451,"Ġinner":6452,"Ġinfer":6453,"Ġbones":6454,"ements":6455,"Ġmedic":6456,"Ġanger":6457,"ĠStill":6458,"Ġrecognized":6459,"Fig":6460,"Ġprovide":6461,"given":6462,"Ġpressure":6463,"almost":6464,"Ġviolent":6465,"Ġkitchen":6466,"ĠLike":6467,"ĠMat":6468,"Jul":6469,"Ġspl":6470,"Ġdelivered":6471,"Ġasleep":6472,"Ġmajority":6473,"Ġavail":6474,"KE":6475,"ĠJo":6476,"ita":6477,"Ġdepos":6478,"ĠCamp":6479,"iot":6480,"inger":6481,"ĠSon":6482,"Ġexcess":6483,"ĠGovernor":6484,"Ġawful":6485,"OUR":6486,"Ġsupre":6487,"Ġconsult":6488,"Ġmixed":6489,"urbed":6490,"Ġcounty":6491,"adel":6492,"Ġsentiment":6493,"div":6494,"agger":6495,"find":6496,"Ġze":6497,"Ġsounds":6498,"Ġfoolish":6499,"addle":6500,"prise":6501,"Ġgreet":6502,"mom":6503,"cest":6504,"Ġperman":6505,"Ġven":6506,"Ġrules":6507,"Ġyounger":6508,"fire":6509,"Ġdestruction":6510,"Ġuniversal":6511,"block":6512,"ĠSil":6513,"iated":6514,"Thus":6515,"Â½":6516,"Ãł":6517,"Ġaccur":6518,"Ġmeasures":6519,"Ġhotel":6520,"Ġstrongly":6521,"Ġoccasionally":6522,"Ġpatri":6523,"Ġphilosophy":6524,"Ġrecoll":6525,"ĠAunt":6526,"Ġhabits":6527,"Ġded":6528,"ĠOther":6529,"forms":6530,"Ġweary":6531,"Ġyesterday":6532,"yet":6533,"Ġâ":6534,"Ġwaste":6535,"Ġocean":6536,"ĠAmong":6537,"Ġvoices":6538,"stre":6539,"represent":6540,"ona":6541,"Ġschol":6542,"aze":6543,"idents":6544,"Ġasking":6545,"Ġnobody":6546,"Ġreflect":6547,"Ġproblem":6548,"ĠFebruary":6549,"gments":6550,"Ġfurnished":6551,"erves":6552,"ĠSar":6553,"ella":6554,"Ġwishes":6555,"Ġnoted":6556,"Ġleaf":6557,"TTATT":6558,"Ġindul":6559,"Ġouter":6560,"Ġcabin":6561,"mis":6562,"Ġmethods":6563,"Ġfo":6564,"Ġsetting":6565,"Ġchoose":6566,"Ġpicked":6567,"Ġintelligence":6568,"Ġapproached":6569,"Ġinse":6570,"ĠNat":6571,"Ġchest":6572,"ĠON":6573,"ĠPR":6574,"Ġbree":6575,"Ġunex":6576,"Ġcompet":6577,"Ġgift":6578,"Ġaffected":6579,"Ġshouted":6580,"vest":6581,"Ġinfinite":6582,"iana":6583,"Ġhoriz":6584,"oups":6585,"ĠUnder":6586,"Ġconsent":6587,"Ġtent":6588,"Ġharmon":6589,"Every":6590,"left":6591,"ĠBoston":6592,"Ġmovements":6593,"Ġprocl":6594,"Ġrushed":6595,"Ġguilty":6596,"Ġsuggest":6597,"ĠNational":6598,"Ġprosper":6599,"Ġwestern":6600,"Ġreturning":6601,"Ġglorious":6602,"Ġ(?":6603,"Ġliterary":6604,"Ġmeal":6605,"Ġmode":6606,"Ġwaves":6607,"Ġsavage":6608,"incl":6609,"inted":6610,"Ġremaining":6611,"Sp":6612,"Ġeverybody":6613,"olk":6614,"ĠLP":6615,"Ed":6616,"istor":6617,"rection":6618,"ĠEach":6619,"Ġobserve":6620,"bor":6621,"Ã©e":6622,"ĠAustri":6623,"Ġtribe":6624,"Ġobsc":6625,"ĠStr":6626,"Ġnest":6627,"ĠUncle":6628,"Ġthrust":6629,"ĠCON":6630,"coll":6631,"tains":6632,"Ġedition":6633,"Ġsym":6634,"En":6635,"Ġstret":6636,"abled":6637,"Ġqualities":6638,"Nov":6639,"Ġconscience":6640,"ĠAre":6641,"Ġdifficulties":6642,"Ġgovernor":6643,"Ġinclined":6644,"ĠBible":6645,"ĠLin":6646,"Ġsettle":6647,"apter":6648,"Ġcontact":6649,"istent":6650,">(?":6651,"Ġelectronic":6652,"uk":6653,"pless":6654,"ĠAss":6655,"Ġleader":6656,"ĠGold":6657,"Ġassumed":6658,"Ġwooden":6659,"Ġpermission":6660,"Ġreadily":6661,"Ġideal":6662,"Ġhollow":6663,"arted":6664,"sign":6665,"Ġcentral":6666,"ĠVirginia":6667,"Ġperpet":6668,"ĠGra":6669,"ĠHy":6670,"Ġpaused":6671,"Ġabroad":6672,"oubted":6673,"hers":6674,"Ġclergy":6675,"Ġsprang":6676,"TTTTG":6677,"ĠApp":6678,"whole":6679,"Cap":6680,"Ġintense":6681,"Ġconfusion":6682,"closed":6683,"Ġphenomen":6684,"Ġclever":6685,"abs":6686,"Ġowing":6687,"making":6688,"ĠMartin":6689,"Ġelements":6690,"Ġtradition":6691,"const":6692,"children":6693,"Ġlibrary":6694,"Ġclub":6695,"ĠAL":6696,"itled":6697,"hind":6698,"Ġislands":6699,"osom":6700,"Ġ70":6701,"Ġbelonging":6702,"effect":6703,">(?)</":6704,"cal":6705,"Ġthanks":6706,"Ġrese":6707,"ĠSecret":6708,"Ġcompre":6709,"AAATT":6710,"Ġtomb":6711,"orter":6712,"ĠIsrael":6713,"Ġappeal":6714,"class":6715,"Ġcontro":6716,"Ġconstruct":6717,"resses":6718,"Ġamuse":6719,"oubt":6720,"ĠMus":6721,"Ġsilk":6722,".]</":6723,"Ger":6724,"ĠDem":6725,"raw":6726,"Ġexposed":6727,"ĠBesides":6728,"Ġowner":6729,"ĠâĢĿ":6730,"Ġpushed":6731,"ĠVan":6732,"><":6733,"Ġfeather":6734,"Ġsymb":6735,"OC":6736,"Ġincident":6737,"Ġ32":6738,"both":6739,"OV":6740,"Ġstepped":6741,"break":6742,"liness":6743,"ĠJoe":6744,"Ġpunishment":6745,"Ġach":6746,"ero":6747,"Ġsignific":6748,"ĠChina":6749,"Ġfatal":6750,"Ġcam":6751,"Ġfreely":6752,"Ġsouthern":6753,"Ġaccomplished":6754,"Ġaccustomed":6755,"ĠGerm":6756,"anting":6757,"oked":6758,"Ġalike":6759,"yard":6760,"Ġinquired":6761,"Ġsolution":6762,"ĠAlexander":6763,"Ġseparated":6764,"Ġcompared":6765,"oser":6766,"allel":6767,"Ġacquaintance":6768,"Ġquarters":6769,"either":6770,"passed":6771,"ĠDutch":6772,"Ġmystery":6773,"burgh":6774,"Ġinstantly":6775,"Ġsteel":6776,"ura":6777,"arian":6778,"ĠâĢľ_":6779,"Ġmanners":6780,"Ġhelped":6781,"entions":6782,"Ġutterly":6783,"Ġtele":6784,"Ġdil":6785,"._)":6786,"Ġcountenance":6787,"Ġstructure":6788,"Ġfulf":6789,"Ġjob":6790,"Ġinnocent":6791,"ĠTrans":6792,"aph":6793,"Ġbelonged":6794,"Ġjew":6795,"mean":6796,"bow":6797,"Ġeternal":6798,"Ġbehold":6799,"Ġcounter":6800,"itan":6801,"dest":6802,"Ġmounted":6803,"Ġsurre":6804,"round":6805,"Ġabsor":6806,"Ġcheck":6807,"ĠIndeed":6808,"ĠSqu":6809,"ĠVi":6810,"Ġ80":6811,"(_":6812,"TON":6813,"Ġconsists":6814,"ĠSchool":6815,"inks":6816,"ictor":6817,"ĠTw":6818,"rain":6819,"days":6820,"Ġremarks":6821,"har":6822,"Ġtrace":6823,"Ġsecured":6824,"Ġthunder":6825,"ĠJean":6826,"Ġfix":6827,"85":6828,"Ġkindness":6829,"urther":6830,"high":6831,"ĠHave":6832,"ulph":6833,"Ġissued":6834,"ĠRose":6835,"rical":6836,"ulations":6837,"Ġderived":6838,"Ġrelated":6839,"seemed":6840,"iary":6841,"Ġassociated":6842,"ĠOR":6843,"otted":6844,"Ġbul":6845,"Ġarea":6846,"ĠMess":6847,"word":6848,"SON":6849,"Ġlest":6850,"Ġdeparture":6851,"ĠRepublic":6852,"elf":6853,"usive":6854,"Ġscientific":6855,"ĠÃł":6856,"Ġspark":6857,"Ġenjoyed":6858,"better":6859,"Ġacquainted":6860,"ĠBro":6861,"build":6862,"Ġcott":6863,"Ġnegro":6864,"Ġshade":6865,"ications":6866,"Ġstiff":6867,"Ġretired":6868,"ado":6869,"Ġparagraph":6870,"Ġclo":6871,"Ġcontract":6872,"brought":6873,"Ġknife":6874,"Ġpipe":6875,"94":6876,"Ġexecution":6877,"ĠDoctor":6878,"ga":6879,"Ġbenefit":6880,".),":6881,"ĠDay":6882,"Ġbark":6883,"Ġma":6884,"unte":6885,"subject":6886,"Ġanxiety":6887,"Ġcareer":6888,"Ġthence":6889,"OHN":6890,"Ġscattered":6891,"âĢĲ":6892,"ĠBE":6893,"gate":6894,"since":6895,"Ġimage":6896,"aux":6897,"itate":6898,"Ġinterrupted":6899,"Ġgrate":6900,"Ġrenew":6901,"ĠCollege":6902,"osure":6903,"Ġaverage":6904,"icable":6905,"PWH":6906,"ez":6907,"amped":6908,"Ġswept":6909,"Ġdreadful":6910,"Ġsteep":6911,"icense":6912,"Ġvoyage":6913,"verted":6914,"Ġissue":6915,"Ä«":6916,"Ġcharming":6917,"orable":6918,"Never":6919,"ules":6920,"Ġpriests":6921,"engers":6922,"ĠEv":6923,"Ġlimited":6924,"Ġstairs":6925,"forth":6926,"ĠUniversity":6927,"87":6928,"Ġhousehold":6929,"year":6930,"uv":6931,"Ġlights":6932,"!_":6933,"Are":6934,"Go":6935,"iasm":6936,"worthy":6937,"avery":6938,"town":6939,"iast":6940,"ĠMother":6941,"Dr":6942,"ĠCur":6943,"inch":6944,"Ġpardon":6945,"Ġrum":6946,"ĠDep":6947,"Ġwarri":6948,"Ġblessed":6949,"irmed":6950,"ĠAR":6951,"Ã§":6952,"umption":6953,"Ġdesir":6954,"Ġmankind":6955,"othe":6956,"Ġprefer":6957,"Ġmonarch":6958,"iverse":6959,"Ġsees":6960,"Ġannounced":6961,"Ġthread":6962,"net":6963,"Ġgrie":6964,"Ġlegisl":6965,"ACAG":6966,"Ġphot":6967,"Ġseed":6968,"organ":6969,"Ġmillion":6970,"black":6971,"ĠBoth":6972,"taking":6973,"Ġdoubtless":6974,"oid":6975,"Ġwithdra":6976,"upid":6977,"Ġauthorities":6978,"Ġprecise":6979,"ĠMill":6980,"Ġha":6981,"Ġflood":6982,"Ġnervous":6983,"quarters":6984,"Ġnodded":6985,"ĠRh":6986,"AATAA":6987,"until":6988,"Ġlone":6989,"table":6990,"yes":6991,"suffic":6992,"Ġdreams":6993,"Ġbetray":6994,"Ġincluded":6995,"Ġopposition":6996,"Ġvel":6997,"ĠBell":6998,"Perhaps":6999,"ĠGal":7000,"iate":7001,"Ġunited":7002,"Ġtravel":7003,"expl":7004,"piration":7005,"ioned":7006,"Ġadmiration":7007,"wick":7008,"Ġignorant":7009,"Ġcounsel":7010,"orig":7011,"âĤ":7012,"Ġscheme":7013,"Ġcouncil":7014,"Ġcommunity":7015,"_),":7016,"Ġelder":7017,"close":7018,"TCAG":7019,"ĠGen":7020,"useum":7021,"lay":7022,"enough":7023,"umped":7024,"reck":7025,"ĠHol":7026,"Ġimpr":7027,"Ġornament":7028,"Ġexpense":7029,"ulgar":7030,"Gr":7031,"Ġgif":7032,"Ġcharm":7033,"Ġobservation":7034,"Ġprofound":7035,"Ġbreaking":7036,"Ġwhenever":7037,"ĠAnother":7038,"annel":7039,"ouch":7040,"Ġacted":7041,"Sep":7042,"different":7043,"96":7044,"compl":7045,"ĠBoy":7046,"Ġmarks":7047,"Ġconsciousness":7048,"Ġvague":7049,"Ġmoder":7050,"Ġcollected":7051,"Ġdistinction":7052,"Ġles":7053,"TTTCC":7054,"Ġexperiment":7055,"pen":7056,"Ġborne":7057,"live":7058,"ccles":7059,"ele":7060,"Ġdegrees":7061,"Ġconvinced":7062,"Ġexamination":7063,"artment":7064,"Ġgets":7065,"Ġterritory":7066,"uine":7067,"Ġanybody":7068,"hundred":7069,"girl":7070,"pired":7071,"ands":7072,"Ġatmosphere":7073,"OND":7074,"Ġabsurd":7075,"Ġenormous":7076,"Ġham":7077,"allow":7078,"Ġmatch":7079,"orus":7080,"sett":7081,"Ġbatter":7082,"ĠAgain":7083,"Ġcuriosity":7084,"Ġoath":7085,"ĠNapoleon":7086,"Ġarrangement":7087,"ĠChristmas":7088,"inations":7089,"Ġvac":7090,"Ġlegal":7091,"taining":7092,"Ġintellectual":7093,"BERG":7094,"Ġmysterious":7095,"Ġarchitect":7096,"ĠCarol":7097,"top":7098,"Ġaltern":7099,"Ġutmost":7100,"Ġforb":7101,"Ġfest":7102,"Ġrevolution":7103,"Ġhorror":7104,"Ġinterior":7105,"Ġmanaged":7106,"Ġpoem":7107,"aments":7108,"Ġswell":7109,"Ġjoint":7110,"Ġcig":7111,"Ġlately":7112,"Ġcharacteristic":7113,"ancholy":7114,"Ġhumble":7115,"Ġ45":7116,"ĠMAR":7117,"Ġattempted":7118,"Ġunion":7119,"Ġindependent":7120,"ĠThree":7121,"Ġtables":7122,"86":7123,"satis":7124,"Ġchurches":7125,"Ġrisk":7126,"Ġfierce":7127,"Ġstandard":7128,"quote":7129,"Ġcreatures":7130,"Ġrude":7131,"Ġtower":7132,"Ġmedium":7133,"Ġcoffee":7134,"omach":7135,"Ġcompleted":7136,"ĠÏĦ":7137,"ressing":7138,"Phil":7139,"ĠWater":7140,"QU":7141,"IGHT":7142,"houses":7143,"Very":7144,"Ġdomestic":7145,"rive":7146,"Ġrolled":7147,"moment":7148,"ocking":7149,"Ġwire":7150,"iron":7151,"Ġsust":7152,"Ġmood":7153,"Ġfrightened":7154,"unn":7155,"Ġfinds":7156,"Ġsoftly":7157,"riff":7158,"ican":7159,"ĠRes":7160,"Ġbi":7161,"Ġslept":7162,"Ġscale":7163,".âĢĿ[":7164,"ĠFair":7165,"ĠThy":7166,"Ġaunt":7167,"ĠMS":7168,"Ġbeast":7169,"ĠSur":7170,"phen":7171,"Ġfired":7172,"?--":7173,"acob":7174,"swe":7175,"ĠFore":7176,"Ġbride":7177,"Ġcomfortable":7178,"Ġric":7179,"lets":7180,"Ġurged":7181,"Ġunfortunate":7182,"inv":7183,"Ġfare":7184,"Ġactivity":7185,"aughters":7186,"Î¼":7187,"Ġbegins":7188,"ĠChristians":7189,"ients":7190,"home":7191,"intell":7192,"Ġestate":7193,"Ġspeaks":7194,"ĠTre":7195,"Ġruns":7196,"Ġfeared":7197,"imately":7198,"exam":7199,"ĠArmy":7200,"ĠLiter":7201,"alys":7202,"ĠNothing":7203,"Ġmiserable":7204,"Ġfalls":7205,"MAN":7206,"prot":7207,"Ġoperations":7208,"Ġwondered":7209,"ixture":7210,"Ġelectric":7211,"coln":7212,"Ġshining":7213,"ĠWorld":7214,"ints":7215,"Ġsupported":7216,"Ġsovereign":7217,"whose":7218,"ĠCa":7219,"rub":7220,"ĠRog":7221,"##":7222,"Ġdeliver":7223,"ĠDen":7224,"Ġoccasions":7225,"appro":7226,"Ġpier":7227,"Ġuseless":7228,"princi":7229,"ĠCastle":7230,"Ġattacked":7231,"itors":7232,"geon":7233,"burn":7234,"Ġpropri":7235,"Ġprovince":7236,"turned":7237,"Ġrefuse":7238,"Ġfame":7239,"Ġ33":7240,"Ġflame":7241,"Ġindustry":7242,"Ġlaughter":7243,"Ġconcluded":7244,"Ġtrack":7245,"Ġacquired":7246,"Ġzeal":7247,"JECT":7248,"Ġrope":7249,"gram":7250,"ĠVII":7251,"Ġrecently":7252,"suff":7253,"Ġmetal":7254,"Ġfrank":7255,"ĠVIII":7256,"Ġancest":7257,"usions":7258,"stru":7259,"cia":7260,"isation":7261,"Ġobed":7262,"ĠAny":7263,"Ġcoal":7264,"Apr":7265,"chn":7266,"open":7267,"ĠYe":7268,"Ġsomewhere":7269,"ĠOff":7270,"ilton":7271,"Ġpause":7272,"Ġcheeks":7273,"Ġdiscussion":7274,"perfect":7275,"eman":7276,"iour":7277,"morning":7278,"erick":7279,"Ġghost":7280,"pract":7281,"ĠSol":7282,"istence":7283,"usalem":7284,"ym":7285,"Ġempire":7286,"Ġdoth":7287,"bra":7288,"Ġopinions":7289,"Ġexcuse":7290,"ĠServ":7291,"quite":7292,"ĠEp":7293,"era":7294,"Ġdiff":7295,"blockquote":7296,"Ġreject":7297,"83":7298,"Ġturns":7299,"Ġdecor":7300,"Ġinstances":7301,"ties":7302,"Ġhell":7303,"Ġphrase":7304,"ACTC":7305,"Have":7306,"ĠFour":7307,"Ġelsewhere":7308,"Look":7309,"osa":7310,"Ġtrail":7311,"Ġ90":7312,"Ġpasses":7313,"Ġtied":7314,"Ġdeliber":7315,"Ġdelighted":7316,"ban":7317,"Ġpist":7318,"Ġsed":7319,"PH":7320,"ĠDar":7321,"therefore":7322,"ensions":7323,"Ġlargely":7324,"Ġ#":7325,"bird":7326,"twenty":7327,"ATE":7328,"ww":7329,"unction":7330,"ida":7331,"Ġcorrupt":7332,"ĠBon":7333,"anything":7334,"ĠWall":7335,"Ġforming":7336,"Ġburned":7337,"Ġapproaching":7338,"Ġren":7339,"Ġreputation":7340,"Ġprophe":7341,"Ġadventure":7342,"Ġunhappy":7343,"inally":7344,"ĠPre":7345,"Ġdimin":7346,"Ġdecision":7347,"ĠRem":7348,"ĠPortug":7349,"Ġcharged":7350,"conc":7351,"***":7352,"olation":7353,"Ġappropri":7354,"pended":7355,"miral":7356,"ĠRel":7357,"Ġcampaign":7358,"Ġleaders":7359,"Ġdisposed":7360,"diffic":7361,"ĠCle":7362,"King":7363,"Ġconstruction":7364,"LES":7365,"FF":7366,"asket":7367,"Ġmagnificent":7368,"second":7369,"boat":7370,"rd":7371,"amation":7372,"Ġguests":7373,"Ġacknowled":7374,"Ġconfined":7375,"Ġeleven":7376,"Ġodd":7377,"mun":7378,"Ġanch":7379,"Ġgrim":7380,"icians":7381,"asped":7382,"ĠMargaret":7383,"Ġhitherto":7384,"oos":7385,"olate":7386,"Ġpreviously":7387,"Ġtort":7388,"TTAG":7389,"Ġtrip":7390,"Ġ/":7391,"rich":7392,"Ġapt":7393,"ĠMa":7394,"82":7395,"ummer":7396,"Ġsmell":7397,"Ġdefect":7398,"Ġplainly":7399,"Ġgaze":7400,"ĠTy":7401,"ĠFIG":7402,"Ġdepth":7403,"Ġweakness":7404,"Ġmarched":7405,"Ġuncertain":7406,"Ġpenet":7407,"Ġentitled":7408,"Ġcopyright":7409,"Ġpractically":7410,"account":7411,"97":7412,"ĠPrincess":7413,"Ġcommenced":7414,"Ġwave":7415,"Ġverse":7416,"UD":7417,"Ġyard":7418,"Ġpig":7419,"Ġremove":7420,"Ġerror":7421,"Ġglanced":7422,"ĠPen":7423,"Ġrage":7424,"ustral":7425,"rick":7426,"cs":7427,"Ġprovisions":7428,"ĠHence":7429,"Ġhanded":7430,"Ġroads":7431,"Ġbears":7432,"ĠMel":7433,"Ġsuspicion":7434,"Ġunconscious":7435,"ENBERG":7436,"95":7437,"Ġfailure":7438,"pose":7439,"ĠTurk":7440,"Ġming":7441,"list":7442,"Ġexamined":7443,"sus":7444,"Ġascertain":7445,"ĠFlore":7446,"racy":7447,"Ġstretched":7448,"Ġcontempl":7449,"Ġcas":7450,"Ġchain":7451,"elly":7452,"sar":7453,"ras":7454,"bal":7455,"changed":7456,"Ġcollege":7457,"Ġmild":7458,"wall":7459,"BOOK":7460,"ships":7461,"anned":7462,"uther":7463,"saw":7464,"author":7465,"84":7466,"Ġinvited":7467,"Ġcomment":7468,"Ġteaching":7469,"Ġforehead":7470,"Tis":7471,"OG":7472,"aping":7473,"Ġga":7474,"terior":7475,"ĠWestern":7476,"AAATG":7477,"iency":7478,"Ġlighted":7479,"hands":7480,"Ġrent":7481,"Ġrig":7482,"Ġeagerly":7483,"ĠSaint":7484,"Ġ34":7485,"arms":7486,"Ġemph":7487,"Ġdetail":7488,"Ġhumanity":7489,"ĠCape":7490,"ACG":7491,"Ġfirmly":7492,"ĠMost":7493,"ulp":7494,"IAN":7495,"proper":7496,"ĠEmpire":7497,"icken":7498,"uated":7499,",)":7500,"ĠLook":7501,"Ġwretched":7502,"glass":7503,"Ġwrites":7504,"Ġsupplied":7505,"ĠAccording":7506,"Ġ\"_":7507,"quet":7508,"Ġpour":7509,"hedral":7510,"Ġtreaty":7511,"school":7512,"Char":7513,"Ġrust":7514,"Ġlect":7515,"Ġcrowded":7516,"Ġconflict":7517,"Ġscorn":7518,"Ġinvol":7519,"Ġhunting":7520,"Ġrush":7521,"estab":7522,"Ġmaintained":7523,"Ġignorance":7524,"tending":7525,"Ġbishop":7526,"istle":7527,"gone":7528,"done":7529,"icit":7530,"Ġspare":7531,"Ġproduction":7532,"pher":7533,"Ġsignal":7534,"Ġmurmured":7535,"Ġscenes":7536,"ĠCommission":7537,";âĢĿ":7538,"ĠLE":7539,"ositions":7540,"ĠJane":7541,"PE":7542,"obser":7543,"Ġexisted":7544,"whom":7545,"ador":7546,"Ġloving":7547,"Ġapplication":7548,"Ġdrift":7549,"Ġrailway":7550,"Ġviolence":7551,"Ġdece":7552,"ACTG":7553,"ĠWalter":7554,"ĠMo":7555,"Ġawa":7556,"sych":7557,"Ġparish":7558,"ĠConf":7559,"ĠMonsieur":7560,"Ġcavalry":7561,"Ġeffic":7562,"Ġgenerous":7563,"alks":7564,"England":7565,"Ġmud":7566,"ieu":7567,"rust":7568,"ĠDev":7569,"uan":7570,"iege":7571,"Ġhanging":7572,"Ġcommonly":7573,"Ġgroups":7574,"tre":7575,"rather":7576,"ipt":7577,"_--":7578,"Ġcomr":7579,"Ġlegend":7580,"affect":7581,"Ġagent":7582,"Ġcotton":7583,"fortune":7584,"told":7585,"London":7586,"Ġerected":7587,"bb":7588,"Ġgrant":7589,"Ġkissed":7590,"Ġfoundation":7591,"shine":7592,"achment":7593,"Ġglo":7594,"END":7595,"Ġbosom":7596,"Ġroot":7597,"iforn":7598,"best":7599,"omed":7600,"Ġtroubles":7601,"Ġcliff":7602,"Ġtreasure":7603,"Ġfeast":7604,"cra":7605,"Ġgrounds":7606,"gentle":7607,"Ġdelightful":7608,"Ġdemonstr":7609,"sight":7610,"French":7611,"Another":7612,"ĠRomans":7613,"Ġflow":7614,"Ġstared":7615,"Ġresistance":7616,"ISH":7617,"occup":7618,"mem":7619,"ĠChief":7620,"Ġridic":7621,"pleasant":7622,"greg":7623,"ĠSpani":7624,"death":7625,"Ġbarbar":7626,"mittee":7627,"Ġresc":7628,"xed":7629,"past":7630,"Ã¨re":7631,"Ġriding":7632,"Ġgates":7633,"Ġstaff":7634,"Ġuttered":7635,"Ġopposed":7636,"TGGGC":7637,"Ġlanded":7638,"Ġcart":7639,"state":7640,"ictures":7641,"agree":7642,"Ġcher":7643,"command":7644,"ĠLieutenant":7645,"ulating":7646,"Ġwhisper":7647,"ĠBu":7648,"Ġsituated":7649,"orders":7650,"Ġtoler":7651,"umm":7652,"ĠSun":7653,"Ġrival":7654,"pop":7655,"BERT":7656,"particular":7657,"rage":7658,"does":7659,"ĠCOM":7660,"Ġhistorical":7661,"Ġshed":7662,"thus":7663,"ĠHoll":7664,"ĠMah":7665,"abel":7666,"ĠHaw":7667,"Ġactions":7668,"whether":7669,"illing":7670,"iner":7671,"Ġtide":7672,"raction":7673,"Ġpresents":7674,"Ġere":7675,"erity":7676,"Ġbrig":7677,"Ġblame":7678,"Ġantic":7679,"Man":7680,"Ġresidence":7681,"Ġbeings":7682,"Ġcaptured":7683,"aturday":7684,"dec":7685,"Ġmillions":7686,"ĠGermans":7687,"Ġcheek":7688,"ibus":7689,"quisite":7690,"Ġdirections":7691,"Ġabandoned":7692,"Ġwedd":7693,"Ġwidow":7694,"Ġpreceding":7695,"Ġinsult":7696,"ĠAnne":7697,"Ġpaint":7698,"Ġclaims":7699,"Ġtraining":7700,"tree":7701,"ĠInt":7702,"Ġgazed":7703,"Ġrestored":7704,"Ġinterview":7705,"Ġapply":7706,"Ġeste":7707,"ĠFe":7708,"ĠSk":7709,"Ġeastern":7710,"Ġsummon":7711,"Ġtrembling":7712,"Ġdram":7713,"spirit":7714,"ĠOnce":7715,"acco":7716,"Ġloyal":7717,"opes":7718,"ĠSince":7719,"Ġspecul":7720,"Two":7721,"Ġplat":7722,"Ġhurry":7723,"piece":7724,"Ġrecovered":7725,"Ġbasis":7726,"UB":7727,"Ġdared":7728,"ala":7729,"Ġwra":7730,"Ġflew":7731,"Ġbrings":7732,"Ġ37":7733,"Ġstor":7734,"Ġsacrific":7735,"Ġwarning":7736,"criptions":7737,"plicity":7738,"Ġearliest":7739,"ĠGall":7740,"thousand":7741,"Ġcapacity":7742,"Ġshelter":7743,"oubtedly":7744,"izes":7745,"Ġaccounts":7746,"augh":7747,"\"'":7748,"Ġbased":7749,"Ġprejud":7750,"ĠGreeks":7751,"--âĢĿ":7752,"Ġrivers":7753,"avig":7754,"words":7755,"hearted":7756,"thren":7757,"udent":7758,"alo":7759,"Ġcompass":7760,"ĠMexico":7761,"ĠPROJECT":7762,"Ġbeloved":7763,"hur":7764,"Ġreaching":7765,"ball":7766,"akespe":7767,"exc":7768,"dev":7769,"acific":7770,"Ġentering":7771,"Ġtrick":7772,"ĠOxford":7773,"onia":7774,"Ġlistening":7775,"Ġcutting":7776,"ĠIllustr":7777,"Ġaccompany":7778,"tery":7779,"Ġcomplex":7780,"Ġnevertheless":7781,"Ġnearest":7782,"Such":7783,"amma":7784,"ĠCross":7785,"ofty":7786,"Ġexternal":7787,"Ġrarely":7788,"appearance":7789,"Ġmart":7790,"Ġmisery":7791,"mediately":7792,"Ġprofit":7793,"Ġpoured":7794,"Ġsteady":7795,"Ġobvious":7796,"Ġtiny":7797,"dig":7798,"Ġquoted":7799,"Mad":7800,"ĠConstant":7801,"Ġpursued":7802,"istics":7803,"keep":7804,"ĠGUT":7805,"arry":7806,"ĠSecond":7807,"Ġsorts":7808,"Ġju":7809,"Ġroute":7810,"Ġaudience":7811,"Ġpatter":7812,"Ġunusual":7813,"Ġalter":7814,"Ġconception":7815,"Ġgest":7816,"Ġstout":7817,"Ġwinds":7818,"ĠDeath":7819,"inned":7820,"Ġresolution":7821,"ĠColumb":7822,"Ġrecall":7823,"Ïħ":7824,"Ġprayers":7825,"former":7826,"Ġsupreme":7827,"ĠGUTENBERG":7828,"Ġstudied":7829,"Ġgeneration":7830,"Ġneat":7831,"lle":7832,"Ġaccordingly":7833,"ĠSus":7834,"Ġcorp":7835,"Ġcraft":7836,"Ġult":7837,"Ġbon":7838,"Ġremo":7839,"ifications":7840,"sea":7841,"Ġbrow":7842,"experi":7843,"AAAT":7844,"Ġlonely":7845,"Ġoriginally":7846,"Ġholds":7847,"fav":7848,"Ġinferior":7849,"ĠDun":7850,"AGGCC":7851,"awn":7852,"ĠYoung":7853,"Ġannoy":7854,"anta":7855,"Ġpuzz":7856,"Ġbath":7857,"fell":7858,"Ġangel":7859,"Ġabst":7860,"Ġblock":7861,"aration":7862,"Ġperceived":7863,"arrass":7864,"illes":7865,"Ġeleg":7866,"axim":7867,"Ġstronger":7868,"soon":7869,"Ġpowder":7870,"human":7871,"Ġantiqu":7872,"Ġtestimony":7873,"relig":7874,"Ġunexpected":7875,"Ġtendency":7876,"Ġdisposition":7877,"encies":7878,"Ġcircumstance":7879,"Ġpermit":7880,"tha":7881,"Ġeating":7882,"Ġsenses":7883,"Ġ(?),":7884,"Ġrelative":7885,"Ġhers":7886,"Ġenthusiasm":7887,"ĠJohnson":7888,"complete":7889,"ĠHugh":7890,"ĠMem":7891,"Ġflung":7892,"Ġacting":7893,"Ġtermin":7894,"Ġeditor":7895,"Jun":7896,"Ġsending":7897,"Ġ42":7898,"Ġdebt":7899,"ĠWhich":7900,"ucky":7901,"ĠTim":7902,"dark":7903,"uthors":7904,"ouraged":7905,"why":7906,"ĠKh":7907,"ĠChristianity":7908,"Ġmaterials":7909,"lla":7910,"During":7911,"âĢľâĢĺ":7912,"ĠSto":7913,"irk":7914,"ĠSat":7915,"ĠJones":7916,"Ġreceiving":7917,"ĠSometimes":7918,"Ġautumn":7919,"Ġagreeable":7920,"Ġhospital":7921,"Ġcontrast":7922,"utter":7923,"Ġdeparted":7924,"Ġpainful":7925,"Ġconsequently":7926,"ĠPost":7927,"object":7928,"Ġinform":7929,"ĠHaving":7930,"Ġsuggestion":7931,"Ġcopies":7932,"Ġgrasp":7933,"mi":7934,"ĠUpon":7935,"ROM":7936,"ĠAtl":7937,"190":7938,"chester":7939,"Ġinher":7940,"Ġdeny":7941,"ĠCrown":7942,"Ġrealized":7943,"Ġscream":7944,"Ġbowed":7945,"third":7946,"Ġnoon":7947,"Ġnurse":7948,"bishop":7949,"Ġanticip":7950,"Ġash":7951,"ournal":7952,"sac":7953,"Ġfavourite":7954,"LY":7955,"Ġindicated":7956,"Ġenv":7957,"Ġhundreds":7958,"Ġexperienced":7959,"Ġshoes":7960,"Ġsleeping":7961,"Ġ150":7962,"Ġdancing":7963,"Ġestim":7964,"Ġbottle":7965,"Ġbelongs":7966,"Ġdisturb":7967,"Ġsale":7968,"stitute":7969,"Ġdescended":7970,"ulture":7971,"isk":7972,"AST":7973,"Ġindividuals":7974,"Ġdesperate":7975,"Ġcommunication":7976,"zo":7977,"93":7978,"vin":7979,"ĠMichael":7980,"Ġcries":7981,"Ġsuitable":7982,"Ġruins":7983,"Ġwives":7984,"oting":7985,"Ġingen":7986,"Ġtemperature":7987,"ogue":7988,"Ġrecords":7989,"Ġability":7990,"Ġrefuge":7991,"Ġhadn":7992,"Ġaltar":7993,"ĠLincoln":7994,"geant":7995,"Ġneighbor":7996,"Ġceremony":7997,"except":7998,"din":7999,"ĠRu":8000,"ITY":8001,"gon":8002,"Ġpermanent":8003,"thy":8004,"Ġprecip":8005,"ĠOut":8006,"Ġslipped":8007,"American":8008,"ederal":8009,"inding":8010,"eanwhile":8011,"rat":8012,"ĠTra":8013,"uscript":8014,"Ġ160":8015,"Ġtroubled":8016,"Ġcontinu":8017,"ĠÂ§":8018,"Ġmistaken":8019,"Ġanywhere":8020,"Ġseriously":8021,"mans":8022,"Ġcopper":8023,"Ġshortly":8024,"Ġdevotion":8025,"azine":8026,"Ġmerry":8027,"pline":8028,"cannot":8029,"âĢĶâĢľ":8030,"sa":8031,"Brit":8032,"Ġmeas":8033,"feet":8034,"Ġinsisted":8035,"mann":8036,"sometimes":8037,"eff":8038,"ba":8039,"prof":8040,"Ġstraw":8041,"Ġloves":8042,"Ġmarble":8043,"ĠAbout":8044,"Ġconducted":8045,"Ġstrain":8046,"arling":8047,"Ġstim":8048,"bler":8049,"ĠKent":8050,"ĠCy":8051,"ĠSH":8052,"Ġmelancholy":8053,"Ġgenuine":8054,"Ġexisting":8055,"81":8056,"Ġresour":8057,"phia":8058,"otic":8059,"Ġprimitive":8060,"Ġrot":8061,"free":8062,"tes":8063,"number":8064,"Ġmap":8065,"Ġestablishment":8066,"Ġpatience":8067,"ĠAT":8068,"nature":8069,"Ġinev":8070,"asse":8071,"Ġdriving":8072,"Ġhaste":8073,"city":8074,"Ġnotion":8075,"ĠJOHN":8076,"Ġirrit":8077,"Ġprepare":8078,"ĠCorp":8079,"Ġ***":8080,"Before":8081,"Ġselected":8082,"ĠSouthern":8083,"otions":8084,"ĠeBook":8085,"urg":8086,"UST":8087,"Ġstomach":8088,"Ġrevealed":8089,"Ġnaked":8090,"rels":8091,"ĠVictor":8092,"Ġsincere":8093,"Ã©s":8094,"NE":8095,"Ġreports":8096,"Ġburden":8097,"ĠWould":8098,"ĠPan":8099,"akespeare":8100,"Ġincreasing":8101,"Ġmidnight":8102,"Ġpurple":8103,"ferences":8104,"Ġfolk":8105,"Ġextrem":8106,"Ġsore":8107,"Ġdescribe":8108,"ĠMet":8109,"tym":8110,"ĠLee":8111,"Ġtorn":8112,"Îº":8113,"commun":8114,"Ġnights":8115,"during":8116,"ĠâĢĶâĢĶ":8117,"gels":8118,"Ġhastily":8119,"horse":8120,"inated":8121,"mere":8122,"ĠAsia":8123,"Ġnecessarily":8124,"ĠAdd":8125,"URE":8126,"ho":8127,"keeper":8128,"lessness":8129,"92":8130,"public":8131,"Ġshield":8132,"ATCTC":8133,"ĠJacob":8134,"vous":8135,"Ġslender":8136,"Ġreaders":8137,"Ġfeed":8138,"Ġshock":8139,";\"":8140,"Ġsport":8141,"Ġclay":8142,"Ġard":8143,"El":8144,"pton":8145,"cross":8146,"ĠScript":8147,"covered":8148,"Ġvon":8149,"Ġcommercial":8150,"Ġregions":8151,"ATTTC":8152,"Ġfitted":8153,"Ġmedicine":8154,"Ġrecover":8155,"Ġoh":8156,"vate":8157,"ACTT":8158,"Ġcommittee":8159,"omy":8160,"possible":8161,"hall":8162,"idel":8163,"Ġregarding":8164,"Ġextensive":8165,"Ġlimit":8166,"Ġsins":8167,"Ġcoach":8168,"Ġsafely":8169,"Ġexceedingly":8170,"Ġassembled":8171,"Ġmagic":8172,"Ġsuccession":8173,"Ġgovern":8174,"sed":8175,"especially":8176,"Ġmasses":8177,"ocratic":8178,"ammed":8179,"Ġsettlement":8180,"Ġ75":8181,"ĠChic":8182,"Ġtear":8183,"fare":8184,"Ġvote":8185,"Ġsang":8186,"TGGCC":8187,"IP":8188,"ACAA":8189,"Ġ44":8190,"itudes":8191,"Åį":8192,"Ġcontents":8193,"mil":8194,"Ġhomes":8195,"conn":8196,"91":8197,"ĠEarth":8198,"Ġped":8199,"ĠTherefore":8200,"Ġpersec":8201,"VI":8202,"istry":8203,"several":8204,"fashion":8205,"Ġparallel":8206,"OUN":8207,"hamed":8208,"few":8209,"rates":8210,"Ġconj":8211,"enna":8212,"Ġrailroad":8213,"Ġleads":8214,"âĶ¼":8215,"Ġleather":8216,"ĠHelen":8217,"ĠPL":8218,"Ġshadows":8219,"money":8220,"GAG":8221,"Ġours":8222,"ĠWH":8223,"Ġmasters":8224,"ila":8225,"women":8226,"Ġmerchant":8227,"Ġcomposition":8228,"dri":8229,"Ġeloqu":8230,"ifornia":8231,"Ġgri":8232,"leton":8233,"ĠAlso":8234,"urred":8235,"herself":8236,"Ġhelpless":8237,"Pe":8238,"forward":8239,"ĠProtest":8240,"Ġstayed":8241,"Ġtemp":8242,"Ġfarmer":8243,"ĠGre":8244,"Ġslavery":8245,"Ġemperor":8246,"aned":8247,"ulars":8248,"Ġpound":8249,"âĢĶ_":8250,"Ġashamed":8251,"Ġvary":8252,"blood":8253,"ĠPass":8254,"above":8255,"anda":8256,"fif":8257,"edge":8258,"Ġheavily":8259,".\"[":8260,"Ġexamples":8261,"Ġabsent":8262,"Ġrested":8263,"Ġabrupt":8264,"ĠSecretary":8265,"Ġhungry":8266,"num":8267,"ĠSax":8268,"headed":8269,"ĠMarsh":8270,"ĠJerusalem":8271,"agues":8272,"ĠLight":8273,"ĠÃĨ":8274,"advant":8275,"Ġthreatened":8276,"Ġvillages":8277,"Ġgent":8278,"ATH":8279,"sold":8280,"within":8281,"pert":8282,"></":8283,"\"--":8284,"Ġdaughters":8285,"Ġreasonable":8286,"alph":8287,"iations":8288,"Ġseeking":8289,"inqu":8290,"rors":8291,"Ġrifle":8292,"Ġcommerce":8293,"Ġdetect":8294,"Ġinit":8295,"ĠCanada":8296,"according":8297,"Yet":8298,"early":8299,"green":8300,"trees":8301,"ĠIll":8302,"box":8303,"Ġforever":8304,"Ġintr":8305,"Gu":8306,"eded":8307,"wich":8308,"Ġrevel":8309,"Ġminor":8310,"spect":8311,"Ġborrow":8312,"ĠTemple":8313,"Ġvictim":8314,"Ġsongs":8315,"Fl":8316,"Ġlofty":8317,"ipping":8318,"Ġconcealed":8319,"grat":8320,"Ġconviction":8321,"DE":8322,"roll":8323,"Ġ43":8324,"Ġseas":8325,"onic":8326,"itself":8327,"Ġimagined":8328,"Nothing":8329,"Ġsomehow":8330,"Ġlargest":8331,"often":8332,"Ġbone":8333,"Ġproduct":8334,"Ġprevented":8335,"ayed":8336,"Ġplays":8337,"osh":8338,"ĠDis":8339,"Ġcryst":8340,"Ġsisters":8341,"ĠJapanese":8342,"Ġneighbourhood":8343,"ĠĠĠĠĠĠĠĠĠĠĠĠĠĠĠĠĠĠĠĠĠĠĠĠĠĠĠĠĠĠĠĠĠĠĠ":8344,"believe":8345,"Ġpaying":8346,"Ġcombined":8347,"Ġimpulse":8348,"Ġcolours":8349,"Ġsank":8350,"Ġadj":8351,"ĠGreece":8352,"Ġmedical":8353,"eries":8354,"Ġqueer":8355,"ĠHard":8356,"Ġcrying":8357,"Ġbeaten":8358,"Captain":8359,"Ġcontinually":8360,"Ġswim":8361,"gave":8362,"Ġcenter":8363,"adelphia":8364,"Ġpossibility":8365,"court":8366,"lad":8367,"ifully":8368,"Ġmuttered":8369,"Ġconnect":8370,"Ġbrid":8371,"already":8372,"wit":8373,"ORY":8374,"aneous":8375,"Ġfears":8376,"Ġconcent":8377,"Ġdivers":8378,"utive":8379,"grow":8380,"vet":8381,"Ġremote":8382,"Ġdrunk":8383,"Ġmortal":8384,"ĠAustral":8385,"Ġsheet":8386,"GTG":8387,"Ġbegged":8388,"Ġgrain":8389,"Ġsigned":8390,"arson":8391,"Ġaven":8392,"Ġthereby":8393,"Ġ41":8394,"works":8395,"Ġcreation":8396,"Ġdeserted":8397,"Ġprotected":8398,";--":8399,"grand":8400,"Ġpassages":8401,"inson":8402,"Ġadditional":8403,"iano":8404,"Car":8405,"Ġseventy":8406,"Ġdistress":8407,"akers":8408,"Ġflu":8409,"Ġboil":8410,"Ġmerit":8411,"ĠMP":8412,"anny":8413,"Ġecho":8414,"Ġtransp":8415,"Ġslightest":8416,"PER":8417,"Ġbadly":8418,"AGE":8419,"Ġrecorded":8420,"Ġslain":8421,"Ġprotest":8422,"uty":8423,"Ġau":8424,"Ġdrinking":8425,"Ġreckon":8426,"brew":8427,"Ġranks":8428,"lder":8429,"Ġcottage":8430,"ingham":8431,"Ġsailed":8432,"ĠTown":8433,"Ġarts":8434,"atherine":8435,"lest":8436,"Ġrequires":8437,"Ġthereof":8438,"stri":8439,"ARY":8440,"Christian":8441,"business":8442,"ĠBern":8443,"occasion":8444,"Ġpatron":8445,"rene":8446,"oof":8447,"Ġdistinctly":8448,"Ġforgive":8449,"AK":8450,"Ġlimbs":8451,"acks":8452,"ĠRO":8453,"Ġcovering":8454,"wife":8455,"Ġstudent":8456,"Ġpark":8457,"Ġthine":8458,"irs":8459,"short":8460,"Ġinstructions":8461,"ĠBas":8462,"ĠBaron":8463,"Ġpreserve":8464,"Ġfeature":8465,"Ġelection":8466,"Ġ}":8467,"viously":8468,"Ġenabled":8469,"Ġthir":8470,"Ġinterpret":8471,"Ġartillery":8472,"Ġ46":8473,"urious":8474,"igg":8475,"Ġlimits":8476,"Ġunlike":8477,"Ġeighteen":8478,"Ġplun":8479,"Ġsite":8480,"igence":8481,"Ġarise":8482,"Ġstupid":8483,"Ġapost":8484,"Ġcommander":8485,"oping":8486,"Ġburnt":8487,"Ġfolks":8488,"ertainly":8489,"ICE":8490,"mont":8491,"Ġdeclare":8492,"--âĢľ":8493,"produ":8494,"Ġinvolved":8495,"Ġcree":8496,"important":8497,"ĠPruss":8498,"Ġrestr":8499,"Ġfert":8500,"giving":8501,"egro":8502,"Ġgratitude":8503,"arned":8504,"Ġsuspect":8505,"Ġafterward":8506,"Ġartific":8507,"ĠEBOOK":8508,"wart":8509,"alion":8510,"alysis":8511,"Ġaloud":8512,"indeed":8513,"Ġexert":8514,"kerchief":8515,"Ġcomparison":8516,"ĠLew":8517,"Ġresist":8518,"ĠPeople":8519,"Ġimmort":8520,"olas":8521,"ustrious":8522,"Ġintroduction":8523,"ĠThrough":8524,"ĠCO":8525,"Ġchose":8526,"TGTAA":8527,"olt":8528,"Ġcivilization":8529,"ĠWIL":8530,"apes":8531,"ĠRock":8532,"eur":8533,"conven":8534,"icle":8535,"along":8536,"amps":8537,"ĠXXX":8538,"Ġrepeat":8539,"Ġpains":8540,"pled":8541,"ATGCC":8542,"rup":8543,"icating":8544,"Ġexhausted":8545,"Ġthrowing":8546,"Ġmanufacture":8547,"Ġshake":8548,"Ġrespond":8549,"Su":8550,"Ġ55":8551,"Ġventure":8552,"Ġfires":8553,"sels":8554,"mble":8555,"ĠGil":8556,"following":8557,"aria":8558,"anes":8559,"Ġrays":8560,"call":8561,"zed":8562,"Ġidle":8563,"andal":8564,"ĠDec":8565,"ulus":8566,"rot":8567,"agle":8568,"ĠPier":8569,"Ġprinces":8570,"----\"":8571,"lord":8572,"ĠMos":8573,"ieties":8574,"lyn":8575,"Ġ47":8576,"ester":8577,"ĠLuc":8578,"Ġinquiry":8579,"Ġcustoms":8580,"Ġgardens":8581,"bun":8582,"Ġlust":8583,"Ġrat":8584,"Ġhoney":8585,"Ġintim":8586,"understand":8587,"fellow":8588,"bacco":8589,"-----+-----+":8590,"Ġbapt":8591,"ishops":8592,"Ġpursuit":8593,"inus":8594,"Ġfurniture":8595,"hot":8596,"ĠÃ¾":8597,"Ġorganization":8598,"Ġmoist":8599,"Ġrav":8600,"whel":8601,"udence":8602,"aging":8603,"Ġformation":8604,"claim":8605,"ounter":8606,"ĠLeg":8607,"hension":8608,"Ġmoreover":8609,"Ġsomebody":8610,"Ġmob":8611,"Ġug":8612,"Ġconsisted":8613,"Ġmostly":8614,"Even":8615,"creat":8616,"cclesiast":8617,"allowed":8618,"Ġdisplayed":8619,"everything":8620,"Ġmerc":8621,"Ġhorrible":8622,"ocracy":8623,"Ġaffl":8624,"Ġdismiss":8625,"Ġduke":8626,"Ġassume":8627,"Ġcave":8628,"Ġirregular":8629,"ĠGar":8630,"scar":8631,"oa":8632,"Ġguest":8633,"beautiful":8634,"Ġconvention":8635,"Ġpover":8636,"Ġmixture":8637,"ĠDist":8638,"Ġroots":8639,"Ã«":8640,"Ġattain":8641,"Ġgifts":8642,"ĠAS":8643,"Ġwanting":8644,"Ġcrossing":8645,"treat":8646,"Ġambition":8647,"Ġadministration":8648,"incre":8649,"Ġcease":8650,"acing":8651,"Ġtoss":8652,"Ġconceal":8653,"Ġspell":8654,"Ġrebell":8655,"Ġwrath":8656,"Ġtones":8657,"ĠPenn":8658,"Ġchapel":8659,"Ġcheap":8660,"Ġvivid":8661,"Ġperil":8662,"olis":8663,"ĠEve":8664,"chess":8665,"press":8666,"bear":8667,"Ġresumed":8668,"Ġfinest":8669,"Ġsupplies":8670,"olph":8671,"Ġpoverty":8672,"ĠAlthough":8673,"Ġwash":8674,"iger":8675,"Ġstrangers":8676,"hour":8677,"ĠChild":8678,"leness":8679,"Ġsounded":8680,"Ġclerk":8681,"ifies":8682,"phil":8683,"Ap":8684,"ĠGrace":8685,"iac":8686,"received":8687,"olet":8688,"nds":8689,"hered":8690,"Ġadmire":8691,"coat":8692,"Ġspecimens":8693,"Ġresting":8694,"shaped":8695,"Ġconsist":8696,"William":8697,"inery":8698,"uming":8699,"angle":8700,"everal":8701,"remark":8702,"AU":8703,"grim":8704,"Ġfinish":8705,"Ġlin":8706,"Ġretire":8707,"ĠTor":8708,"Ġbat":8709,"Ġenable":8710,"Ġoccurs":8711,"vity":8712,"Ġqual":8713,"Ġobjection":8714,"Ġ170":8715,"lot":8716,"ensity":8717,"ervation":8718,"ĠTake":8719,".-":8720,"circumst":8721,"ĠJewish":8722,"steps":8723,"Ġdeeds":8724,"Ġfathers":8725,"gedy":8726,"Ġcrack":8727,"Ġraces":8728,"Ġwaist":8729,"othy":8730,"ĠAmericans":8731,"TCTT":8732,"ĠAdam":8733,"Ġcorps":8734,"ĠCounty":8735,"aying":8736,"placed":8737,"Ġwhereas":8738,"Ġmotor":8739,"Ġyell":8740,"Ġchim":8741,"Ġ65":8742,"Ġpine":8743,"Ġtranslation":8744,"Ġstarting":8745,"Ġcheerful":8746,"Take":8747,"Ġscr":8748,"omatic":8749,"Ġwondering":8750,"direct":8751,"sters":8752,"Ġexchange":8753,"super":8754,"ENTS":8755,"Ġdeeper":8756,"Ġsharply":8757,"vell":8758,"Ġovercome":8759,"knew":8760,"La":8761,"justice":8762,"picuous":8763,"Ġarrive":8764,"Ġsuspected":8765,"Ġplates":8766,"ĠOb":8767,"Ġdenied":8768,"Ġmaiden":8769,"Ġprominent":8770,"âĢ²":8771,"arte":8772,"Ġtin":8773,"nut":8774,"Ġtick":8775,"ĠTell":8776,"ographical":8777,"Ġintervals":8778,"myself":8779,"brother":8780,"meet":8781,"Ġexists":8782,"Ġvolumes":8783,"dy":8784,"Ġvine":8785,"times":8786,"pture":8787,"Ġlun":8788,"Ġbeasts":8789,"epend":8790,"till":8791,"Ġconquer":8792,"ĠPur":8793,"ORK":8794,"Ġarmies":8795,"Ġrhy":8796,"Ġprem":8797,"Ġavailable":8798,"Ġcolony":8799,"Ġdepends":8800,"Ġeaten":8801,"Ġintelligent":8802,"Ġgrows":8803,"Ġreb":8804,"ector":8805,"LAND":8806,"ials":8807,"Ġmagist":8808,"thr":8809,"Ġstudents":8810,"asm":8811,"employ":8812,"Ġdeed":8813,"Ġcondemned":8814,"Ġlesson":8815,"Ġperformance":8816,"ĠED":8817,"imag":8818,"ĠMinister":8819,"Ġfastened":8820,"ĠSand":8821,"ĠMoses":8822,"continued":8823,"comes":8824,"Ġleaned":8825,"Ġ56":8826,"Ġsunshine":8827,"Ġattempts":8828,"lines":8829,"Ġemployment":8830,"gging":8831,"Ġfasc":8832,"Ġrelieved":8833,"ĠCard":8834,"ĠAndrew":8835,"Ġfruits":8836,"Ġtribut":8837,"Ġsecurity":8838,"Ġlock":8839,"ĠĠĠĠĠĠĠĠĠĠĠĠĠĠĠĠĠĠĠĠĠĠĠĠĠĠĠĠĠĠĠĠĠĠĠĠĠ":8840,"ICK":8841,"Ġraising":8842,"Ġelected":8843,"AIN":8844,"Ġdistribution":8845,"Ste":8846,"Ġlightly":8847,"Ġcy":8848,"Ġsympt":8849,"Ġpsych":8850,"Ġneglect":8851,"ĠEle":8852,"Ġtouching":8853,"apping":8854,"Ġpurchase":8855,"erness":8856,"Ġhappens":8857,"Ġstair":8858,"Ġjump":8859,"Ġimprison":8860,"Ġsymbol":8861,"Ġgracious":8862,"Ġshone":8863,"itty":8864,"ĠMuseum":8865,"Ġelev":8866,"Ġleis":8867,"rers":8868,"Ġslip":8869,"ĠTime":8870,"ĠSamuel":8871,"Ġlion":8872,"Mon":8873,"Ġcir":8874,"Ġtar":8875,"seven":8876,"Ġlanding":8877,"Ġdecide":8878,"uz":8879,"ashes":8880,"Ġbrass":8881,"Ġmould":8882,"ĠTest":8883,"ione":8884,"itality":8885,"Ġappar":8886,"Ġdisturbed":8887,"Ġcure":8888,"Ġresol":8889,"ĠIX":8890,"attering":8891,"Ġoutward":8892,"Ġbloom":8893,"posed":8894,"Ġsteadily":8895,"Ġbeach":8896,"Ġpreparation":8897,"Ġbade":8898,"broken":8899,"Ġobservations":8900,"Ġoccupation":8901,"THER":8902,"Ġsaddle":8903,"Ġ52":8904,"ĠAdmiral":8905,"inburgh":8906,"ĠLeon":8907,"ĠSaturday":8908,"sole":8909,"loc":8910,"Ġportrait":8911,"Ġdefeat":8912,"Ġresponsible":8913,"ĠFlorence":8914,"etic":8915,"Ġconsequences":8916,"nders":8917,"Ġsensible":8918,"Ġlap":8919,"ĠCro":8920,"ĠHay":8921,"Ġinduced":8922,"Ġcontrad":8923,"Ġsiege":8924,"comb":8925,"Ġinfl":8926,"ping":8927,"Ġstring":8928,"vill":8929,"near":8930,"uman":8931,"Ġcandid":8932,"100":8933,"Ġmusical":8934,"icles":8935,"Ġhind":8936,"Ġpolitics":8937,"Ġextract":8938,"inence":8939,"maid":8940,"decl":8941,"Hen":8942,"ĠCommand":8943,"Ġinterfe":8944,"Î·":8945,"gn":8946,"Ġ120":8947,"pie":8948,"MER":8949,"Ġfed":8950,"ĠSub":8951,"ruit":8952,"mill":8953,"Ġmotive":8954,"rified":8955,"Ġdiameter":8956,"Ġpronounced":8957,"iveness":8958,"Ġbeds":8959,"friends":8960,"Ġheavens":8961,"Ġculture":8962,"ĠAlf":8963,"poor":8964,"opy":8965,"Ġwrought":8966,"Ġlawyer":8967,"Ġsanct":8968,"Ġpainting":8969,"ĠDou":8970,"Ġcents":8971,"grad":8972,"ckets":8973,"TATTC":8974,"Ġgrateful":8975,"Ġcared":8976,"OOD":8977,"Ġnormal":8978,"Ġshalt":8979,"Ġvolunte":8980,"Ġclaimed":8981,"Ġadvantages":8982,"perial":8983,"igne":8984,"ACK":8985,"Ġprize":8986,"ipl":8987,"sex":8988,"aire":8989,"mical":8990,"Ġwashed":8991,"Ġpace":8992,"Ġastonished":8993,"ĠNight":8994,"Ġrepublic":8995,"AAAAAAAA":8996,"Ġmultitude":8997,"ulties":8998,"Ġcleared":8999,"ĠStephen":9000,"Ġcards":9001,"Ġbalance":9002,"Ġtheatre":9003,"Ġdemands":9004,"Ġcapture":9005,"Ġcolumns":9006,"ĠAlice":9007,"Ġpositive":9008,"determ":9009,"prison":9010,"guard":9011,"Ġoak":9012,"Ġscarce":9013,"Ġdepartment":9014,"bene":9015,"ĠFil":9016,"ws":9017,"ĠLiterary":9018,"Ġcells":9019,"probably":9020,"angled":9021,"regard":9022,"Ġcitizen":9023,"sun":9024,"Ġhatred":9025,"Me":9026,"Ġcomparatively":9027,"Ġstudies":9028,"Ġdoubtful":9029,"begin":9030,"Ġgoodness":9031,"although":9032,"mel":9033,"Ġfury":9034,"Ġfifth":9035,"Ġtyp":9036,"drew":9037,"Ġsixteen":9038,"Ġfearful":9039,"Ġscore":9040,"hill":9041,"Ġagric":9042,"ATATG":9043,".).":9044,"olen":9045,"fles":9046,"amental":9047,"Ġfurnish":9048,"Ġweapons":9049,"vas":9050,"Ġexamine":9051,"Ġ51":9052,"Ġ64":9053,"agan":9054,"uris":9055,"Ġfount":9056,"uting":9057,"ĠMoh":9058,"Ġclock":9059,"llers":9060,"Ġshaft":9061,"ATTTT":9062,"Ġhid":9063,"ĠHind":9064,"ĠSenate":9065,"oped":9066,"Ġmead":9067,"Ġphysician":9068,"ĠNEW":9069,"Ġrespects":9070,"Ġexquisite":9071,"ĠRos":9072,"Ġlift":9073,"ĠPacific":9074,"wed":9075,"umbled":9076,"Ġpoets":9077,"Ġbrethren":9078,"Ġflash":9079,"oard":9080,"Ġnewspaper":9081,"ĠBi":9082,"Ġreflection":9083,"Ġastonishment":9084,"ader":9085,"Ġvaried":9086,"Ġexperiments":9087,"dire":9088,"RS":9089,"Ġperceive":9090,"bye":9091,"dess":9092,"Ġhaz":9093,"Ġintimate":9094,"---+":9095,"doubt":9096,"Ġcream":9097,"Ġencourage":9098,"felt":9099,"Ġnotwithstanding":9100,"Ġpoems":9101,"Ġ53":9102,"Ġbuff":9103,"Ġhandle":9104,"âĢĻ,":9105,"Ġ54":9106,"riages":9107,"Ġconvenient":9108,"Ġlocated":9109,"ĠHal":9110,"influ":9111,"spring":9112,"ĠPot":9113,"âģ":9114,"Ġsurvey":9115,"Ġstreams":9116,"manner":9117,"ĠHolland":9118,"ĠSpaniards":9119,"Ġadorn":9120,"iche":9121,"Ġattained":9122,"Ġinternal":9123,"Ne":9124,"Ġwearing":9125,"Bar":9126,"Ġcourts":9127,"Ġsway":9128,"Ġknee":9129,"rooms":9130,"pleasure":9131,"Ġgang":9132,"ĠCalifornia":9133,"Ġate":9134,"Ġindifferent":9135,"Gover":9136,"Ġnarrative":9137,"Ġwherever":9138,"uity":9139,"Ġsighed":9140,"fish":9141,"aders":9142,"ĠBilly":9143,"onsense":9144,"main":9145,"willing":9146,"ĠHead":9147,"azz":9148,"ava":9149,"Ġretained":9150,"Ġregards":9151,"Bec":9152,"Ġauthors":9153,"Ġborder":9154,"ĠCommittee":9155,"ĠNich":9156,"Ġorg":9157,"ĠConstitution":9158,"ĠIsa":9159,"Ġwritings":9160,"._;":9161,"tical":9162,"Ġfourteen":9163,"Ġsob":9164,"Ġshells":9165,"Ġoffices":9166,"Ġfatig":9167,"run":9168,"Ġperfection":9169,"ĠRevolution":9170,"ĠBa":9171,"Ġprey":9172,"Ġassure":9173,"knowledge":9174,"Ġselect":9175,"Ġdried":9176,"Ġdesires":9177,"Ġmodel":9178,"Sec":9179,"Ġelabor":9180,"Ġpink":9181,"Ġindicate":9182,"Ġplot":9183,"TGTT":9184,"Ġwedding":9185,"Ġpreferred":9186,"Ġshru":9187,"icing":9188,"Ġsatisfactory":9189,"quer":9190,"Ġprovinces":9191,"Ġendure":9192,"Ġprovision":9193,"forced":9194,"Ġquarrel":9195,"Ġwars":9196,"First":9197,"Ġbid":9198,"ĠTurn":9199,"Arch":9200,"Ġscul":9201,"Ġinjury":9202,"Again":9203,"Ġaged":9204,"ensation":9205,"ACE":9206,"uously":9207,"Ġdwelling":9208,"ĠâĢŀ":9209,"herent":9210,"aters":9211,"TAAAA":9212,"ĠCarl":9213,"ĠOl":9214,"Ġthirst":9215,"Ġembra":9216,"Ġfollowers":9217,"Ġnamely":9218,"lady":9219,"uration":9220,"Ġcolored":9221,"umps":9222,"bot":9223,"Ġdistinguish":9224,"Ġembarrass":9225,"ĠArist":9226,"Ġgiant":9227,"geance":9228,",_":9229,"Ġprofess":9230,"alone":9231,"Ġdragged":9232,"allen":9233,"ACT":9234,"Ġconsidering":9235,"Ġcriminal":9236,"+--------":9237,"CCCC":9238,"family":9239,"consequ":9240,"ĠJudge":9241,"government":9242,"Ġbreeze":9243,"Lady":9244,"Ġcompanies":9245,"Ġabandon":9246,"Ġgarrison":9247,"Ġstartled":9248,"ĠWin":9249,"onies":9250,"Ġconfirmed":9251,"Obs":9252,"akened":9253,"Ġcritical":9254,"usually":9255,"endous":9256,"ĠCentral":9257,"resently":9258,"Ġshaking":9259,"ati":9260,"Ant":9261,"Ġvisitor":9262,"Ġclimate":9263,"Ġsummit":9264,"Ġreprodu":9265,"Gutenberg":9266,"ippi":9267,"Ġsne":9268,"raham":9269,"ĠFle":9270,"Ġhesitated":9271,"AGTT":9272,"Ġlively":9273,"ĠCÃ¦":9274,"Ġboots":9275,"Ġreflected":9276,"Ġblessing":9277,"sufficient":9278,"bott":9279,"fold":9280,"Ġmate":9281,"ĠEastern":9282,"ĠEgyptian":9283,"Ġrolling":9284,"Ġcoarse":9285,"Ġfolly":9286,"CTION":9287,"ĠField":9288,"Ġattracted":9289,"Ġgallant":9290,"Ġtransport":9291,"Ġcens":9292,"stud":9293,"Ġpresident":9294,"ibilities":9295,"scape":9296,"nation":9297,"igr":9298,"idity":9299,"Ġsyn":9300,"usk":9301,"legraph":9302,"Ġconstructed":9303,"Ġinser":9304,"ĠBudd":9305,"Ġexecuted":9306,"Ġoffering":9307,"ĠEX":9308,"ĠĠĠĠĠĠĠĠĠĠĠĠĠĠĠĠĠĠĠĠĠĠĠĠĠĠĠĠĠĠĠĠĠĠĠĠ":9309,"Ġhaun":9310,"adise":9311,"odes":9312,"Ġclothing":9313,"speak":9314,"Ġangle":9315,"Ġbron":9316,"Ġlaying":9317,"Ġtrunk":9318,"ouched":9319,"enc":9320,"Ġdesk":9321,"Ġpointing":9322,"ĠFrederick":9323,"Ġpreparing":9324,"Ġfortunate":9325,"Ġsd":9326,"ĠCL":9327,"ĠOffice":9328,"borough":9329,"Because":9330,"Ġkeeps":9331,"Ġ58":9332,"Ġliquid":9333,"ĠPap":9334,"Ġhated":9335,"Ġsurrender":9336,"Ġ57":9337,"ĠTex":9338,"elect":9339,"GH":9340,"oonful":9341,"isms":9342,"Ġdict":9343,"means":9344,"Ġhed":9345,"AW":9346,"Ġinstruction":9347,"intend":9348,"deep":9349,"iÃ¦":9350,"ĠWITH":9351,"osity":9352,"Ġannual":9353,"azed":9354,"Ġintend":9355,"Ġenterprise":9356,"Ġundoubtedly":9357,"ĠEtym":9358,"towards":9359,"Ġpeasant":9360,"ĠChicago":9361,"Ġfran":9362,"Ġmanuscript":9363,"ano":9364,"uh":9365,"Ġapartment":9366,"ushes":9367,"ĠIslands":9368,"ciation":9369,"Ġinspired":9370,"Ġassault":9371,"Ġvulgar":9372,"Ġsubsequent":9373,"ĠBre":9374,"Ġdesigned":9375,"LIAM":9376,"orse":9377,"Ġparted":9378,"Ġdetermine":9379,"Ġequip":9380,"Ġrealize":9381,"became":9382,"Ġprecisely":9383,"ifted":9384,"llen":9385,"Ġjumped":9386,"ĠMoreover":9387,"About":9388,"street":9389,"Ġangels":9390,"Ġtobacco":9391,"ĠEst":9392,"cribe":9393,"apted":9394,"Ġindependence":9395,"dam":9396,"Ġpond":9397,"urrection":9398,"Ġbeheld":9399,"Ġinstitutions":9400,"vania":9401,"Ġdisgrace":9402,"cat":9403,"Ġfeels":9404,"Ġdrank":9405,"cester":9406,"ĠBull":9407,"aired":9408,"Ġsurrounding":9409,"reath":9410,"Ġphenomena":9411,"Ġchiefs":9412,"Their":9413,"hope":9414,"osis":9415,"Ġawake":9416,"Ġleaning":9417,"Ġproceedings":9418,"Ġruined":9419,"Ġplains":9420,"Ġfeeble":9421,"Ġfunction":9422,"Ġdiscipline":9423,"Old":9424,"sure":9425,"Ġhorizon":9426,"nie":9427,"east":9428,"Ġvirtues":9429,"Ġdepths":9430,"Ġreview":9431,"Ġinstruments":9432,"Ġrises":9433,"Ġnerves":9434,"Ġsolitary":9435,"Ġsensation":9436,"Ġsulph":9437,"Ġhem":9438,"ĠMiddle":9439,"lock":9440,"Ïī":9441,"Ġlament":9442,"tor":9443,"Ġweapon":9444,"daughter":9445,"TTTTTTTT":9446,"phone":9447,"Ġconceived":9448,"Ġgathering":9449,"Ġstroke":9450,"aue":9451,"Ġprivilege":9452,"Ġcoo":9453,"ĠAmb":9454,"ĠJeff":9455,"Ġdirty":9456,"Ġhastened":9457,"Ġselfish":9458,"IVE":9459,"Ġreform":9460,"neighb":9461,"Ġministers":9462,"Ġpeop":9463,"asty":9464,"Ġcloser":9465,"Ġbloss":9466,"emb":9467,"acked":9468,"Ġobedience":9469,"Ġdining":9470,"began":9471,"sch":9472,"Ġerrors":9473,"ĠSC":9474,"onday":9475,"ultan":9476,"Ġswear":9477,"squ":9478,"Ġhook":9479,"chance":9480,"ĠInf":9481,"TTCTC":9482,"written":9483,"Ġconsisting":9484,"develop":9485,"Ġdelic":9486,"atching":9487,"Ġdetermination":9488,"Ġ59":9489,"Ġlocked":9490,"Ġmanage":9491,"Ġvanished":9492,"ĠStan":9493,"Ġbeard":9494,"Ġugly":9495,"Ġfeathers":9496,"Ġrighteous":9497,"become":9498,"LEY":9499,"earth":9500,"compan":9501,"church":9502,"Ġdistricts":9503,"Ġconfident":9504,"Ġharmony":9505,"ĠShakespeare":9506,"Ġrecon":9507,"Ġboiling":9508,"rily":9509,"Somet":9510,"rod":9511,"ĠOver":9512,"Ġtechn":9513,"Ġharsh":9514,"Ġshores":9515,"ĠJackson":9516,"Ġwherein":9517,"Ġbasket":9518,"century":9519,"rad":9520,"Ġperf":9521,"ĠBart":9522,"ĠAra":9523,"Ã¡n":9524,"Ġplane":9525,"ĠCab":9526,"Ġtube":9527,"hend":9528,"Ġdaring":9529,"500":9530,"ĠMaria":9531,"aylor":9532,"Tom":9533,"ĠWales":9534,"Cor":9535,"Ġnut":9536,"Ġstaring":9537,"ĠEN":9538,"emon":9539,"Ġoun":9540,"Ġprincess":9541,"ĠNorthern":9542,"Ġbrick":9543,"syl":9544,"Ġdeer":9545,"move":9546,"Ġdiver":9547,"Ġadmirable":9548,"Ġowe":9549,"amen":9550,"Ġling":9551,"Ġphotograph":9552,"ictions":9553,"Ġafforded":9554,"iser":9555,"Ġlightning":9556,"ĠDivision":9557,"Ġgran":9558,"Ġaccused":9559,"ĠIS":9560,"text":9561,"Great":9562,"Ġtales":9563,"aman":9564,"ylon":9565,"ĠRod":9566,"._âĢĶ":9567,"Ġ300":9568,"voice":9569,"Ġtravelling":9570,"ĠPage":9571,"ĠBO":9572,"âĶĢâĶĢâĶĢâĶĢâĶĢâĶĢâĶĢâĶĢâĶĢâĶĢâĶĢâĶĢâĶĢâĶĢâĶĢâĶĢ":9573,"Ġdonations":9574,"ĠWind":9575,"leased":9576,"Ġcriticism":9577,"Ġholes":9578,"cession":9579,"Ġpalm":9580,"Ġber":9581,"Ġarrested":9582,"alking":9583,"Ġtimber":9584,"ATTCC":9585,"places":9586,"Ġplanted":9587,"Ġbeating":9588,"Ġabundant":9589,"feel":9590,"behind":9591,"udge":9592,"Ġpropriet":9593,"Ġtub":9594,"ĠĠĠĠĠĠĠĠĠĠĠĠĠĠĠĠĠĠĠĠĠĠĠĠĠĠĠĠĠĠĠĠĠĠĠĠĠĠĠ":9595,"Ġgloomy":9596,"Ġinstitution":9597,"Ġwages":9598,"Ġprocession":9599,"Ġportions":9600,"Ġrang":9601,"ĠOs":9602,"Ġupright":9603,"letter":9604,"ĠDom":9605,"Ġuniverse":9606,"ĠLow":9607,"bound":9608,"Ġfishing":9609,"fight":9610,"followed":9611,"national":9612,"deal":9613,"Ġimpressed":9614,"Ġplatform":9615,"Ġcommence":9616,"ĠOhio":9617,"ĠBeing":9618,"ki":9619,"Äĵ":9620,"front":9621,"Ġrevenge":9622,"Ġincred":9623,"Ġ63":9624,"Ġconfused":9625,"gun":9626,"ĠâĢ¦":9627,"oche":9628,"Ġbond":9629,"Ġreception":9630,"AGGAG":9631,"aston":9632,"ĠWilson":9633,"Ġsaint":9634,"ĠHell":9635,"recogn":9636,"Ġlou":9637,"sq":9638,"UC":9639,"Ġgraceful":9640,"Ġtran":9641,"Ġscri":9642,"Ġcombination":9643,"Ġeighty":9644,"uset":9645,"eyed":9646,"ĠDivine":9647,"omp":9648,"ĠBelg":9649,"prep":9650,"soever":9651,"ridge":9652,"ĠFriend":9653,"Ġadding":9654,"Ġproceeding":9655,"asked":9656,"amin":9657,"umer":9658,"Ġcel":9659,"Ġretain":9660,"ĠFr":9661,"igs":9662,"ĠDra":9663,"âĢĶâĢĶâĢĶâĢĶ":9664,"oven":9665,"Ġadvert":9666,"Ġfuneral":9667,"requently":9668,"Ġverses":9669,"Ġchamp":9670,"ĠHebrew":9671,"outs":9672,"Ġthither":9673,"Ġrecognised":9674,"Ġpassions":9675,"ĠSwed":9676,"wen":9677,"quiet":9678,"PR":9679,"ĠRus":9680,"Ġvice":9681,"Ġadjust":9682,"Ġdocument":9683,"ods":9684,"imm":9685,"Ġassembly":9686,"Ġmant":9687,"dead":9688,"Ġpurely":9689,"gold":9690,"carried":9691,"Ġmodest":9692,"Ġhostile":9693,"Ġvii":9694,"Ġswung":9695,"ordon":9696,"ĠOri":9697,"VII":9698,"ICH":9699,"Ġseeds":9700,"Ġknocked":9701,"ĠRuth":9702,"Ġgazing":9703,"Ġassigned":9704,"Ġuses":9705,"Ġslee":9706,"Having":9707,"cclesiastical":9708,"landers":9709,"Ġprosperity":9710,"Ġ62":9711,"LD":9712,"itical":9713,"irts":9714,"ĠNov":9715,"fied":9716,"Ġinfantry":9717,"liver":9718,"famil":9719,"ogs":9720,"ĠPhiladelphia":9721,"bad":9722,"ether":9723,"Ġpin":9724,"ĠSher":9725,"Ġvisitors":9726,"Ġload":9727,"Ġdarling":9728,"xx":9729,"anguage":9730,"Ġmyth":9731,"ĠTurkish":9732,"condition":9733,"ACCTC":9734,"Ġcannon":9735,"ENCE":9736,"Ġbrush":9737,"anded":9738,"ĠClub":9739,"Ġimperfect":9740,"oster":9741,"phew":9742,"Ġtract":9743,"Ġvoc":9744,"least":9745,"ĠBrig":9746,"agreeable":9747,"Ġsubstant":9748,"achuset":9749,"true":9750,"asis":9751,"inf":9752,"Ġhunt":9753,"ONT":9754,"Ġdisgu":9755,"oore":9756,"Acc":9757,"issippi":9758,"Ġprohib":9759,"ĠLibr":9760,"achusetts":9761,"ORT":9762,"uy":9763,"oiselle":9764,"ĠWithout":9765,"Ġfiring":9766,"trave":9767,"entire":9768,"Ġexpenses":9769,"Ġamend":9770,"Ġwounds":9771,"around":9772,"Ġmour":9773,"Ġhut":9774,"antern":9775,"Ġanchor":9776,"Ġcoward":9777,"Ġneglected":9778,"Ġengra":9779,"IB":9780,"Ġpile":9781,"More":9782,"qual":9783,"Ġtrained":9784,"obl":9785,"reading":9786,"Ġcandle":9787,"Ġsets":9788,"bable":9789,"UE":9790,"Ġqui":9791,"zing":9792,"Ġsecretary":9793,"rons":9794,"Ġsunk":9795,"Ġ66":9796,"Ġtour":9797,"George":9798,"Ġfragments":9799,"VER":9800,"unting":9801,"Ġfet":9802,"TCCCC":9803,"Ġbehalf":9804,"ĠAssoci":9805,"Ġconsiderably":9806,"ĠBal":9807,"ATTAC":9808,"Ġarrangements":9809,"oli":9810,"Ġspecimen":9811,"GGGG":9812,"Ġ68":9813,"Ġtip":9814,"wering":9815,"ĠRoger":9816,"Ã¯":9817,".)</":9818,"ĠÎº":9819,"Ġdrops":9820,"Ġdistributed":9821,"Ġcrept":9822,"grave":9823,"icism":9824,"âĢĿ;":9825,"Ġjack":9826,"Ġsteamer":9827,"Tell":9828,"Ġappet":9829,"Ġeleph":9830,"',":9831,"Ġupward":9832,"Ġslope":9833,"Ġmutual":9834,"Ġvener":9835,"Ġinvari":9836,"Ġdefeated":9837,"Ġpolite":9838,"ACCCC":9839,"Ġviz":9840,"ĠGeorg":9841,"Ġdiscussed":9842,"Ġske":9843,"Only":9844,"Ġdescent":9845,"Ġwake":9846,"Ġseats":9847,"ima":9848,"Ġeffective":9849,"Ġabol":9850,"Ġdeadly":9851,"ĠSix":9852,"Ġpreparations":9853,"achel":9854,"Ġener":9855,"sen":9856,"Ġcolors":9857,"ilian":9858,"asper":9859,"uese":9860,"Ġinfant":9861,"Ġmingled":9862,"ĠMir":9863,"Ġacres":9864,"Ġnois":9865,"Ġresponsibility":9866,"Ġeffected":9867,"ĠGrant":9868,"Ġsummoned":9869,"ĠPoor":9870,"ĠHart":9871,"Ġorgans":9872,"ĠBurn":9873,"ĠWy":9874,"Ġoverwhel":9875,"esy":9876,"berry":9877,"ĠRalph":9878,"Ġgrandfather":9879,"ĠBerlin":9880,"ĠFROM":9881,"ĠEsq":9882,"Ġmail":9883,"ĠMarie":9884,"Ġsimplicity":9885,"Ġ76":9886,"Ġamusement":9887,"Ġspecific":9888,"Ġoccasional":9889,"rise":9890,"ĠLiber":9891,"corn":9892,"ribly":9893,"Ġconquest":9894,"Ġpersuaded":9895,"Ġforests":9896,"Ġtypes":9897,"unities":9898,"Ġwidely":9899,"wealth":9900,"chair":9901,"Ġward":9902,"enem":9903,"Ġvigorous":9904,"result":9905,"Ġreserve":9906,"portion":9907,"ĠKings":9908,"usively":9909,"ĠVery":9910,"Ġunity":9911,"Many":9912,"ĠNegro":9913,"Ġglow":9914,"Ġentreat":9915,"CL":9916,"Ġridge":9917,"mighty":9918,"Ġroar":9919,"Ġcharity":9920,"sugg":9921,"built":9922,"LL":9923,"cott":9924,"OUS":9925,"ASS":9926,"Ġmissed":9927,"vag":9928,".--_":9929,"Among":9930,"ĠKnight":9931,"Ġstirred":9932,"ĠBed":9933,"Ġcultivated":9934,"Ġmoderate":9935,"kward":9936,"inating":9937,"says":9938,"ĠRay":9939,"Ġcharges":9940,"ograp":9941,"office":9942,"pson":9943,"ĠAsh":9944,"VIII":9945,"rane":9946,"ĠWel":9947,"rice":9948,"Ġrespecting":9949,"Ġmajesty":9950,"contr":9951,"Ġreplaced":9952,"Ġachieve":9953,"itals":9954,"hi":9955,"Ġ61":9956,"ĠMod":9957,"ĠAthens":9958,"ĠFox":9959,"idding":9960,"throp":9961,"Ġpool":9962,"Gl":9963,"Thank":9964,"ĠNed":9965,"ordered":9966,"Ġunc":9967,"Ġpicturesque":9968,"ui":9969,"Jack":9970,"faction":9971,"Pres":9972,"Ġnaval":9973,"attention":9974,"Ġ72":9975,"ustrial":9976,"Ġwandering":9977,"Ġ110":9978,"ĠLucy":9979,"NOT":9980,"ĠÃĹ":9981,"writing":9982,"Ġstatue":9983,"athan":9984,"Ġweigh":9985,"Ġwheels":9986,"Ġintercourse":9987,"Ġ67":9988,"hin":9989,"Spe":9990,"AGAAG":9991,"ATGGC":9992,"Ġwheat":9993,"Ġoccupy":9994,"ĠSupp":9995,"throw":9996,"180":9997,"ipes":9998,"âĢĶâĢĿ":9999,"Ġsatisfy":10000,"minded":10001,"faced":10002,"Ġremainder":10003,"ranean":10004,"Ġswiftly":10005,"Ġcanoe":10006,"arc":10007,"Ġcalculated":10008,"Ġpeas":10009,"Ġsmart":10010,"TCAA":10011,"Ġpayment":10012,"Ġmix":10013,"Ġnavig":10014,"appl":10015,"Ġglit":10016,"Ġrecognize":10017,"inh":10018,"Ġnegot":10019,"Ġconvent":10020,"IRE":10021,"Ġlosing":10022,"Ġredu":10023,"Ġstrictly":10024,"ĠAuthor":10025,"Ġresources":10026,"plain":10027,"Ġformal":10028,"Ġstrengthen":10029,"ĠUN":10030,"mentioned":10031,"Ġdense":10032,"Ġconfirm":10033,"Ġfoe":10034,"Ġearnestly":10035,"ded":10036,"Ġorganized":10037,"Ġexhibited":10038,"Ã®":10039,"obody":10040,"Ġsalvation":10041,"pain":10042,"Ġimproved":10043,"Ġconfer":10044,"Im":10045,"wonder":10046,"Ġpir":10047,"Ġaccum":10048,"ĠDam":10049,"Thou":10050,"faith":10051,"owl":10052,"feeling":10053,"rob":10054,"Ġdestined":10055,"OLD":10056,"ĠPlace":10057,"ambers":10058,"idable":10059,"Ġsweep":10060,"Ġjest":10061,"ĠPersian":10062,"ĠThor":10063,"Ġmischief":10064,"Ġcraw":10065,"TGGGG":10066,"asses":10067,"quick":10068,"Ġrepresents":10069,"Ġgross":10070,"SH":10071,"Ġcontest":10072,"Ġimprovement":10073,"books":10074,"Ġclimbed":10075,"Ġflames":10076,"proceed":10077,"Ġsurround":10078,"Ġspots":10079,"ĠAustria":10080,"ĠHome":10081,"Ġphilosoph":10082,"ivities":10083,"Ġreturns":10084,"Ġcyl":10085,"Ġpleas":10086,"Trans":10087,"Ġthri":10088,"next":10089,"ĠDown":10090,"ĠMort":10091,"ĠBuck":10092,"isible":10093,"ĠGoth":10094,"Ġagony":10095,"ĠAlbert":10096,"udder":10097,"ÃĨ":10098,"Ġblows":10099,"Ġromantic":10100,"Ġgenerations":10101,"Ġhymn":10102,"Ġcunning":10103,"ademy":10104,"assador":10105,"Ġrespectable":10106,"Ġhumour":10107,"Ġsubmit":10108,"Ġwarriors":10109,"Ġnerve":10110,"raits":10111,"Ġromance":10112,"Bet":10113,"Ġchin":10114,"ĠEdition":10115,"Ġrisen":10116,"pit":10117,"ĠHamilton":10118,"Ġ130":10119,"Ġ85":10120,"Ġdressing":10121,"ili":10122,"Ġ69":10123,"Ġgesture":10124,"Ġshooting":10125,"Ġtemporary":10126,"agne":10127,"Ġliberal":10128,"nex":10129,"Ġcolonies":10130,"Ġcho":10131,"ĠEND":10132,"Ġjudges":10133,"inople":10134,"----âĢĿ":10135,"Ġhealthy":10136,"Ġheap":10137,"Ġninet":10138,"really":10139,"rete":10140,"Ġsaints":10141,"ĠAA":10142,"asury":10143,"Ġsubl":10144,"Ġdaylight":10145,"Ġowners":10146,"Ġcombat":10147,"ĠAtlantic":10148,"Ġmerchants":10149,"conce":10150,"Ġexagger":10151,"Ġprophet":10152,"Ġmotives":10153,"Ġinduce":10154,"Ġadvoc":10155,"Ġtons":10156,"Ġbehav":10157,"Ġtranslated":10158,"sylvania":10159,"truth":10160,"ĠPoint":10161,"Ġrein":10162,"Project":10163,"AGGGC":10164,"Ġdischarge":10165,"Ġremedy":10166,"ongs":10167,"Ġdisappointed":10168,"fair":10169,"Ġengage":10170,"ĠCred":10171,"Cal":10172,"Ġillustrated":10173,"ĠXIV":10174,"Rep":10175,"fa":10176,"ĠNic":10177,"ĠBru":10178,"ATTGC":10179,"version":10180,"Ġlic":10181,"Ġenjoyment":10182,"Ġstem":10183,"ĠXI":10184,"ĠValley":10185,"neg":10186,"ĠĠĠĠĠĠĠĠĠĠĠĠĠĠĠĠĠĠĠĠĠĠĠĠĠĠĠĠĠĠĠĠĠĠĠĠĠĠ":10187,"ĠDi":10188,"Ġpromptly":10189,"Ġstores":10190,"ĠPublic":10191,"Ġillness":10192,"Ġhyp":10193,"aning":10194,"Ġtreacher":10195,"folk":10196,"Ġwagon":10197,"Ġmusk":10198,"Ġpassengers":10199,"ĠPut":10200,"service":10201,"Ġvital":10202,"Ġashes":10203,"enter":10204,"Indeed":10205,"usal":10206,"ĠNorman":10207,"Ġeducated":10208,"ani":10209,"Ġsentiments":10210,"Ġ71":10211,"Ġfinan":10212,"Ġ~":10213,"ĠHE":10214,"mediate":10215,"Ġprosec":10216,"Ġveil":10217,"uster":10218,"ayer":10219,"ĠAfrican":10220,"Ġfavorite":10221,"ĠÏĢ":10222,"amount":10223,"Ġsober":10224,"Ġdyn":10225,"apsed":10226,"Ġinvention":10227,"Mary":10228,"Ġunw":10229,"Ġpublication":10230,"Ġbund":10231,"Ġoffence":10232,"Ġdesirable":10233,"want":10234,"immediately":10235,"Ġcomrades":10236,"ĠNOT":10237,"cular":10238,"ĠLo":10239,"Ġquart":10240,"Ġyer":10241,"unic":10242,"Ġplacing":10243,"ĠBank":10244,"Ġtremendous":10245,"âķĲâķĲâķĲâķĲ":10246,"ĠLes":10247,"Ġsketch":10248,"phy":10249,"ciences":10250,"Ġpious":10251,"Ġcloak":10252,"Ġacknowledged":10253,"Ġvisits":10254,"\"_":10255,"Ġdivisions":10256,"Ġshrie":10257,"Ġ78":10258,"Ġappointment":10259,"Ġindignation":10260,"estine":10261,"Ġfab":10262,"Ġly":10263,"pool":10264,"Ġgown":10265,"Ġaltered":10266,"Ġliable":10267,"Ġvest":10268,"ĠLewis":10269,"Ġinvitation":10270,"zes":10271,"atoes":10272,"Ġattacks":10273,"Ġjournal":10274,"ctors":10275,"streng":10276,"IND":10277,"conduct":10278,"mur":10279,"cus":10280,"Ġchanging":10281,"Ġfairy":10282,"Ġlowest":10283,"Ġrestrict":10284,"Ġ74":10285,"Ġinflict":10286,"Ġsources":10287,"ĠGray":10288,"ithe":10289,"Ġample":10290,"river":10291,"entially":10292,"asso":10293,"conv":10294,"Ġsilly":10295,"ĠMAN":10296,"Ġengagement":10297,"Ġduck":10298,"ĠVenice":10299,"ĠPy":10300,"Ġinward":10301,"Ġinsects":10302,"company":10303,"Ġsilently":10304,"ĠShall":10305,"Ġseal":10306,"enery":10307,"GGCC":10308,"Ġdefin":10309,"Ġvault":10310,"Ġcock":10311,"Ġtraces":10312,"Ġsailors":10313,"Ġmuscles":10314,"rum":10315,"Ġsymptoms":10316,"Ġrenewed":10317,"Ġ77":10318,"Ġpurchased":10319,"mounted":10320,"Ġentertained":10321,"Ġdoorway":10322,"Ġinevitable":10323,"Ġ..":10324,"eches":10325,"ignor":10326,"Ġcounted":10327,"olent":10328,"Father":10329,"Ġrepent":10330,"Ġmachinery":10331,"Ġviii":10332,"Ġfain":10333,"Ġbewild":10334,"Ã»":10335,"clot":10336,"lain":10337,"Ġft":10338,"Ġsquad":10339,"ĠCHAR":10340,"Ġmainly":10341,"ira":10342,"Ġteachers":10343,"Ġadvised":10344,"chant":10345,"icking":10346,"Ġoppon":10347,"Ġxv":10348,"Ġpleasing":10349,"Ġprolong":10350,"iders":10351,"Ġartificial":10352,"joining":10353,"Ġprevailed":10354,"ighted":10355,"Ġpy":10356,"Ġ73":10357,"cied":10358,"hast":10359,"building":10360,"Ġpretend":10361,"Ġputs":10362,"Ġhint":10363,"smith":10364,"fr":10365,"PL":10366,"Ġroses":10367,"unct":10368,"Ġaccommod":10369,"party":10370,"ĠComp":10371,"Ġpositions":10372,"ĠDer":10373,"ensed":10374,"omon":10375,"Ġrepair":10376,"ieth":10377,"Ġpitch":10378,"tegr":10379,"ĠBatt":10380,"individual":10381,"Ġnurs":10382,"purpose":10383,"welt":10384,"Ġfarewell":10385,"ĠEdinburgh":10386,"athetic":10387,"advantage":10388,"strange":10389,"Ġlessons":10390,"Ġdipl":10391,"Ġextending":10392,"Ġsever":10393,"Â§":10394,"Ġtherein":10395,"Ġaccomplish":10396,"Ġdesigns":10397,"afterwards":10398,"Ġff":10399,"ĠSac":10400,"ĠBecause":10401,"Sm":10402,"Ġchildhood":10403,"Ġpeaceful":10404,"ĠEnglishman":10405,"Ġmaybe":10406,"Ġincap":10407,"Ġdamp":10408,"Ġsailor":10409,"Ġperiods":10410,"Ġreluct":10411,"Ġtragedy":10412,"ĠProtestant":10413,"Ġguilt":10414,"Ġhandkerchief":10415,"athemat":10416,"Ġclosing":10417,"Ġashore":10418,"ĠCarolina":10419,"ĠHung":10420,"bery":10421,"Ġflashed":10422,"Ġordin":10423,"Ġhunger":10424,".\"--_":10425,"Ġconquered":10426,"Ġlasted":10427,"need":10428,"later":10429,"Ġperple":10430,"Ġeasier":10431,"Ġwax":10432,"Ġcanal":10433,"bod":10434,"Ġdramatic":10435,"Ġtrump":10436,"ublished":10437,"Ġcrest":10438,"ficial":10439,"Ġabsorbed":10440,"Ġadds":10441,"Ġarguments":10442,"Ġedges":10443,"ĠGreg":10444,"ĠTurks":10445,"mid":10446,"bi":10447,"Ġbush":10448,"Ġconspicuous":10449,"ĠHa":10450,"ORE":10451,"isons":10452,"stances":10453,"ĠArm":10454,"ISS":10455,"Ġneut":10456,"Ġtemples":10457,"Ġstuck":10458,"Europe":10459,"cit":10460,"ĠMax":10461,"Ġbushes":10462,"Ġheavenly":10463,"attempt":10464,".|":10465,"Ġnewly":10466,"Ġloaded":10467,"Ġalle":10468,"Ġconfession":10469,"Ġrice":10470,"Ġheed":10471,"Ġchimney":10472,"ponse":10473,"sense":10474,"Ġresign":10475,"ĠDepartment":10476,"Ġcurse":10477,"Ġventured":10478,"Ġlinen":10479,"Ġwool":10480,"izz":10481,"kel":10482,"ĠCambridge":10483,"Ġholid":10484,"Ġinjured":10485,"cian":10486,"abited":10487,"Ġcorresponding":10488,"Ġwarned":10489,"dale":10490,"Ġfrontier":10491,"Ġpainter":10492,"ATCAC":10493,"Ġsprings":10494,"Ġfrost":10495,"Ġincons":10496,"ACH":10497,"Ġattractive":10498,"ĠGospel":10499,"Ġcommend":10500,"Ġmonument":10501,"Ġinquire":10502,"Em":10503,"Ġ79":10504,"ya":10505,"Ġmessenger":10506,"ieves":10507,"Ġbreathing":10508,"Poor":10509,"Ġinval":10510,"ĠBurg":10511,"Ġrecollect":10512,"iph":10513,"Ġfisher":10514,"Ġpreacher":10515,"brown":10516,"circumstances":10517,"alling":10518,"ĠXII":10519,"Ġbands":10520,"Ġsou":10521,"ĠFam":10522,"Ġdeemed":10523,"):":10524,"Ġvengeance":10525,"AAGCC":10526,"Ġkid":10527,"Any":10528,"history":10529,"ĠLam":10530,"comfortable":10531,"ĠRight":10532,"alty":10533,"Ġsuperst":10534,"venth":10535,"TO":10536,"minster":10537,"ĠImperial":10538,"castle":10539,"Was":10540,"Ġdifferences":10541,"Ġobtaining":10542,"Ġ140":10543,"Ġafore":10544,"Ġrepresentative":10545,"Ġcertainty":10546,"Ġclam":10547,"Ġadapted":10548,"Ġwitnesses":10549,"Ġ95":10550,"Ġbells":10551,"Ġartistic":10552,"Ġcolonel":10553,"Ġsink":10554,"anton":10555,"Ġunl":10556,"husband":10557,"ulsion":10558,"Ġka":10559,"ultural":10560,"âĢľ_":10561,"Ġnewspapers":10562,"Ġupwards":10563,"Ġconceive":10564,"Ġboast":10565,"generally":10566,"Ġ115":10567,"Ġacute":10568,"Ġfib":10569,"separ":10570,"leans":10571,"Ġamused":10572,"Ġrings":10573,"ĠBarn":10574,"ACCAC":10575,"Ġsunset":10576,"Ġveins":10577,"Ġinterpre":10578,"actions":10579,"Ġcalmly":10580,"AGATG":10581,"Ġarist":10582,"chers":10583,"TTCCC":10584,"Ġofficials":10585,"Ġcommanding":10586,"Ġconfessed":10587,"Ġpattern":10588,"TTTAG":10589,"Ġheels":10590,"PT":10591,"Ġnob":10592,"West":10593,"ĠLuther":10594,"hal":10595,"phys":10596,"itia":10597,"orum":10598,"ĠBall":10599,"Ġ81":10600,"ICAL":10601,"Ġcorrespondence":10602,"Ġdealing":10603,"evening":10604,"Ġsphere":10605,"Ġmeantime":10606,"Î³":10607,"umbling":10608,"ĠBoard":10609,"Har":10610,"danger":10611,"ATAAAA":10612,"ĠRail":10613,"Ye":10614,"Ġclimb":10615,"Ġskull":10616,"educ":10617,"ĠWild":10618,"Ġmines":10619,"Ġrows":10620,"Ġton":10621,"distance":10622,"Ġresent":10623,"Ġtoil":10624,"States":10625,"story":10626,"versed":10627,"Ġalarmed":10628,"Ġreminded":10629,"Des":10630,"Ġnobles":10631,"ĠService":10632,"Ġstolen":10633,"Ġjoke":10634,"Ġmisfortune":10635,"á½·":10636,"ni":10637,"ĠArchive":10638,"Ġxxx":10639,">.</":10640,"ivering":10641,"Ġproposition":10642,"Ġdisappointment":10643,"ĠCommon":10644,"Ġvols":10645,"ĠRoy":10646,"Ġ83":10647,"Ġunjust":10648,"Ġnephew":10649,"Ġirres":10650,"camp":10651,"impse":10652,"shot":10653,"Ġaccordance":10654,"~,":10655,"Ġheir":10656,"GGGC":10657,"Ġgenus":10658,"Ġ84":10659,"stream":10660,"Ġresemblance":10661,"concl":10662,"Ġscreen":10663,"ĠClare":10664,"ĠBetty":10665,"Ġpressing":10666,"Ġdisgust":10667,"Ġowned":10668,"Ġvicinity":10669,"Ġinvestigation":10670,"empl":10671,"blue":10672,"Ġrecognition":10673,"Ġ112":10674,"Ġtid":10675,"Ġspecially":10676,"oubled":10677,"icture":10678,"seem":10679,"Ġdated":10680,"Ġhiding":10681,"Ġprofessor":10682,"secret":10683,"uzz":10684,"British":10685,"olated":10686,"Ġprincip":10687,"ĠChapter":10688,"Ġram":10689,"Ġreceipt":10690,"gall":10691,"ĠNext":10692,"itus":10693,"ĠProdu":10694,"Ġdrama":10695,"ĠWilliams":10696,"ĠUp":10697,"Ġstable":10698,"Ġmurdered":10699,"utor":10700,"anty":10701,"Ġwhirl":10702,"azing":10703,"mic":10704,"Ġillustration":10705,"Ġabruptly":10706,"pherd":10707,"Ġwalks":10708,"Those":10709,"Ġna":10710,"Ġfloating":10711,"ees":10712,"ĠCÃ¦sar":10713,"Ġfox":10714,"Ġabundance":10715,"Ġcircular":10716,"iastic":10717,"Ġancestors":10718,"Ġoft":10719,"Ġdispute":10720,"ĠGRE":10721,"adj":10722,"Ġchronic":10723,"Ġ82":10724,"AAGGC":10725,"Ġassociation":10726,"riday":10727,"Ġwilderness":10728,"Ġsurprising":10729,"Ġobscure":10730,"Ġreproach":10731,"opport":10732,"GTC":10733,"boys":10734,"returned":10735,"Ġdescribes":10736,"ennes":10737,"Ġmans":10738,"Ġadvancing":10739,"Ġbust":10740,"Ġincome":10741,"ĠCra":10742,"Ġnom":10743,"Ġquantities":10744,"Ġbarn":10745,"Ġ88":10746,"Ġknights":10747,"considerable":10748,"Ġsque":10749,"odge":10750,"ela":10751,"late":10752,"Ġtenderness":10753,"onet":10754,"Ġlords":10755,"Ġamusing":10756,"Ġtraveller":10757,"glas":10758,"ĠCapt":10759,"Ġeminent":10760,"soul":10761,"Ġstole":10762,"Ġrestore":10763,"ĠHand":10764,"ĠPictures":10765,"ĠHas":10766,"awk":10767,"amph":10768,"ĠFlor":10769,"further":10770,"Ġrecalled":10771,"IAL":10772,"Ġwrapped":10773,"inkled":10774,"ĠCf":10775,"Ġobeyed":10776,"ĠLawrence":10777,"Ġvanity":10778,"Ġlieutenant":10779,"Ġmargin":10780,"ĠScotch":10781,"ggy":10782,"irg":10783,"Ġproducing":10784,"ĠRow":10785,"Ġblew":10786,"ĠWhether":10787,"arks":10788,"ulent":10789,"Though":10790,"gence":10791,"Ġarrow":10792,"Ġreserved":10793,"Colonel":10794,"Ġlanguages":10795,"Ġsuspended":10796,"Î¿Î½":10797,"ospital":10798,"Ġcoloured":10799,"BY":10800,"uddy":10801,"Ġsignificance":10802,"laid":10803,"spo":10804,"ĠGran":10805,"Ġsmoking":10806,"ĠVar":10807,"Ġcf":10808,"Ġemotions":10809,"ENN":10810,"Ġfence":10811,"Ġorange":10812,"ceptible":10813,"illings":10814,"Ġpretended":10815,"Ġsadly":10816,"Ġexercised":10817,"uen":10818,"ceptions":10819,"ĠJustice":10820,"Ġproblems":10821,"Ġconverted":10822,"ĠSi":10823,"Ġtap":10824,"ĠME":10825,"leave":10826,"Ġindisp":10827,"else":10828,"Ġchairs":10829,"Ġgig":10830,"ĠPop":10831,"Ġwandered":10832,"coh":10833,"[_":10834,"Ġmanagement":10835,"Ġconsec":10836,"Ġtact":10837,"appre":10838,"Ġseconds":10839,"ĠAnton":10840,"ĠSn":10841,"Ġprofessional":10842,"TGGAG":10843,"History":10844,"Ġstatements":10845,"Ġcoin":10846,"Ġanswers":10847,"Ġpropose":10848,"ĠDaniel":10849,"Ġyielded":10850,"Ġpunish":10851,"Ġcolle":10852,"ĠTaylor":10853,"Ġextravag":10854,"Ġcongreg":10855,"Ġrod":10856,"Ġshared":10857,"ipper":10858,"orr":10859,"ĠLibrary":10860,"erted":10861,"ĠConn":10862,"Ġmissing":10863,"ĠTR":10864,"Ġpuzzled":10865,"Ġpupils":10866,"Ġflies":10867,"Ġmirror":10868,"Ġsaving":10869,"Ġawkward":10870,"untary":10871,"However":10872,"kee":10873,"Ġshirt":10874,"Ġ96":10875,"Ġpleasures":10876,"craft":10877,"ĠMars":10878,"cas":10879,"ware":10880,"France":10881,"Ġshy":10882,"Ġguards":10883,"Ġmourn":10884,"Fran":10885,"Ġversion":10886,"Ġdiffer":10887,"ĠHan":10888,"liter":10889,"Ġincor":10890,"ĠMississippi":10891,"ĠFif":10892,"dish":10893,"compar":10894,"Ġgames":10895,"Ġtiss":10896,"Ġjustified":10897,"ĠPeace":10898,"ĠMonday":10899,"Ġeldest":10900,"unken":10901,"Ġtie":10902,"Ġaug":10903,"inning":10904,"ĠVill":10905,"Ġquit":10906,"itively":10907,"ĠTheod":10908,"ĠSpring":10909,"ĠWILLIAM":10910,"Ġtrop":10911,"retion":10912,"llor":10913,"inners":10914,"Ġcontinent":10915,"Ġconveyed":10916,"Ġboxes":10917,"ĠWAR":10918,"ito":10919,"idly":10920,"Ġpole":10921,"Ġtraced":10922,"sn":10923,"Ġdug":10924,"Ġaroused":10925,"Ġleaped":10926,"stat":10927,"adian":10928,"Ã©t":10929,"ĠArn":10930,"ĠHot":10931,"Ġcarved":10932,"Ġ113":10933,"Ġhay":10934,"ĠWere":10935,"vellous":10936,"Ġoffers":10937,"Ġwhit":10938,"Ġexplos":10939,"Ġgorge":10940,"Ġomn":10941,"................":10942,"minist":10943,"Ġfavourable":10944,"Å«":10945,"ĠGE":10946,"Ġscrew":10947,"hent":10948,"Ġagents":10949,"Ġidol":10950,"German":10951,"married":10952,"Ġgarments":10953,"Ġfog":10954,"Ġbee":10955,"aton":10956,"prove":10957,"Ġcrimson":10958,"ouri":10959,"path":10960,"Ġbitterly":10961,"nearly":10962,"grown":10963,"ĠAlexand":10964,"ĠSoon":10965,"Ġinterval":10966,"ĠOrder":10967,"Ġprior":10968,"Ġmechanical":10969,"Ġdashed":10970,"Ġcarbon":10971,"Ġmonaster":10972,"ĠCas":10973,"Ġtrusted":10974,"Ġchase":10975,"Ġpapa":10976,"gic":10977,"ĠAlb":10978,"abbath":10979,"across":10980,"ĠVic":10981,"Ġkilling":10982,"ĠFel":10983,"acted":10984,"Ġknock":10985,"Ġeconomic":10986,"Ġseverely":10987,"Ġeth":10988,"ĠGordon":10989,"di":10990,"ĠEnd":10991,"SC":10992,"Que":10993,"Ġlip":10994,"ĠJournal":10995,"Ġjealousy":10996,"ialect":10997,"Ġtravelled":10998,"ĠHomer":10999,"TTGGC":11000,"Ġrocky":11001,"Ġ117":11002,"Ġstrangely":11003,"Ġsomeone":11004,"Ġrepose":11005,"Ġimperial":11006,"distingu":11007,"ĠSid":11008,"Ro":11009,"renches":11010,"Henry":11011,"aneously":11012,"Rich":11013,"asily":11014,"certainly":11015,"Ġ116":11016,"bran":11017,"Ġlovers":11018,"Ġgravely":11019,"Ġbreadth":11020,"reve":11021,"Ġinclude":11022,"Ġelegant":11023,"Ġunpleasant":11024,"ĠBrad":11025,"Ġdre":11026,"Ġseize":11027,"brance":11028,">.]</":11029,"Ġneighbours":11030,"Ġreverence":11031,"otism":11032,"Ġensu":11033,"lls":11034,"Ġyonder":11035,"Ġfoul":11036,"paper":11037,"ĠSic":11038,"Ġprayed":11039,"Ġcub":11040,"thony":11041,"Ġsoci":11042,"Ġrelating":11043,"TTTGC":11044,"Ġtranqu":11045,"TS":11046,"Ġwarn":11047,"Ġsom":11048,"igration":11049,"Ġdivide":11050,"Ġadmired":11051,"Ġadventures":11052,"Ġ86":11053,"duc":11054,"ĠYOU":11055,"umerable":11056,"Ġmurde":11057,"ANN":11058,"Ġbrut":11059,"Ġdwelt":11060,"countered":11061,"Ġassert":11062,"Ġinfect":11063,"ilight":11064,"Ġ114":11065,"Ġanalog":11066,"Ġconspir":11067,"Ġpromises":11068,"ĠPalace":11069,"otal":11070,"Ġvap":11071,"ĠApost":11072,"aware":11073,"Ġsubsequently":11074,"Ġsubtle":11075,"Ġcontinuous":11076,"urable":11077,"Ġannounce":11078,"icates":11079,"Ġtalent":11080,"Ġroused":11081,"Ġbullet":11082,"Ġfolded":11083,"ĠAD":11084,"ĠĠĠĠĠĠĠĠĠĠĠĠĠĠĠĠĠĠĠĠĠĠĠĠĠĠĠĠĠĠĠĠĠĠĠĠĠĠĠĠĠ":11085,"gutenberg":11086,"Ġestimate":11087,"ĠProvidence":11088,"Charles":11089,"Ġtoday":11090,"Ġdangers":11091,"ĠPortuguese":11092,"ota":11093,"ĠTro":11094,"Ġraw":11095,"Ġrecommended":11096,"Ġwithdraw":11097,"Ġbars":11098,"Ġworkers":11099,"mad":11100,"aunt":11101,"Ġflav":11102,"ĠMassachusetts":11103,"lost":11104,"Ġthirteen":11105,"oys":11106,"ĠBR":11107,"ĠShould":11108,"Ġimages":11109,"Ġsubmitted":11110,"Ġdeprived":11111,"AAAGC":11112,"Ġindifference":11113,"Ġsucc":11114,"reign":11115,"Ġ92":11116,"Ġfaced":11117,"Ġpractised":11118,"orting":11119,"coloured":11120,"aughty":11121,"Ġridiculous":11122,"Ġlaz":11123,"Ġheartily":11124,"Ġexperiences":11125,"Ġworry":11126,"Ġsympath":11127,"Ġcontented":11128,"Ġix":11129,"Ġwarmth":11130,"Ġquestioned":11131,"Although":11132,"Ġcrimes":11133,"Ġaboard":11134,"Ġnit":11135,"ĠStone":11136,"Ġexhaust":11137,"inton":11138,"Med":11139,"lab":11140,"rained":11141,"Ġbend":11142,"ĠTill":11143,"poration":11144,"ĠBour":11145,"Ġmast":11146,"Ġlunch":11147,"Ġsolic":11148,"Ġverd":11149,"ĠBlue":11150,"ĠFaith":11151,"Ġapparatus":11152,"Ġluxury":11153,"Ġmarvel":11154,"ĠConfeder":11155,"ungs":11156,"Still":11157,"Ġ87":11158,"Ġflowing":11159,"ATCCC":11160,"Ġleisure":11161,"Vol":11162,"Ġavoided":11163,"Î´":11164,"Ġabode":11165,"ĠMaur":11166,"Ġmeetings":11167,"Ġsailing":11168,"Ġheroic":11169,"Ġacknowledge":11170,"ij":11171,"Ġworsh":11172,"erer":11173,"TTGCC":11174,"Ġjustly":11175,"Ġliquor":11176,"Ġesteem":11177,"Greek":11178,"faces":11179,"ĠMarquis":11180,";[":11181,"Ġdrag":11182,"experience":11183,"ĠHope":11184,"Page":11185,"Dear":11186,"Ġattributed":11187,"suddenly":11188,"Ġbeer":11189,"ĠCOL":11190,"uced":11191,"âĢĲâĢĲ":11192,"Ġbloody":11193,"appears":11194,"Ġpistol":11195,"Ġlantern":11196,"Ġfancied":11197,"ĠPom":11198,"Ġstretch":11199,"________":11200,"Ġpush":11201,"ĠXIII":11202,"length":11203,"rah":11204,"ATAAC":11205,"civil":11206,"Ġ89":11207,"eled":11208,"_.âĢĿ":11209,"Ġimposed":11210,"cover":11211,"ollo":11212,"Ġjury":11213,"Ġchuck":11214,"Life":11215,"ti":11216,"Ġgam":11217,"Ġinvariably":11218,"ĠLang":11219,"system":11220,"Ġproducts":11221,"Ġweeping":11222,"Ġcorners":11223,"Ġformidable":11224,"interesting":11225,"Ġgravity":11226,">.":11227,"ĠNevertheless":11228,"Ġfaire":11229,"Ġsickness":11230,"Ġfunctions":11231,"Ġboiled":11232,"Ġwreck":11233,"Ġtyran":11234,"Ġdealt":11235,"arently":11236,"Ġchances":11237,"Ġbelt":11238,"Ġearthly":11239,"Ġwont":11240,"âĶĢâĶĢâĶĢâĶĢâĶĢâĶĢ":11241,"YS":11242,"remember":11243,"Ġhes":11244,"Ġneedle":11245,"Ġbestowed":11246,"Ġcareless":11247,"Ġcav":11248,"ĠRoss":11249,"Ġoutline":11250,"Ġdru":11251,"magn":11252,"Whe":11253,"Ġelaborate":11254,"ĠTestament":11255,"Ġbuck":11256,"Ġfunny":11257,"Ġendless":11258,"olence":11259,"Ġencouraged":11260,"thel":11261,"Ã°":11262,"ĠTower":11263,"mund":11264,"upreme":11265,"Ġassurance":11266,"ĠKate":11267,"uits":11268,"pa":11269,"AAATC":11270,"Ġpupil":11271,"Ġpursue":11272,"Ġpetition":11273,"ĠSimon":11274,"Ġmater":11275,"Ġthrong":11276,"abri":11277,"ĠSP":11278,"ĠNeither":11279,"Ġlatest":11280,"Ġpeoples":11281,"Ġinvisible":11282,"Ġchannel":11283,"ĠTen":11284,"ĠAnna":11285,"Ġwitnessed":11286,"inety":11287,"Ġparliament":11288,"Ġfurious":11289,"ilful":11290,"Ġsimpl":11291,"fine":11292,"Ġ97":11293,"ACTCC":11294,"anx":11295,"Ġfile":11296,"diction":11297,"Ġassisted":11298,"Ġdiseases":11299,"Ġrescue":11300,"itations":11301,"Ġpall":11302,"dress":11303,"ĠCredits":11304,"Ġ99":11305,"ATIONS":11306,"ĠAssembly":11307,"ĠBL":11308,"Ġresponded":11309,"Ġselection":11310,"reached":11311,"AGAAC":11312,"Ġimpart":11313,"Three":11314,"Ġperpetual":11315,"idences":11316,"keys":11317,"Ġdeceived":11318,"ĠTar":11319,"shad":11320,"furn":11321,"Ġheroes":11322,"Ġvictims":11323,"Ġmeasured":11324,"Ġplunged":11325,"living":11326,"Ġdearest":11327,"Ġapple":11328,"cry":11329,"Ġcarries":11330,"\";":11331,"itimate":11332,"Ġ119":11333,"ques":11334,"Ġlonging":11335,"Ġcommands":11336,"ĠHug":11337,"Î¸":11338,"Ġdriver":11339,"Once":11340,"Ġ93":11341,"Ġcurtain":11342,"excl":11343,"Ġserving":11344,"Ġ118":11345,"Ġdeserve":11346,"ĠDur":11347,"Ġcruelty":11348,"Church":11349,"ĠAlfred":11350,"ĠInn":11351,"OOT":11352,"ĠBabylon":11353,"Ġdat":11354,"fly":11355,"Ġ105":11356,"Ġconject":11357,"fts":11358,"Ġwept":11359,"matic":11360,"ĠRelig":11361,"ĠCond":11362,"introdu":11363,"ĠAdams":11364,"cow":11365,"osophy":11366,"ĠAch":11367,"Ġfug":11368,"Ġopenly":11369,"Ġvarieties":11370,"Ġbattery":11371,"ĠRoad":11372,"ĠBridge":11373,"Ġtrembled":11374,"Ġwoe":11375,"cloth":11376,"eties":11377,"Ġdocuments":11378,"ench":11379,"Ġ94":11380,"ĠSay":11381,"inine":11382,"entered":11383,"ERN":11384,"Ġbutt":11385,"?_":11386,"ĠBird":11387,"hetic":11388,"Ġprices":11389,"âĢĿ--":11390,"cker":11391,"Out":11392,"Ġcongrat":11393,"Ġ91":11394,"AATTC":11395,"ĠSeveral":11396,"Ġmonks":11397,"Ġlink":11398,"Ġposts":11399,"histor":11400,"Ġprecaut":11401,"added":11402,"Ġspeedily":11403,"ĠStand":11404,"Ġresponse":11405,"Ġdreamed":11406,"ĠBarbar":11407,"olutely":11408,"DR":11409,"ĠCould":11410,"Ġ98":11411,"Ġvigor":11412,"Ġtrap":11413,"Ġhalted":11414,"ĠWhit":11415,"Ġshouldn":11416,"miles":11417,"ĠĠĠĠĠĠĠĠĠĠĠĠĠĠĠĠĠĠĠĠĠĠĠĠĠĠĠĠĠĠĠĠĠĠĠĠĠĠĠĠ":11418,"accept":11419,"considered":11420,"Ġprobability":11421,"Ġje":11422,"hair":11423,"Ġgoin":11424,"Ġintent":11425,"understood":11426,"Ġwander":11427,"nine":11428,"Ġalleg":11429,"Ġspear":11430,"unks":11431,"Would":11432,"ĠAbraham":11433,"Ġscarlet":11434,"mits":11435,"Ġpear":11436,"beginning":11437,"_{":11438,"lier":11439,"convers":11440,"Ġdamage":11441,"ivalent":11442,"elled":11443,"Ġfortunes":11444,"unted":11445,"ĠTreat":11446,"acent":11447,"Ġbench":11448,"latter":11449,"ĠBig":11450,"una":11451,"possession":11452,"Ġimmortal":11453,"Ġequipment":11454,"ourney":11455,"Ġwag":11456,"ĠMas":11457,"OME":11458,"Ġconclude":11459,"Ġdoctrines":11460,"filled":11461,"Ġnay":11462,"ĠWork":11463,"TATTG":11464,"itious":11465,"Ġevolution":11466,"ĠLast":11467,"Ġfetch":11468,"Ġmorn":11469,"Ġjewels":11470,"Ġpiano":11471,"Ġpolic":11472,"ĠHist":11473,"Ġdiscern":11474,"Ġadvers":11475,"Ġrepresenting":11476,"ĠFinally":11477,"Ġasserted":11478,"Ġspared":11479,"ACTGC":11480,"ĠNicholas":11481,"Ġvow":11482,"ĠTexas":11483,"Ġchallen":11484,"expected":11485,"kept":11486,"seeing":11487,"inently":11488,"itating":11489,"acht":11490,"ĠPlato":11491,"ĠPennsylvania":11492,"unless":11493,"cold":11494,"Ġetern":11495,"Ġhopeless":11496,"Ġflee":11497,"ansas":11498,"Ġbetrayed":11499,"Ġcris":11500,"ĠGrey":11501,"fear":11502,"Ġcompare":11503,"âĢĿâĢĶ":11504,"Ġsoot":11505,"Ġmock":11506,"ĠPa":11507,"Ġappropriate":11508,"tro":11509,"Ġgoddess":11510,"Ġenlight":11511,"gra":11512,"Ġprocure":11513,"ĠElect":11514,"Since":11515,"Ġmamma":11516,"Ġglimpse":11517,"ĠWard":11518,"Ġlandscape":11519,"Ġapproved":11520,"impossible":11521,"Ġwhist":11522,"Ġdisorder":11523,"Ġflushed":11524,"bright":11525,"Ġweep":11526,"Ġrushing":11527,"ĠSocial":11528,"Ġsho":11529,"Ġphilosopher":11530,"Ġpassionate":11531,"Ġrect":11532,"Ġstopping":11533,"Lie":11534,"ĠSel":11535,"Ġinvented":11536,"ĠRet":11537,"plan":11538,"etry":11539,"ĠAy":11540,"Ġprime":11541,"Ġrequis":11542,"ONG":11543,"Ġpartial":11544,"AAAGG":11545,"ĠConstantinople":11546,"Ġscandal":11547,"ĠFederal":11548,"influence":11549,"Ġil":11550,"hig":11551,"Ġwholes":11552,"Ġbattles":11553,"Ġsteal":11554,"lasting":11555,"cord":11556,"uate":11557,"Ġuns":11558,"ĠStar":11559,"nel":11560,"inkle":11561,"fashioned":11562,"ĠPE":11563,"Thom":11564,"Ġgospel":11565,"Ġparticulars":11566,"Ġmoonlight":11567,"ĠOffic":11568,"Ġwealthy":11569,"ĠVis":11570,"RED":11571,"Ġdeclined":11572,"content":11573,"Ġseparation":11574,"TGAGG":11575,"Ġrepresentation":11576,"Ġenlar":11577,"ĠFre":11578,"Ġrejected":11579,"Ġcares":11580,"Ġcrushed":11581,"health":11582,"ribution":11583,"sor":11584,"Ġlearnt":11585,"Ġprocesses":11586,"ĠĠĠĠĠĠĠĠĠĠĠĠĠĠĠĠĠĠĠĠĠĠĠĠĠĠĠĠĠĠĠĠĠĠĠĠĠĠĠĠĠĠ":11587,"ĠFrancisco":11588,"udson":11589,"ĠPitt":11590,"Ġdun":11591,"Ġartists":11592,"Ġprose":11593,"Ġfaded":11594,"!âĢĶ":11595,"ayne":11596,"peace":11597,"Ġstages":11598,"Ġsi":11599,"Ġfilling":11600,"Ġwitch":11601,"acre":11602,"lev":11603,"seud":11604,"North":11605,"ppers":11606,"Ġjudged":11607,"verb":11608,"Rem":11609,"oma":11610,"Ġtowers":11611,"Ġsung":11612,"immer":11613,"ocity":11614,"Bel":11615,"Ġexpend":11616,"ATATC":11617,"ĠLane":11618,"ĠSanta":11619,"olds":11620,"Ġsauce":11621,"opl":11622,"ĠBol":11623,"ĠTal":11624,"stones":11625,"Ġhappily":11626,"itic":11627,"Sch":11628,"ĠLind":11629,"Ġdespite":11630,"Ġpulp":11631,"je":11632,"Ġfacing":11633,"Ġeh":11634,"Ġamidst":11635,"Under":11636,"imer":11637,"Ġalas":11638,"ĠHerbert":11639,"Ġhaue":11640,"onym":11641,"Ġcash":11642,"Ġinherit":11643,"Ġheights":11644,"angel":11645,"Ġteam":11646,"Ġmaxim":11647,"seems":11648,"beyond":11649,"ĠLat":11650,"Ġchemical":11651,"stock":11652,"ĠSem":11653,"ĠGive":11654,"Ġ×":11655,"gentleman":11656,"Ġsixth":11657,"Ġhumor":11658,"Ġoldest":11659,"Ġrelax":11660,"Ġsections":11661,"esar":11662,"Ġinspiration":11663,"oni":11664,"Ġwaved":11665,"Ġglobe":11666,"Ġshrew":11667,"Ġrestless":11668,"Ġbeef":11669,"Ġdishon":11670,"Ġappearing":11671,"Ġglasses":11672,"Ġaccurate":11673,"Ġgallery":11674,"show":11675,"Ġadopt":11676,"Ġwilt":11677,"August":11678,"Ġbackward":11679,"Ġpluck":11680,"Ġwoo":11681,"Ġsuited":11682,"help":11683,"Ġpunished":11684,"Ġshallow":11685,"Ġguarded":11686,"Ġunnecessary":11687,"Certainly":11688,"anna":11689,"Ġvalleys":11690,"period":11691,"AMES":11692,"Ġforbidden":11693,"Mer":11694,"Ġinterfere":11695,"Ġtom":11696,"iped":11697,"Ġaffections":11698,"ilda":11699,"ugs":11700,"Ġprivileges":11701,"Ġbriefly":11702,"Ġstruggling":11703,"hole":11704,"Ġproduces":11705,"occupied":11706,"âĢķâĢķâĢķâĢķ":11707,"Ġlecture":11708,"Ġinvasion":11709,"imo":11710,"direction":11711,"pun":11712,"ube":11713,"atum":11714,"Ġneighborhood":11715,"ĠFRAN":11716,"ACATT":11717,"Å¿":11718,"Ġcontinues":11719,"Ġplanet":11720,"Ġcollar":11721,"Ġallies":11722,"gam":11723,"Ġcum":11724,"neither":11725,"ATAAG":11726,"Ġpurity":11727,"rell":11728,"-------+":11729,"Ġantiquity":11730,"Ġwarrant":11731,"Ġink":11732,"Ġstamp":11733,"ĠCAR":11734,"oil":11735,"uds":11736,"BE":11737,"Lou":11738,"ecess":11739,"cre":11740,"Ġdumb":11741,"mot":11742,"Ġawakened":11743,"oria":11744,"Ġbind":11745,"ĠJerry":11746,"ĠFire":11747,"Ġwret":11748,"popular":11749,"lam":11750,"icro":11751,"Ġaffirm":11752,"Ġjuice":11753,"Ġfortress":11754,"expression":11755,"Ġfant":11756,"ctic":11757,"Ġflock":11758,"Ġboldly":11759,"ENS":11760,"psy":11761,"thew":11762,"ags":11763,"ĠOliver":11764,"Ġdies":11765,"MENT":11766,"Ġtorment":11767,"Ġprodig":11768,"Ġembrace":11769,"thirty":11770,"ĠCivil":11771,"anche":11772,"olves":11773,"ĠIng":11774,"eron":11775,"ooped":11776,"Ġbelieving":11777,"Ġeconomy":11778,"Ġfundamental":11779,"tingu":11780,"Ġperish":11781,"Ġplanned":11782,"hesis":11783,"Ġanxiously":11784,".=--":11785,"Ġscra":11786,"idelity":11787,"Ġcompliment":11788,"_âĢĶ":11789,"Ġlodge":11790,"sto":11791,"Ġ104":11792,"Ġfluid":11793,"concer":11794,"Ãī":11795,"zer":11796,"Ġcrowned":11797,"joined":11798,"nest":11799,"Ġtribute":11800,"Ġwolf":11801,"igent":11802,"Ġapolog":11803,"ocation":11804,"REE":11805,"Ġrounded":11806,"Ġparting":11807,"ROW":11808,"Ġpersonality":11809,"fat":11810,"Frank":11811,"Ġfinancial":11812,"Ġeveryone":11813,"ecil":11814,"Ph":11815,"inous":11816,"guish":11817,"Ġbees":11818,"Ġharbour":11819,"ĠCardinal":11820,"ĠLI":11821,"ĠBad":11822,"Ġmanager":11823,"ĠHER":11824,"ĠCountess":11825,"Ġsequ":11826,"opened":11827,"Ġcontrovers":11828,"agers":11829,"Ġwhip":11830,"ĠMatt":11831,"ĠInstead":11832,"Ġletting":11833,"Ġarrows":11834,"Ġrebellion":11835,"Ġ125":11836,"Ġregularly":11837,"Ġtransferred":11838,"Ġwi":11839,"Ġcert":11840,"Like":11841,"Ġimpatient":11842,"north":11843,"bank":11844,"cases":11845,"hear":11846,"Ġrib":11847,"ĠJuan":11848,"Ġgladly":11849,"Ġalliance":11850,"Ġdoubts":11851,"Ġposted":11852,"ĠNE":11853,"Ġtore":11854,"Ġpuff":11855,"Ġjuris":11856,"rÃ©":11857,"Paris":11858,"bec":11859,"Ġnost":11860,"ĠCommons":11861,"plend":11862,"dream":11863,"AGAGC":11864,"Ġeman":11865,"aum":11866,"concern":11867,"ĠBow":11868,"Ġcars":11869,"sleep":11870,"Che":11871,"Ġrequirements":11872,"ictory":11873,"dued":11874,"Ġawoke":11875,"Ġembark":11876,"ĠLar":11877,"ĠZe":11878,"Ġhesitation":11879,"ĠPress":11880,"Ġspeaker":11881,"Ġsufferings":11882,"Ġcuriously":11883,"Ġbills":11884,"ublin":11885,"established":11886,"material":11887,"á¹":11888,"Ġtermed":11889,"Ġoccurrence":11890,"Ġwelf":11891,"TTT":11892,"oirs":11893,"successful":11894,"ĠLanc":11895,"Ġbulk":11896,"Ġther":11897,"original":11898,"âĢĶâĢĶâĢĿ":11899,"Ġvisiting":11900,"ĠLab":11901,"Ġuncommon":11902,"Ġtravellers":11903,"Ġresembling":11904,"Ġvolcan":11905,"Ġ101":11906,"ĠOrleans":11907,"Ġwelfare":11908,"Ġdiscourse":11909,"TTGGG":11910,"Ġmol":11911,"Ġanyway":11912,"Ġinscription":11913,"utt":11914,"Ġfountain":11915,"ĠPH":11916,"liest":11917,"Ġsearching":11918,"ĠRad":11919,"Ġexpressions":11920,"Ġwithdrew":11921,"Ġsmallest":11922,"Ġfiery":11923,"Ber":11924,"Ġelevation":11925,"Ġcanvas":11926,"slight":11927,"Ġjar":11928,"awl":11929,"sweet":11930,"Little":11931,"Ġasks":11932,"Ġhol":11933,"ĠCrom":11934,"ATGGG":11935,"Hel":11936,"die":11937,"lived":11938,"ĠSoc":11939,"Ġhoping":11940,"Ġmoss":11941,"ĠNay":11942,"Ġdrowned":11943,"Ġproperties":11944,"rock":11945,"ĠGR":11946,"TCG":11947,"ARK":11948,"Ġlucky":11949,"Ġgoss":11950,"ĠJos":11951,"TCTCC":11952,"mag":11953,"ĠLicense":11954,"bread":11955,"Ġbackground":11956,"Ġshops":11957,"Ġswords":11958,"Ġreleased":11959,"Ġprocured":11960,"Ġharvest":11961,"isle":11962,"=.":11963,"Ġdates":11964,"Ġmothers":11965,"Ġdelicious":11966,"Ġintroduce":11967,"TTTAC":11968,"ĠSing":11969,"arers":11970,"ollen":11971,"Ġmerits":11972,"ĠĠĠĠĠĠĠĠĠĠĠĠĠĠĠĠĠĠĠĠĠĠĠĠĠĠĠĠĠĠĠĠĠĠĠĠĠĠĠĠĠĠĠĠ":11973,"Ġyouthful":11974,"Ġtelegraph":11975,"ĠDuchess":11976,"Ġvn":11977,"Ġtotally":11978,"ĠScottish":11979,"Ġdew":11980,"Ġsails":11981,"Ġcharacteristics":11982,"Ġarchitecture":11983,"weet":11984,"Ġ102":11985,"greater":11986,"umberland":11987,"Ġsexual":11988,"Ġaccus":11989,"ureau":11990,"ĠEli":11991,"uminous":11992,"ĠBrah":11993,"try":11994,"Ġcharms":11995,"Ġrevelation":11996,"Ġrespective":11997,"Ġglowing":11998,"Ġfragr":11999,"Ġfaculty":12000,"mach":12001,"Ġdeclaration":12002,"Zo":12003,"fling":12004,"Ġenclosed":12005,"ĠBrother":12006,"Ġcler":12007,"Ġ103":12008,"ĠWat":12009,"_.\"":12010,"isten":12011,"Ġadequ":12012,"udding":12013,"Ġhaul":12014,"Ġsustained":12015,".(":12016,"elia":12017,"thou":12018,"Ġnonsense":12019,"Ġvag":12020,"Ġsuccessfully":12021,"Ġsinking":12022,"Ġendeavour":12023,"Ġneighbouring":12024,"mort":12025,"Ġawe":12026,"Ġparticip":12027,"existence":12028,"ĠColumbia":12029,"James":12030,"Ġinfluences":12031,"ĠTimes":12032,"Ġdraught":12033,"Ġtroop":12034,"Ġ500":12035,"Ġquaint":12036,"slow":12037,"Ġpockets":12038,"Ġstirring":12039,"arched":12040,"ĠPil":12041,"aka":12042,"Ġhypot":12043,"#,":12044,"Ġbreathed":12045,"Ġsculpt":12046,"Ġcreate":12047,"Ġlikes":12048,"ĠAssociation":12049,"ĠScience":12050,"Meanwhile":12051,"ĠPeters":12052,"answer":12053,"Ġtraffic":12054,"Ġballs":12055,"Ġarray":12056,"ettle":12057,"mine":12058,"ĠCorps":12059,"Ġmemories":12060,"ali":12061,"Ġpartner":12062,"inian":12063,"stein":12064,"Ġdependent":12065,"idea":12066,"Ġarbit":12067,"Ġopera":12068,"Ġbronze":12069,"Ġblown":12070,"Ġturb":12071,"bunal":12072,"eye":12073,"Ġecclesiastical":12074,"Ġpossesses":12075,"cup":12076,"Ġsunlight":12077,"Ġserpent":12078,"Ġrequested":12079,"Ġappoint":12080,"Ġacquire":12081,"Ġappetite":12082,"Ġhorns":12083,"longer":12084,"Ġtrifle":12085,"Ġremoval":12086,"Ġfel":12087,"sky":12088,"Ġpersonally":12089,"Ġmorality":12090,"Ġcathedral":12091,"parts":12092,"Ġreplace":12093,"Ġenters":12094,"Ġhereafter":12095,"Ġreaction":12096,"Ġabstract":12097,"Ġcrisis":12098,"AGGGG":12099,"ĠCall":12100,".:":12101,"Ġimpressions":12102,"clear":12103,"ĠCook":12104,"Ġlent":12105,"Ġinex":12106,"Ġgreatness":12107,"Ġproceeds":12108,"Ġtorture":12109,"Ġherd":12110,"Ġessentially":12111,"Ġmarsh":12112,"ĠMcC":12113,"ĠKn":12114,"Ġassass":12115,"Ġupstairs":12116,"ONE":12117,"skin":12118,"Ġinspect":12119,"Ġhydro":12120,"Ġdeaf":12121,"ripp":12122,"Ġsavages":12123,"Ġproposal":12124,"Ġtrim":12125,"Ġthief":12126,"AGAAAA":12127,"ĠCare":12128,"Hist":12129,"\\'":12130,"essie":12131,"Ġtelephone":12132,"Peter":12133,"ĠWomen":12134,"Ġsubord":12135,"otle":12136,"ĠProp":12137,"Ġbedroom":12138,"Ġcarpet":12139,"venture":12140,"arming":12141,"osph":12142,"Ġwinding":12143,"Ġcheese":12144,"emoiselle":12145,"oric":12146,"Te":12147,"Ġtwisted":12148,"Span":12149,"Ġliterally":12150,"Ġreasoning":12151,"Ġ107":12152,"Mac":12153,"start":12154,"ĠFitz":12155,"Ġster":12156,"various":12157,"Ġsensitive":12158,"whatever":12159,"Most":12160,"OCK":12161,"Ġblowing":12162,"Ġjudic":12163,"Ġbomb":12164,"ĠIND":12165,"Ġagitation":12166,"Ġtaxes":12167,"Ġvegetable":12168,"mor":12169,"Ġobserving":12170,"oughs":12171,"ĠEss":12172,"mitting":12173,"Madame":12174,"passing":12175,"Ġfrancs":12176,"ĠMexican":12177,"isse":12178,"strength":12179,"ceiving":12180,"neath":12181,"Ġscenery":12182,".âĢĻâĢĿ":12183,"Ġfors":12184,"AGTAA":12185,"pieces":12186,"Fort":12187,"Ġending":12188,"150":12189,"Ġcircles":12190,"Ġopportunities":12191,"Ġanalysis":12192,"Ġentry":12193,"Ġwishing":12194,"Min":12195,"aten":12196,"ĠStud":12197,"Ġgreeted":12198,"Count":12199,"uart":12200,"umble":12201,"icket":12202,"Ġporch":12203,"Ġchecked":12204,"Ġsuccessive":12205,"Ġ108":12206,"keness":12207,"express":12208,"ĠPhys":12209,"ĠMA":12210,"Ġpurse":12211,"Ġundertake":12212,"Ġ250":12213,"INS":12214,"Ġmm":12215,"Ġviolently":12216,"Ġ106":12217,"Ġlowered":12218,"Ġbishops":12219,"vision":12220,"Ġdisciples":12221,"isen":12222,"Ġgasped":12223,"TCTTC":12224,"Ġencounter":12225,"Ġtheirs":12226,"ĠĠĠĠĠĠĠĠĠĠĠĠĠĠĠĠĠĠĠĠĠĠĠĠĠĠĠĠĠĠĠĠĠĠĠĠĠĠĠĠĠĠĠĠĠ":12227,"ITED":12228,"Sept":12229,"Ġstately":12230,"horses":12231,"establish":12232,"Ġinterpretation":12233,"emark":12234,"Ġrelatives":12235,"ĠDire":12236,"Ġmeanwhile":12237,"Ġchains":12238,"Ġlace":12239,"Ġjail":12240,"Ġsurgeon":12241,"Ġevils":12242,"Ġnavy":12243,"thinking":12244,"Ġfrown":12245,"igan":12246,"Ġveh":12247,"repe":12248,"heads":12249,"rusted":12250,"Ġmonot":12251,"Ġguessed":12252,"ĠChance":12253,"Which":12254,"Cont":12255,"passion":12256,"doing":12257,"Ġcontributed":12258,"reshold":12259,"Ġduly":12260,"Ġtreasures":12261,"ometer":12262,"lee":12263,"Ġratt":12264,"Ġtumult":12265,"Ġexpecting":12266,"Ġincapable":12267,"Ġprimary":12268,"uties":12269,"Ġcomplain":12270,"Ġstrongest":12271,"erior":12272,"Ġsecretly":12273,"riv":12274,"Ġfrozen":12275,"Ġspectacle":12276,"RU":12277,"AGAGG":12278,"fortunately":12279,"GL":12280,"Ġwarrior":12281,"Had":12282,"ĠPrice":12283,"Ġmarvellous":12284,"finished":12285,"Ġmiracle":12286,"ensible":12287,"Ġdeserved":12288,"observed":12289,"Ġ1914":12290,"Ġdecree":12291,"ĠSarah":12292,"Ġfeeding":12293,"ĠHIS":12294,"Ġvarying":12295,"ĠPel":12296,"TATCC":12297,"ĠMohammed":12298,"ih":12299,"Ġtops":12300,"hours":12301,"Ġmotionless":12302,"offin":12303,"Ġwasted":12304,"Ġtypical":12305,"ĠPO":12306,"rish":12307,"insula":12308,"ĠKnow":12309,"Ġbowl":12310,"familiar":12311,"Ġenvy":12312,"elson":12313,"Ġdiet":12314,"interested":12315,"Ġtraditions":12316,"ĠWoman":12317,"ĠChap":12318,"Ġextremity":12319,"inement":12320,"Ġlend":12321,"odox":12322,"Ġshouting":12323,"Ġcorrected":12324,"ĠThird":12325,"Ġinnumerable":12326,"Ġmurmur":12327,"ĠNote":12328,"ĠCatherine":12329,"Ġting":12330,"Ġobviously":12331,"Ġamazement":12332,"Ġprotested":12333,"Ġvelvet":12334,"Ay":12335,"crit":12336,"ĠBey":12337,"persons":12338,"ĠWord":12339,"Ġthreatening":12340,"Ġtemptation":12341,"Ġprejudice":12342,"ĠPierre":12343,"ĠCow":12344,"Ġencountered":12345,"Ġallied":12346,"Besides":12347,"erving":12348,"avement":12349,"Ġlawn":12350,"Ġsolitude":12351,"aggage":12352,"Ġtools":12353,"Ġendeavoured":12354,"iage":12355,"Ġbarren":12356,"Ġtrademark":12357,"Ġ00":12358,"Ġrational":12359,"uf":12360,"Ġlots":12361,"Ġcountrymen":12362,"window":12363,"named":12364,"Ġrelate":12365,"Ġdismay":12366,"ĠVienna":12367,"ĠUpper":12368,"Ġshaken":12369,"Ġ400":12370,"Ġkin":12371,"Ġrelieve":12372,"Ġfanc":12373,"Ġrightly":12374,"ĠHoward":12375,"Ġidentical":12376,"remained":12377,"Ġillustrations":12378,"Ġ109":12379,"Ġdefined":12380,"wide":12381,"Ġsermon":12382,"Ġmadam":12383,"ĠLieut":12384,"Ġpunct":12385,"ĠRou":12386,"ĠRam":12387,"Ġcove":12388,"Ġdestiny":12389,"Î¿ÏĤ":12390,"Ke":12391,"Ġtast":12392,"Ġstam":12393,"cile":12394,"Ġfulfil":12395,"sever":12396,"ouncing":12397,"ĠFriday":12398,"Ġproviding":12399,"Ġtrenches":12400,"Ġowed":12401,"blest":12402,"orns":12403,"á½¶":12404,"ĠAngel":12405,"Ġdischarged":12406,"According":12407,"Ġrecollection":12408,"Ġshine":12409,"irie":12410,"Ġembro":12411,"Ġinconven":12412,"istered":12413,"Ġdecent":12414,"ATTTG":12415,"Ġ111":12416,"Ġmelted":12417,"ĠPower":12418,"Ġneighbors":12419,"ĠĠĠĠĠĠĠĠĠĠĠĠĠĠĠĠĠĠĠĠĠĠĠĠĠĠĠĠĠĠĠĠĠĠĠĠĠĠĠĠĠĠĠ":12420,"Ġsheets":12421,"Art":12422,"ĠKingdom":12423,"jected":12424,"Ġfortnight":12425,"ĠAustralia":12426,"Ġtents":12427,"ĠDal":12428,"Ġpacked":12429,"Ġfatigue":12430,"Ġsolemnly":12431,"Ġwarfare":12432,"belong":12433,"Ġornaments":12434,"Ġriches":12435,"ĠBrun":12436,"Ġcourtesy":12437,"ENE":12438,"raised":12439,"Ġlads":12440,"dog":12441,"Ġhearty":12442,"Ġpreached":12443,"pay":12444,"Ġbodily":12445,"Ġcalam":12446,"Ġenqu":12447,"laugh":12448,"Ġbreathe":12449,"yd":12450,"ĠDouglas":12451,"fal":12452,"ĠCru":12453,"Ġtalents":12454,"Ġec":12455,"Ġdismissed":12456,"Ġdecay":12457,"Ġsaith":12458,"Ġheathen":12459,"Ġplague":12460,"Ġrealm":12461,"Ġpint":12462,"Ġmonk":12463,"ĠMack":12464,"Ġdefic":12465,"vial":12466,"rington":12467,"ichel":12468,"rove":12469,"boats":12470,"ihil":12471,"itably":12472,"Ġappreciate":12473,"ĠMoore":12474,"ĠBernard":12475,"ĠMission":12476,"ĠSquare":12477,"ATAGC":12478,"Ġcostume":12479,"Ġleap":12480,"oler":12481,"Ġspreading":12482,"prepared":12483,"Ġessence":12484,"berts":12485,"Ġpenny":12486,"Ġresearch":12487,"Paul":12488,"Ġsnake":12489,"Ġera":12490,"Ġruff":12491,"Ġsty":12492,"Ġtorrent":12493,"ĠAst":12494,"Ġwhither":12495,"Ġboards":12496,"ders":12497,"Ġelevated":12498,"bring":12499,"ĠLords":12500,"archy":12501,"ĠFrances":12502,"Ġcooking":12503,"dinand":12504,"spir":12505,"ORGE":12506,"Ġcultivation":12507,"Ġtempted":12508,"ĠAllen":12509,"Ġspoil":12510,"ĠSultan":12511,"ĠDorothy":12512,"Ġimitation":12513,"ĠRand":12514,"Port":12515,"Ġloudly":12516,"inois":12517,"ĠPed":12518,"ĠFal":12519,"Ġrejoined":12520,"Ġsticks":12521,"asmuch":12522,"Ġcaution":12523,"Ġresort":12524,"ĠSolomon":12525,"ĠNavy":12526,"Ġproves":12527,"alogue":12528,"ĠJon":12529,"Indian":12530,"ĠSaviour":12531,"yers":12532,"Ġtwilight":12533,"160":12534,"Ġceremonies":12535,"Ġlur":12536,"Ġmonster":12537,"Ġadmission":12538,"Ġsubstances":12539,"Ġclothed":12540,"Say":12541,"pine":12542,"isive":12543,"Ġbury":12544,"Ġbenef":12545,"Ġpeasants":12546,"Ġincidents":12547,"Ġleagues":12548,"fields":12549,"Ġseventh":12550,"Ġpulling":12551,"TCCTG":12552,"ĠBrand":12553,"Ġhorizont":12554,"ĠCOMP":12555,"aren":12556,"Ġhonourable":12557,"Ġrelease":12558,"Ġsuccessor":12559,"keeping":12560,"Ġfitting":12561,"Ġencl":12562,"ovel":12563,"Ġprinting":12564,"Ver":12565,"Ġfaults":12566,"ĠAnthony":12567,"oled":12568,"iley":12569,"ĠNone":12570,"ello":12571,"ternational":12572,"iterranean":12573,"ĠÎºÎ±":12574,"mates":12575,"Upon":12576,"grace":12577,"Ġcreed":12578,"Ġflank":12579,"inals":12580,"struct":12581,"Ġmarching":12582,"blem":12583,"Ġpolished":12584,"oda":12585,"Ġbrisk":12586,"ĠLamb":12587,"Ġfootsteps":12588,"ishers":12589,"Ġpotatoes":12590,"alted":12591,"Ġwaving":12592,"Ġpersuade":12593,"Ġsits":12594,"Coll":12595,"Ġmes":12596,"Ġbacks":12597,"Ġcomplaint":12598,"Ġperfor":12599,"Ġnobility":12600,"Wor":12601,"riers":12602,"ĠCirc":12603,"Ġskins":12604,"hire":12605,"Ïĩ":12606,"Ġcasual":12607,"ĠGilbert":12608,"big":12609,"='":12610,"Ġ----,":12611,"Ġplum":12612,"ĠHorace":12613,"Ġnour":12614,"ammar":12615,"discovered":12616,"pleased":12617,"ĠGuy":12618,"ĠFull":12619,"Ġadjoining":12620,"Ġpreach":12621,"pection":12622,"joice":12623,"Ġbending":12624,"Ġrepresentatives":12625,"Ġtune":12626,"ĠChamber":12627,"Ġquot":12628,"Ġinnocence":12629,"Ġdanced":12630,"spread":12631,"Ġexhibit":12632,"Ġindustrial":12633,"----+":12634,"Ġcake":12635,"upiter":12636,"cohol":12637,"straight":12638,"Ġaffectionate":12639,"Ġdomain":12640,"Ġexciting":12641,"gered":12642,"hended":12643,"Ġsecrets":12644,"Prof":12645,"Ġwidth":12646,"fallen":12647,"Ġalien":12648,"Ġbrood":12649,"Ġpossessions":12650,"ĠStory":12651,"drawn":12652,"gotten":12653,"á¸":12654,"Ġeditions":12655,"pin":12656,"Ġeventually":12657,"Ġunwilling":12658,"answered":12659,"Ġtooth":12660,"Ġ1915":12661,"itzer":12662,"ĠĠĠĠĠĠĠĠĠĠĠĠĠĠĠĠĠĠĠĠĠĠĠĠĠĠĠĠĠĠĠĠĠĠĠĠĠĠĠĠĠĠĠĠĠĠĠ":12663,"Ibid":12664,"Ġgigantic":12665,"icus":12666,"Ġbonds":12667,"Ġestates":12668,"Ġcontemporary":12669,"lan":12670,"Ġá¼Ĳ":12671,"EX":12672,"Ġnegative":12673,"borne":12674,"actly":12675,"Ġreceives":12676,"Tw":12677,"Ġ135":12678,"Ġmissionary":12679,"Ġcups":12680,"Ġfertile":12681,"United":12682,"instead":12683,"ĠNile":12684,"Ġmadness":12685,"ĠIllustrated":12686,"Rev":12687,"Ġfavorable":12688,"unter":12689,"Ġrefund":12690,"Ġdestro":12691,"Ġcivilized":12692,"ĠNaples":12693,"Ġtow":12694,"AMP":12695,"proved":12696,"untarily":12697,"ĠAG":12698,"ONS":12699,"INT":12700,"ĠCass":12701,"Ġbarely":12702,"Sam":12703,"Ġdoubted":12704,"rin":12705,"ĠIsaac":12706,"walk":12707,"temper":12708,"Ġborrowed":12709,"spn":12710,"Ġnegroes":12711,"Ġregiments":12712,"ÏĨ":12713,"ĠFin":12714,"hung":12715,"Ġworkmen":12716,"Ġdishes":12717,"getting":12718,"Ġdisaster":12719,"Nay":12720,"munition":12721,"IONS":12722,"Ġruled":12723,"ĠMonte":12724,"Bur":12725,"gal":12726,"South":12727,"Ġcommod":12728,"via":12729,"arant":12730,"Ġcows":12731,"ĠAli":12732,"uttered":12733,"ĠChester":12734,"emen":12735,"Ġdialect":12736,"charge":12737,"ĠFra":12738,"ĠSatan":12739,"Ġshillings":12740,"ĠScripture":12741,"ruly":12742,"âĢĻ.":12743,"Ġanguish":12744,"ĠUr":12745,"Next":12746,"Ġfestival":12747,"ben":12748,"ĠMethod":12749,"Russ":12750,"afford":12751,"ĠMissouri":12752,"------+":12753,"ĠHur":12754,"ĠMade":12755,"ersed":12756,"icker":12757,"yellow":12758,"Ġhunter":12759,"Ġcomply":12760,"south":12761,"OSE":12762,"speaking":12763,"Black":12764,"cca":12765,"ĠFive":12766,"Ġardent":12767,"succeed":12768,"birds":12769,"ĠArchbishop":12770,"Ġá½":12771,"ĠHU":12772,"burst":12773,"ĠCreek":12774,"ggs":12775,"INC":12776,"Ġsam":12777,"haired":12778,"Ġseeming":12779,"Ġengineer":12780,"saying":12781,"entirely":12782,"comed":12783,"Government":12784,"iend":12785,"natured":12786,"Ġexpectation":12787,"Ġlined":12788,"Ġdirector":12789,"ĠTrue":12790,"compre":12791,"Ġglac":12792,"ĠBapt":12793,"ĠRen":12794,"rolled":12795,"Ġbits":12796,"Ġdecline":12797,"Ġwhereby":12798,"religious":12799,"Ġesp":12800,"ĠDavis":12801,"avern":12802,"Ġfabric":12803,"sum":12804,"Ġconsented":12805,"cloud":12806,"ĠXVI":12807,"Ġreaches":12808,"Ġshrewd":12809,"Ġhistorian":12810,"ĠCampbell":12811,"ĠWalk":12812,"itis":12813,"venue":12814,"maker":12815,"ĠLater":12816,"ĠFree":12817,"icide":12818,"Ġabuse":12819,"Ġdisagreeable":12820,"Pal":12821,"broke":12822,"cheon":12823,"incial":12824,"================":12825,"ĠPoly":12826,"toward":12827,"ifting":12828,"TY":12829,"ulch":12830,"pill":12831,"incerity":12832,"Ġseventeen":12833,"Ġwillingly":12834,"iry":12835,"Ġcircum":12836,"Ġdeposited":12837,"Ġscholar":12838,"Ġhideous":12839,"Ġlime":12840,"ĠClark":12841,"120":12842,"Ġinquiries":12843,"ĠRussell":12844,"Ġsoup":12845,"ĠAtt":12846,"Dav":12847,"language":12848,"TTER":12849,"ĠPor":12850,"ĠDave":12851,"ĠBeau":12852,"Ġlakes":12853,"IFE":12854,"Red":12855,"remain":12856,"pole":12857,"ĠSU":12858,"Ġstrip":12859,"ĠÎ´":12860,"Ġdollar":12861,"Ġangles":12862,"Ġsignificant":12863,"venant":12864,"Ġstub":12865,"âĶĢâĶ¼":12866,"meaning":12867,"Ġincludes":12868,"ĠUl":12869,"ĠJun":12870,"PP":12871,"ĠAcademy":12872,"ĠFranklin":12873,"ĠReview":12874,"Ġinvest":12875,"ĠArabs":12876,"azar":12877,"Ġ,":12878,"Ġsyll":12879,"Ġsubjected":12880,"Give":12881,"ĠMid":12882,"Ġrab":12883,"olitan":12884,"Ġclasped":12885,"Ġchill":12886,"TTTGG":12887,"Ġrede":12888,"Ġsuperiority":12889,"ĠWis":12890,"inkling":12891,"Ġlordship":12892,"rail":12893,"Ġlicense":12894,"Ġinsist":12895,"iscop":12896,"outside":12897,"ĠSoph":12898,"Ġequivalent":12899,"Ġexh":12900,"vice":12901,"icts":12902,"ĠSuddenly":12903,"_,âĢĿ":12904,"Ġsheer":12905,"Ġwhites":12906,"TGAAG":12907,"Ġadorned":12908,"expect":12909,"Ġbeautifully":12910,"presence":12911,"ĠHorse":12912,"ĠImp":12913,"Enter":12914,"Ġdazz":12915,"Ġadult":12916,"Ġladder":12917,"aparte":12918,"Ġcorpse":12919,"thodox":12920,"AAACC":12921,"upt":12922,"Ġtread":12923,"awa":12924,"Ġgrandmother":12925,"ĠOp":12926,"appointed":12927,"pence":12928,"sat":12929,".~":12930,"bone":12931,"Ġ123":12932,"ributed":12933,"Ġconference":12934,"Ġadvise":12935,"officers":12936,"Ġlandlord":12937,"olo":12938,"sound":12939,"ursday":12940,"Ġgy":12941,"Ġtheme":12942,"Ġsports":12943,"prop":12944,"AGCCC":12945,"Ġuneasy":12946,"aude":12947,"Ġpepper":12948,".'\"":12949,"tail":12950,"alle":12951,"ĠWestminster":12952,"Ã©n":12953,"Ġcommunicated":12954,"ĠGentle":12955,"holding":12956,"Ġclung":12957,"liber":12958,"Ġwashing":12959,"oust":12960,"Ġeloquence":12961,"ĠWhatever":12962,"uing":12963,"ĠHalf":12964,"Ġjustify":12965,"star":12966,"Ġexplo":12967,"Ġmoves":12968,"War":12969,"ĠBalt":12970,"Ġunworthy":12971,"Ġinclination":12972,"flowers":12973,"Ġhelping":12974,"Ġcorrid":12975,"ĠMurray":12976,"bearing":12977,"Ġlonged":12978,"enjoy":12979,"Ġsemi":12980,"Ġprogram":12981,"ignific":12982,"Pat":12983,"chi":12984,"Ġcliffs":12985,"desp":12986,"Ġpreceded":12987,"ights":12988,"Ġlane":12989,"ĠHudson":12990,"Ġblade":12991,"shop":12992,"Ġrests":12993,"handed":12994,"ĠSabbath":12995,"ĠBattle":12996,"Ġspeeches":12997,"happiness":12998,"factory":12999,"ĠCountry":13000,"ĠWorks":13001,"Ġretorted":13002,"ĠHo":13003,"obed":13004,"ĠWords":13005,"Ġfoes":13006,"Ġyourselves":13007,"Ġconform":13008,"ĠNick":13009,"ĠPolly":13010,"aug":13011,"Ġreverse":13012,"Ġexclusively":13013,"Ġ121":13014,"Ġ122":13015,"ĠGib":13016,"Ġproclaimed":13017,"INGS":13018,"accompl":13019,"ĠMilton":13020,"Ġmos":13021,"Ġgleam":13022,"Ġinstructed":13023,"bas":13024,"End":13025,"enser":13026,"onial":13027,"Sim":13028,"TGTAG":13029,"Ġpreaching":13030,"olics":13031,"Ġcigar":13032,"ĠBraz":13033,"Ġrevenue":13034,"annah":13035,"ĠRa":13036,"tin":13037,"Ġdrum":13038,"TCATT":13039,"ĠLuke":13040,"AGATT":13041,"ĠShort":13042,"arg":13043,"Ġcoinc":13044,"ĠHistor":13045,"Ġsession":13046,"Ġpencil":13047,"Cons":13048,"Ġexchanged":13049,"Ġastron":13050,"ouraging":13051,"Ġcompound":13052,"ĠEarly":13053,"Ġhered":13054,"stituted":13055,"ĠRichmond":13056,"Ġinhabited":13057,"ĠYear":13058,"opportunity":13059,"utable":13060,"Ġxi":13061,"ĠHAR":13062,"Ġfactory":13063,"Ġenjoying":13064,"orph":13065,"symp":13066,"ĠBeaut":13067,"understanding":13068,"ĠEllen":13069,"ĠMu":13070,"Ġstrife":13071,"Ġquote":13072,"addy":13073,"ĠGene":13074,"Ġbenevol":13075,"Ġhasty":13076,"Ġinjustice":13077,"Suddenly":13078,"Ġmagazine":13079,"Ġ124":13080,"President":13081,"inea":13082,"Hy":13083,"Ġhammer":13084,"ernal":13085,"uesday":13086,"Ġrubbed":13087,"wine":13088,"battle":13089,"particularly":13090,"Ġblast":13091,"sequently":13092,"Ġcouch":13093,"Ġcompassion":13094,"ethe":13095,"vern":13096,"ĠCub":13097,"Ġvolunteers":13098,"chamber":13099,"Ġshorter":13100,"Ġov":13101,"Ġfarmers":13102,"yards":13103,"safe":13104,"ĠBeat":13105,"Ann":13106,"ĠDoes":13107,"spr":13108,"Ġultimate":13109,"warf":13110,"Ġorch":13111,"Ġ129":13112,"Ġsket":13113,"ĠLetter":13114,"Ġcircuit":13115,"Ġdesirous":13116,"Ġsmiles":13117,"crowd":13118,"ĠVenus":13119,"Ġseasons":13120,"enemy":13121,"ĠMerc":13122,"Ġsect":13123,"conversation":13124,"esley":13125,"Ġascended":13126,"Ġenl":13127,"ĠArmen":13128,"Ġlimb":13129,"Ġcos":13130,"Ġreveal":13131,"ifice":13132,"Ġdetailed":13133,"Ġbargain":13134,"Prince":13135,"OUND":13136,"Ġcrop":13137,"ĠWithin":13138,"IRST":13139,"tender":13140,"ĠHenri":13141,"ATA":13142,"hensive":13143,"Ġincess":13144,"Ġdeleg":13145,"working":13146,"Ġoffended":13147,"deg":13148,"ĠGolden":13149,"Ġsusp":13150,"Ġomitted":13151,"Ġmodified":13152,"Ġseq":13153,"ieving":13154,"Ġ128":13155,"Ġextension":13156,"Ġripe":13157,"gency":13158,"Ġburial":13159,"ĠRue":13160,"Ġcustomary":13161,"Ġrebels":13162,"Ġswore":13163,"attery":13164,"ĠAbbey":13165,"Ġscholars":13166,"oons":13167,"Ġepoch":13168,"ĠId":13169,"Chapter":13170,"Ġstove":13171,"Ġbrains":13172,"Ġcausing":13173,"velope":13174,"Ġattending":13175,"ednes":13176,"Ġnowhere":13177,"igo":13178,"Ġ145":13179,"ĠSTART":13180,"Ġsurroundings":13181,"ĠMun":13182,"Ġrobbed":13183,"ĠDublin":13184,"ĠSab":13185,"Ġstudying":13186,"Ġdoctors":13187,"Long":13188,"oat":13189,"peculiar":13190,"iva":13191,"Ġbasin":13192,"iller":13193,"ĠTurkey":13194,"Ġoven":13195,"Ġmachines":13196,"ding":13197,"Ġspy":13198,"Ġsystems":13199,"Ġ126":13200,"Sax":13201,"rising":13202,"Ġ133":13203,"Ġborders":13204,"ĠMountains":13205,"colored":13206,"ĠLion":13207,"Ġcovers":13208,"enz":13209,"operation":13210,"ĠMountain":13211,"lies":13212,"House":13213,"unciation":13214,"Ġ:":13215,"ĠEduc":13216,"ĠJeh":13217,"Ġheated":13218,"Ġdefended":13219,"NOTES":13220,"Ġsandy":13221,"ĠSTAT":13222,"Ġniece":13223,"Ġoz":13224,"Ġtheories":13225,"Cr":13226,"Jer":13227,"rett":13228,"AGTTC":13229,"quest":13230,"Ġbows":13231,"somewhat":13232,"Ġloos":13233,"Ġillustrious":13234,"Ġbesie":13235,"Ġamiable":13236,"igible":13237,"Ġammunition":13238,"Ġantagon":13239,"TTTATT":13240,"Ġattent":13241,"Ġ1862":13242,"ĠPlate":13243,"Ġexile":13244,"cules":13245,"ĠĠĠĠĠĠĠĠĠĠĠĠĠĠĠĠĠĠĠĠĠĠĠĠĠĠĠĠĠĠĠĠĠĠĠĠĠĠĠĠĠĠĠĠĠĠ":13246,"Ġruler":13247,"Ġallowing":13248,"Ġ||":13249,"Ġconstitute":13250,"angs":13251,"oland":13252,"Mother":13253,"ĠCoo":13254,"Ġheaded":13255,"Ġdislike":13256,"Ġterrace":13257,"Ġfiction":13258,"chus":13259,"Sal":13260,"ACATG":13261,"Ġloyalty":13262,"Ġremembrance":13263,"ĠKenn":13264,"kh":13265,"Ġpilot":13266,"ĠIndies":13267,"AATAG":13268,"Mart":13269,"Tur":13270,"Ġpartially":13271,"Ġunfortunately":13272,"Ġintentions":13273,"ĠPersia":13274,"Ġtram":13275,"opinion":13276,"figure":13277,"religion":13278,"Ġthickness":13279,"moved":13280,"Ġproportions":13281,"Ġ127":13282,"itle":13283,"Ġpaths":13284,"Ġopens":13285,"á½³":13286,"leaves":13287,"Ġupset":13288,"witness":13289,"ĠBos":13290,"ousers":13291,"ensable":13292,"March":13293,"ĠPortugal":13294,"Ġgi":13295,"Ġfoliage":13296,"CO":13297,"destroy":13298,"Ġjolly":13299,"Ġlifting":13300,"Ġsubdued":13301,"Ġmansion":13302,"Ġfeud":13303,"ĠMessrs":13304,"god":13305,"Ġcha":13306,"ĠAz":13307,"correspond":13308,"Ġisolated":13309,"ĠEt":13310,".+":13311,"Ġapprox":13312,"_!":13313,"Ġcomprom":13314,"orce":13315,"proof":13316,"Ġapproval":13317,"struck":13318,"regarded":13319,"ĠBah":13320,"send":13321,"ĠMorgan":13322,"Queen":13323,"athed":13324,"estone":13325,"Ġdropping":13326,"Ġbunch":13327,"Ġpositively":13328,"Int":13329,"Ġharbor":13330,"avia":13331,"dear":13332,"Ġlamps":13333,"estial":13334,"AAA":13335,"Ġninety":13336,"ĠWol":13337,"Ġingenious":13338,"Ġcatching":13339,"ĠShak":13340,"ja":13341,"Ġsplit":13342,"Ġgoverned":13343,"encer":13344,"Ġwestward":13345,"AATAC":13346,"ructive":13347,"Ġrigid":13348,"ĠClar":13349,"atically":13350,"Ġanswering":13351,"Ġpredecess":13352,"strous":13353,"Ġstations":13354,"Ġpilgrim":13355,"elfth":13356,"distinct":13357,"icity":13358,"Sil":13359,"ĠCour":13360,"pedition":13361,"Ġpetty":13362,"Ġascertained":13363,"pra":13364,"ulously":13365,"agu":13366,"Ġguided":13367,"ĠGregory":13368,"ĠSoul":13369,"ĠPle":13370,"Ġimpuls":13371,"Ġdrunken":13372,"ĠDie":13373,"Ġblocks":13374,"Ġshew":13375,"Ġbitterness":13376,"Ġbounds":13377,"Ġstake":13378,"Ġproofs":13379,"letters":13380,"Ġbri":13381,"ĠVenet":13382,"ĠLad":13383,"Ġexempt":13384,"ĠPrussia":13385,"aucer":13386,"Ġperished":13387,"Ġprincipally":13388,"TGCCC":13389,"arette":13390,"plied":13391,"oz":13392,"obile":13393,"?âĢĶ":13394,"Ġenlarged":13395,"ntil":13396,"Ġcompact":13397,"Ġbeam":13398,"Ġsanction":13399,"IEL":13400,"Ġshrill":13401,"Ġtossed":13402,"Ġslopes":13403,"Ġchorus":13404,"York":13405,"cro":13406,"ĠGuard":13407,"uis":13408,"happened":13409,"Roman":13410,"Ġapprehension":13411,"avan":13412,"bted":13413,"Ġcosts":13414,"ĠSalt":13415,"dal":13416,"ĠArnold":13417,"ignant":13418,"Ġdirt":13419,"ĠDet":13420,"Ġsucceeding":13421,"Ġindebted":13422,"Ġthanked":13423,"ĠParty":13424,"Ġrash":13425,"ĠKen":13426,"Ġexcessive":13427,"parent":13428,"Ġpatent":13429,"Ġsublime":13430,"extra":13431,"Ġnotions":13432,"ĠOcean":13433,"Ġ136":13434,"Ġmicro":13435,"ĠAB":13436,"Ġrobe":13437,"ĠSurely":13438,"Ġsends":13439,"ĠRoberts":13440,"Ġskies":13441,"Ġgrasped":13442,"Ġstaying":13443,"ĠMist":13444,"America":13445,"Ġbrook":13446,"minutes":13447,"ĠSuff":13448,"Ġdecorated":13449,"ĠScots":13450,"Ġquad":13451,"ĠSuper":13452,"ilation":13453,"dain":13454,"suppose":13455,"ĠRegiment":13456,"Ġawaken":13457,"Four":13458,"ancient":13459,"Ġsprung":13460,"Ġfrankly":13461,"nic":13462,"130":13463,"determined":13464,"Ġcomplained":13465,"sick":13466,"Ġsecondary":13467,"ICT":13468,"Ġray":13469,"AH":13470,"Ġdecidedly":13471,"jamin":13472,"Ġ1864":13473,"Ġbreaks":13474,"Ġsolely":13475,"cru":13476,"TGTGG":13477,"White":13478,"Ġalleged":13479,"Ġscent":13480,"difficult":13481,"Ġcrazy":13482,"Ġrasc":13483,"Ġ144":13484,"oux":13485,"rils":13486,"Ġboundary":13487,"itory":13488,"Ġelbow":13489,"ĠRussians":13490,"Ġprofits":13491,"Ġdescendants":13492,"reedom":13493,"aby":13494,"Ġsuspicious":13495,"ALD":13496,"ĠMeanwhile":13497,"Ġpipes":13498,"Ġhesitate":13499,"Ġceiling":13500,"Ġtrades":13501,"ITE":13502,"produced":13503,"Res":13504,"^{":13505,"Ġleng":13506,"Ġlabours":13507,"FOOT":13508,"Ġpeculiarly":13509,"Ġvegetables":13510,"Ġeighteenth":13511,"Ġchapters":13512,"Ġhired":13513,"Ġports":13514,"ĠBath":13515,"none":13516,"Ġ137":13517,"usky":13518,"Ġfaculties":13519,"Ġguardian":13520,"ymph":13521,"ĠCarter":13522,"Ġdine":13523,"ĠÂ½":13524,"shore":13525,"ORN":13526,"ĠAge":13527,"Ġdepended":13528,"Ġaddressing":13529,"ando":13530,"Ġestimated":13531,"Ġrevolt":13532,"----------------------------------------------------------------":13533,"Ġfulfilled":13534,"Ġumb":13535,"Ġprolonged":13536,"Ġfaintly":13537,"Ġaccent":13538,"ĠMorris":13539,"Ġgit":13540,"isement":13541,"App":13542,"Ġtreason":13543,"Ġcirculation":13544,"Ġidentity":13545,"Ġoppress":13546,"Ġambit":13547,"Ġmathemat":13548,"Ġfemales":13549,"Ġdistributing":13550,"hr":13551,"Ġbrute":13552,"Sw":13553,"Ġsulphur":13554,"OE":13555,"Ġlemon":13556,"Ġoffensive":13557,"Ġpropag":13558,"Ġthoughtful":13559,"Ġelephant":13560,"ĠGeorgia":13561,"Nat":13562,"Ġawaiting":13563,"Ġdevote":13564,"ĠWelsh":13565,"gers":13566,"ĠClay":13567,"Ġ155":13568,"fortunes":13569,"ĠBrigade":13570,"intendent":13571,"Ġ132":13572,"ĠHans":13573,"ĠVictoria":13574,"ĠCecil":13575,"Ġ139":13576,"Ġassertion":13577,"ĠFrenchman":13578,"inj":13579,"Ġorganic":13580,"reasonable":13581,"ĠSER":13582,"Ġengines":13583,"Ġbutton":13584,"ĠGarden":13585,"onian":13586,"Ġsworn":13587,"Ġfut":13588,"Ġundertaking":13589,"Ġmetap":13590,"defe":13591,"Ġassign":13592,"ĠBetween":13593,"Jes":13594,"ĠLORD":13595,"oyd":13596,"cha":13597,"Ġattachment":13598,"Ġministry":13599,"Ġhospitality":13600,"anus":13601,"lit":13602,"AAGGG":13603,"ĠAges":13604,"Ġbol":13605,"won":13606,"nant":13607,"evil":13608,"Ġgn":13609,"Ġcooked":13610,"Second":13611,"Ġassistant":13612,"doll":13613,"Ġreferences":13614,"Ġpatients":13615,"Ġconve":13616,"Ġbreach":13617,"Ġinserted":13618,"ĠSaxon":13619,"sect":13620,"Ġclad":13621,"Ġbaggage":13622,"Ġ131":13623,"Ġclergyman":13624,"lings":13625,"izens":13626,"mered":13627,"edged":13628,"ĠPresently":13629,"olve":13630,"adle":13631,"ĠMedic":13632,"Ġchildish":13633,"ĠCic":13634,"Ġextends":13635,"orney":13636,"Ġconsumed":13637,"method":13638,"Ġlimp":13639,"Ġcited":13640,"onge":13641,"Ġreli":13642,"ĠAri":13643,"Ġinternational":13644,"agen":13645,"WARD":13646,"Ġlighter":13647,"Ġsheriff":13648,"Ġdetective":13649,"ocket":13650,"Ġ138":13651,"ĠGet":13652,"importance":13653,"Alex":13654,"OUSE":13655,"ĠEverything":13656,"Ġtongues":13657,"Ġstrikes":13658,"ĠSmall":13659,"170":13660,"Ġlayer":13661,"Ġworldly":13662,"Ġpomp":13663,"Ġbrigade":13664,"Ġdial":13665,"ĠNO":13666,"gings":13667,"Ġthreshold":13668,"pretty":13669,"Ġresemble":13670,"Ġentertainment":13671,"Ġdeliberately":13672,"Ġfashionable":13673,"Ġhorrid":13674,"tte":13675,"ĠNotes":13676,"June":13677,"Ham":13678,"Ġfuel":13679,"encing":13680,"ĠOcc":13681,"ologist":13682,"Ġfring":13683,"ĠBroad":13684,"connected":13685,"Ġcurtains":13686,"ĠStuart":13687,"Ġwider":13688,"Ġhearth":13689,"capt":13690,"excell":13691,"Ġaccuracy":13692,"Ġindu":13693,"BUR":13694,"ĠRobin":13695,"TCTTG":13696,"Ġpresume":13697,"Ġcheerfully":13698,"Ġcopied":13699,"aza":13700,"Ġvir":13701,"Ġindirect":13702,"similar":13703,"ĠMoon":13704,"Ġholiday":13705,"Ġtheat":13706,"ĠHerm":13707,"Ġwhatsoever":13708,"Ġawhile":13709,"Ġconclusions":13710,"Ġstag":13711,"emale":13712,"ednesday":13713,"Ġsullen":13714,"Ġpref":13715,"asping":13716,"Ġforemost":13717,"Ġheadquarters":13718,"Ġphysi":13719,"Pet":13720,"Ġlatitude":13721,"Ġvale":13722,"ĠGhost":13723,"soldiers":13724,"Ġwrest":13725,"ANG":13726,"ĠLis":13727,"Ġcreek":13728,"rating":13729,"Ġlob":13730,"Ġescort":13731,"Ġchlor":13732,"Ġarriving":13733,"trem":13734,"Ġdiamond":13735,"Ġillumin":13736,"Ġdreary":13737,"Ġselling":13738,"ooner":13739,"iverpool":13740,"Ġ134":13741,"Thomas":13742,"Ġsuperstition":13743,"Ġsack":13744,"Ġsentences":13745,"Ġdata":13746,"Ġtramp":13747,"Ġembraced":13748,"ironment":13749,"Ġprelim":13750,"Ġspake":13751,"Ġrespected":13752,"Ġdissolved":13753,"dim":13754,"Ġirre":13755,"Ġcrops":13756,"due":13757,"ygen":13758,"exec":13759,"Ġfunds":13760,"Ġterribly":13761,"Ġsubstantial":13762,"Ġfrightful":13763,"ĠIllustrations":13764,"Ġlib":13765,"Ġbehaviour":13766,"gus":13767,"Ġcurve":13768,"Ġbite":13769,"Ġanyhow":13770,"ĠĠĠĠĠĠĠĠĠĠĠĠĠĠĠĠĠĠĠĠĠĠĠĠĠĠĠĠĠĠĠĠĠĠĠĠĠĠĠĠĠĠĠĠĠĠĠĠĠ":13771,"Ġviewed":13772,"Ġfaster":13773,"Ġvillain":13774,"Ġbarrel":13775,"ungle":13776,"ĠForest":13777,"learned":13778,"arris":13779,"unnel":13780,"HEN":13781,"Ġmaj":13782,"alties":13783,"Ġexpert":13784,"ĠAnge":13785,"IER":13786,"prevent":13787,"ACAGC":13788,"Ġgale":13789,"Ġsofa":13790,"riment":13791,"TGTGC":13792,"Ġmouths":13793,"Ġwhistle":13794,"TCAGG":13795,"ucle":13796,"Ġsettlers":13797,"Ġultimately":13798,"ĠAustrian":13799,"Ġmassive":13800,"didn":13801,"Ġcoc":13802,"remem":13803,"Other":13804,"station":13805,"onstr":13806,"Sy":13807,"Ġreadiness":13808,"Ġbreed":13809,"Ġtransfer":13810,"Ġstruggled":13811,"respons":13812,"Ġdownward":13813,"Ġglor":13814,"ĠLaura":13815,"Ġadapt":13816,"authority":13817,"Ġ165":13818,"uffs":13819,"aga":13820,"itional":13821,"conditions":13822,"Ġrefers":13823,"Ġpiety":13824,"Ġvex":13825,"ameless":13826,"thrown":13827,"Ġambitious":13828,"Ġechoed":13829,"sd":13830,"cht":13831,"Ġbundle":13832,"Ġunite":13833,"ĠÂ·":13834,"Ġ141":13835,"Ġpope":13836,"ĠHospital":13837,"ĠRest":13838,"ĠMaurice":13839,"Ġreduce":13840,"TTAAAA":13841,"Ġwonders":13842,"Men":13843,"Ġjaw":13844,"ĠDean":13845,"Ġimpet":13846,"Both":13847,"sort":13848,"Ġkeys":13849,"Ġ153":13850,"ĠFL":13851,"Ġoccasioned":13852,"overeign":13853,"information":13854,"ĠOthers":13855,"á½±":13856,"Ġimpatience":13857,"ĠĠĠĠĠĠĠĠĠĠĠĠĠĠĠĠĠĠĠĠĠĠĠĠĠĠĠĠĠĠĠĠĠĠĠĠĠĠĠĠĠĠĠĠĠĠĠĠ":13858,"pels":13859,"tenance":13860,"Get":13861,"ĠJulia":13862,"Ġobligation":13863,"AIR":13864,"Ġlungs":13865,"Ġpillow":13866,"ĠMayor":13867,"Ġlegislation":13868,"Ġ142":13869,"unicip":13870,"Ġ143":13871,"Mont":13872,"Ġtenth":13873,"Ġaren":13874,"Ġbliss":13875,"Ġinsect":13876,"ĠSomething":13877,"Ġfir":13878,"AATGC":13879,"goes":13880,"Ġwithdrawn":13881,"ĠLib":13882,"village":13883,"Ġdost":13884,"Co":13885,"Ġfoss":13886,"Ġachieved":13887,"Ġgrains":13888,"Ġharder":13889,"Ġcorruption":13890,"Ġshades":13891,"ĠCanadian":13892,"TGATT":13893,"Ġweighed":13894,"ropolis":13895,"TCTGC":13896,"Ġdesolate":13897,"log":13898,"Ã¦us":13899,"issance":13900,"Ġ148":13901,"ĠAld":13902,"possess":13903,"trouble":13904,"Ġappreciation":13905,"Ġsacrifices":13906,"AACCC":13907,"Ġtrench":13908,"sister":13909,"Ġswallowed":13910,"Ġeagle":13911,"utton":13912,"Ġconsulted":13913,"ĠSum":13914,"Ġintegr":13915,"ĠGirl":13916,"Ġstatues":13917,"--'":13918,"summer":13919,"strugg":13920,"Ġmysteries":13921,"single":13922,"ACTTC":13923,"Ġthrill":13924,"Ġ147":13925,"paid":13926,"ĠDuc":13927,"Ġ146":13928,"Ġbaptism":13929,"SS":13930,"Ġhighway":13931,"TCCCAGC":13932,"ĠFord":13933,"Ġaer":13934,"Ġearl":13935,"Ġbelieves":13936,"months":13937,"Ġtracks":13938,"ĠHarold":13939,"Ġclearing":13940,"Ġattempting":13941,"clothes":13942,"Ġdevice":13943,"Ġfragment":13944,"ignt":13945,"MY":13946,"Ġtruths":13947,"Ġwildly":13948,"Ġxii":13949,"ONDON":13950,"san":13951,"Ġtragic":13952,"Ġreckoned":13953,"Ġcontrived":13954,"hom":13955,"Ġcordial":13956,"ĠHerod":13957,"Ġoppose":13958,"Ġdefense":13959,"ĠJefferson":13960,"Ġtimid":13961,"ĠSant":13962,"July":13963,"Ġpenalty":13964,"Ġirresist":13965,"western":13966,"Ġexclaim":13967,"ĠMatthew":13968,"ĠJohnny":13969,"Ġplunder":13970,"Ġpamph":13971,"wanted":13972,"Ġdignified":13973,"Ġhalt":13974,"ĠStra":13975,"Ġnigh":13976,"flower":13977,"Pre":13978,"Ġjurisdiction":13979,"ĠDirector":13980,"este":13981,"frequently":13982,"stable":13983,"Ġanci":13984,"Dick":13985,"ĠGaul":13986,"Ġcommencement":13987,"Ġtab":13988,"Ġware":13989,"Ġrecess":13990,"ĠForeign":13991,"Ġnic":13992,"ĠMason":13993,"species":13994,"ĠSupreme":13995,"Ġexcurs":13996,"ultiv":13997,"Ġlikeness":13998,"Ġvirtuous":13999,"Ġprudent":14000,"Ġcasting":14001,"ĠMuch":14002,"Ġdash":14003,"Ġpatch":14004,"Mem":14005,"arrange":14006,"Ġundertaken":14007,"iol":14008,"Shall":14009,"TE":14010,"Ġmask":14011,"Ġanimated":14012,"Ġdisposal":14013,"Ġblend":14014,"Ġhoarse":14015,"Ġmorrow":14016,"ĠBOOK":14017,"Ġ149":14018,"ĠLoc":14019,"Ġexpressing":14020,"ĠJoan":14021,"ĠCre":14022,"marriage":14023,"Ġdisappear":14024,"Ġinspection":14025,"Ġdeceased":14026,"Ġsums":14027,"Ġextingu":14028,"Ġexamining":14029,"Ġexercises":14030,"ĠDevil":14031,"yourself":14032,"Ġmanifested":14033,"owered":14034,"ĠCromwell":14035,"Ġarches":14036,"ĠIllinois":14037,"ĠBeth":14038,"Ġmourning":14039,"thick":14040,"Ġtrifling":14041,"RIST":14042,"ĠCad":14043,"Ġprow":14044,"ecd":14045,"ĠEth":14046,"Ġexceeding":14047,"asha":14048,"ĠMake":14049,"Ġ156":14050,"entric":14051,"Ġnotable":14052,"Ser":14053,"ĠOriental":14054,"ĠAir":14055,"Ġsixteenth":14056,"special":14057,"inia":14058,"Ġimagin":14059,"Ġarising":14060,"shoot":14061,"Ġdy":14062,"Ġexalted":14063,"Ġplent":14064,"itches":14065,"Ġresulted":14066,"ĠOt":14067,"alter":14068,"Ġ152":14069,"Ġrites":14070,"ĠWeb":14071,"Ġappealed":14072,"marine":14073,"Please":14074,"Ġ161":14075,"ATACC":14076,"ao":14077,"Ġsergeant":14078,"Ġhears":14079,"assy":14080,"Ġanti":14081,"ĠSpart":14082,"Ġphenomenon":14083,"published":14084,"ĠMiller":14085,"ĠCharlot":14086,"osoph":14087,"Ġexcellence":14088,"Ġtechnical":14089,"Ġtightly":14090,"ĠMoor":14091,"ĠEight":14092,"Ġflowed":14093,"ĠAristotle":14094,"Ġhasn":14095,"covery":14096,"Ġgird":14097,"Mc":14098,"ĠLetters":14099,"ansion":14100,"Ġtitles":14101,"Ġincredible":14102,"ĠPont":14103,"Ġexcite":14104,"surface":14105,"angular":14106,"ĠMinn":14107,"Ġpony":14108,"floor":14109,"á½¹":14110,"Ġsunny":14111,"Ġstamped":14112,"Ġhats":14113,"piring":14114,"Ġserves":14115,"garden":14116,"TTAAG":14117,"ĠAnglo":14118,"Ġdefinition":14119,"Ġneutral":14120,"Ġcrust":14121,"Ġmonastery":14122,"interrupt":14123,"TR":14124,"Ġarmour":14125,"Ġadvis":14126,"affection":14127,"Ġrefined":14128,"Ġintensity":14129,"ĠThee":14130,"Ġpouring":14131,"political":14132,"Ġdrain":14133,"ĠDomin":14134,"Ġswing":14135,"Ġlocality":14136,"Ġconver":14137,"intellect":14138,"Ang":14139,"gow":14140,"Ġsupposing":14141,"Law":14142,"Ġexult":14143,"TCAGC":14144,"idance":14145,"Ġalluded":14146,"Ġharmless":14147,"rift":14148,"AGTGG":14149,"warm":14150,"Ġvind":14151,"Ġcourte":14152,"cius":14153,"Ġgossip":14154,"Ġhanged":14155,"ALE":14156,"Ġmonuments":14157,"ĠLower":14158,"oblig":14159,"ĠChildren":14160,"ĠWolf":14161,"Ġrejoice":14162,"antine":14163,"Ġapplicable":14164,"died":14165,"Ġfinely":14166,"cad":14167,"Ġtricks":14168,"ĠSyl":14169,"Ġshouts":14170,"ĠGothic":14171,"Ġsep":14172,"OF":14173,"ivable":14174,"www":14175,"Ġdebate":14176,"Ġfath":14177,"Ġdominion":14178,"Ġclimbing":14179,"byter":14180,"Ġcaptive":14181,"ĠHEN":14182,"Ġpump":14183,"Ġ154":14184,"ĠJimmy":14185,"ifer":14186,"Ġsweetness":14187,"ĠFerdinand":14188,"difficulty":14189,"Ġconstituted":14190,"ritory":14191,"talk":14192,"Ġfiercely":14193,"Ġwinning":14194,"State":14195,"Ġpersecution":14196,"ĠeBooks":14197,"Ġcaps":14198,"Ġpushing":14199,"ĠÃ¦":14200,"ĠVin":14201,"TGTTC":14202,"Ġdeserves":14203,"TGATG":14204,"Ġremarkably":14205,"Ġlosses":14206,"Ġexplore":14207,"ĠEug":14208,"Ġawaited":14209,"Ġsuggests":14210,"bred":14211,"Î±Î¹":14212,"consciousness":14213,"ĠCreat":14214,"Ġful":14215,"Ġshoe":14216,"_.]":14217,"GR":14218,"property":14219,"Ġadequate":14220,"Ġlav":14221,"Po":14222,"Ġtempest":14223,"Ġlodging":14224,"Ġcomplicated":14225,"test":14226,"uble":14227,"swald":14228,"Ġvenerable":14229,"mountain":14230,"Ġdegr":14231,"Ġmule":14232,"Ġrighteousness":14233,"Ġconsiderations":14234,"Ġpoly":14235,"surr":14236,"irch":14237,"servant":14238,"Ġ151":14239,"ĠSom":14240,"soft":14241,"ĠHorn":14242,"ĠCharlie":14243,"ĠMis":14244,"Ġape":14245,"Ġfactor":14246,"Ġphilosophers":14247,"Ġreads":14248,"Ġdetached":14249,"Ġglittering":14250,"Ġrapidity":14251,"lements":14252,"Ġ175":14253,"Ġreels":14254,"Ġgilt":14255,"Ġmagistrate":14256,"Ġenthusiastic":14257,"Ġencouragement":14258,"Ġexpensive":14259,"Dan":14260,"ĠWinter":14261,"Ġsympathetic":14262,"Rel":14263,"arches":14264,"Ġvoid":14265,"quin":14266,"Ġrelates":14267,"140":14268,"Ġresigned":14269,"Ġforci":14270,"Ġinfluenced":14271,"Ġdescending":14272,"sin":14273,"uma":14274,"Ġtack":14275,"ronted":14276,"Ġrebel":14277,"ĠHast":14278,"TTTAT":14279,"Without":14280,"cop":14281,"rival":14282,"Ġdelicacy":14283,"ĠTu":14284,"undered":14285,"ĠHotel":14286,"Ġgrandeur":14287,"manship":14288,"custom":14289,"ĠTob":14290,"Ġpow":14291,"Ġpest":14292,"Ġgrove":14293,"verend":14294,"Ġarises":14295,"Ġsweeping":14296,"Ġrefres":14297,"Ġthankful":14298,"iantly":14299,"Bot":14300,"opher":14301,"Ġdeclaring":14302,"stretched":14303,"Ġconvuls":14304,"Ġeagerness":14305,"Ġdiamonds":14306,"lon":14307,"Ġshower":14308,"Ġcush":14309,"discuss":14310,"Ġmand":14311,"Ġinfinitely":14312,"control":14313,"Ġattendant":14314,"employed":14315,"Ġendowed":14316,"Ġscales":14317,"Ġefficient":14318,"urt":14319,"ĠGulf":14320,"Ġchat":14321,"Ġexclusive":14322,"independ":14323,"Ġcode":14324,"active":14325,"spoken":14326,"Ġperplex":14327,"Mor":14328,"Ġsealed":14329,"agus":14330,"ede":14331,"coal":14332,"Ġvirgin":14333,"Ġdebts":14334,"Ġhue":14335,"onde":14336,"APH":14337,"pendicular":14338,"ĠMaid":14339,"Ġpromising":14340,"Ob":14341,"cock":14342,"ĠSau":14343,"supposed":14344,"Ġrecovery":14345,"coun":14346,"atern":14347,"Ġdisguise":14348,"esp":14349,"usc":14350,"rapid":14351,"ABLE":14352,"Ġinterven":14353,"spec":14354,"ĠJupiter":14355,"ĠRoche":14356,"Ġpierced":14357,"Ġtrials":14358,"Ġcomplexion":14359,"Ġapartments":14360,"enne":14361,"Ġwits":14362,"Ġsearched":14363,"ĠNancy":14364,"itzerland":14365,"Ġcongregation":14366,"Ġthumb":14367,"lymp":14368,"Ġgild":14369,"kers":14370,"Ġrhyth":14371,"nde":14372,"ocrates":14373,"Ġsecuring":14374,
[...]
